unsigned char model_tflite[] = {
  0x1c, 0x00, 0x00, 0x00, 0x54, 0x46, 0x4c, 0x33, 0x14, 0x00, 0x20, 0x00,
  0x1c, 0x00, 0x18, 0x00, 0x14, 0x00, 0x10, 0x00, 0x0c, 0x00, 0x00, 0x00,
  0x08, 0x00, 0x04, 0x00, 0x14, 0x00, 0x00, 0x00, 0x1c, 0x00, 0x00, 0x00,
  0x84, 0x00, 0x00, 0x00, 0xdc, 0x00, 0x00, 0x00, 0x10, 0x9c, 0x00, 0x00,
  0x20, 0x9c, 0x00, 0x00, 0xb0, 0xa7, 0x00, 0x00, 0x03, 0x00, 0x00, 0x00,
  0x01, 0x00, 0x00, 0x00, 0x04, 0x00, 0x00, 0x00, 0xe2, 0x62, 0xff, 0xff,
  0x0c, 0x00, 0x00, 0x00, 0x1c, 0x00, 0x00, 0x00, 0x3c, 0x00, 0x00, 0x00,
  0x0f, 0x00, 0x00, 0x00, 0x73, 0x65, 0x72, 0x76, 0x69, 0x6e, 0x67, 0x5f,
  0x64, 0x65, 0x66, 0x61, 0x75, 0x6c, 0x74, 0x00, 0x01, 0x00, 0x00, 0x00,
  0x04, 0x00, 0x00, 0x00, 0x98, 0xff, 0xff, 0xff, 0x16, 0x00, 0x00, 0x00,
  0x04, 0x00, 0x00, 0x00, 0x08, 0x00, 0x00, 0x00, 0x6f, 0x75, 0x74, 0x70,
  0x75, 0x74, 0x5f, 0x31, 0x00, 0x00, 0x00, 0x00, 0x01, 0x00, 0x00, 0x00,
  0x04, 0x00, 0x00, 0x00, 0xc6, 0x63, 0xff, 0xff, 0x04, 0x00, 0x00, 0x00,
  0x07, 0x00, 0x00, 0x00, 0x69, 0x6e, 0x70, 0x75, 0x74, 0x5f, 0x31, 0x00,
  0x02, 0x00, 0x00, 0x00, 0x34, 0x00, 0x00, 0x00, 0x04, 0x00, 0x00, 0x00,
  0xdc, 0xff, 0xff, 0xff, 0x19, 0x00, 0x00, 0x00, 0x04, 0x00, 0x00, 0x00,
  0x13, 0x00, 0x00, 0x00, 0x43, 0x4f, 0x4e, 0x56, 0x45, 0x52, 0x53, 0x49,
  0x4f, 0x4e, 0x5f, 0x4d, 0x45, 0x54, 0x41, 0x44, 0x41, 0x54, 0x41, 0x00,
  0x08, 0x00, 0x0c, 0x00, 0x08, 0x00, 0x04, 0x00, 0x08, 0x00, 0x00, 0x00,
  0x18, 0x00, 0x00, 0x00, 0x04, 0x00, 0x00, 0x00, 0x13, 0x00, 0x00, 0x00,
  0x6d, 0x69, 0x6e, 0x5f, 0x72, 0x75, 0x6e, 0x74, 0x69, 0x6d, 0x65, 0x5f,
  0x76, 0x65, 0x72, 0x73, 0x69, 0x6f, 0x6e, 0x00, 0x1a, 0x00, 0x00, 0x00,
  0x30, 0x9b, 0x00, 0x00, 0x28, 0x9b, 0x00, 0x00, 0xf8, 0x9a, 0x00, 0x00,
  0xa8, 0x9a, 0x00, 0x00, 0x18, 0x9a, 0x00, 0x00, 0x08, 0x82, 0x00, 0x00,
  0xf8, 0x7b, 0x00, 0x00, 0xe8, 0x63, 0x00, 0x00, 0x58, 0x63, 0x00, 0x00,
  0x38, 0x63, 0x00, 0x00, 0x24, 0x63, 0x00, 0x00, 0x0c, 0x63, 0x00, 0x00,
  0xf0, 0x62, 0x00, 0x00, 0xe0, 0x02, 0x00, 0x00, 0xd0, 0x00, 0x00, 0x00,
  0xc8, 0x00, 0x00, 0x00, 0xc0, 0x00, 0x00, 0x00, 0xb8, 0x00, 0x00, 0x00,
  0xb0, 0x00, 0x00, 0x00, 0xa8, 0x00, 0x00, 0x00, 0xa0, 0x00, 0x00, 0x00,
  0x98, 0x00, 0x00, 0x00, 0x90, 0x00, 0x00, 0x00, 0x88, 0x00, 0x00, 0x00,
  0x68, 0x00, 0x00, 0x00, 0x04, 0x00, 0x00, 0x00, 0xa2, 0x64, 0xff, 0xff,
  0x04, 0x00, 0x00, 0x00, 0x54, 0x00, 0x00, 0x00, 0x0c, 0x00, 0x00, 0x00,
  0x08, 0x00, 0x0e, 0x00, 0x08, 0x00, 0x04, 0x00, 0x08, 0x00, 0x00, 0x00,
  0x10, 0x00, 0x00, 0x00, 0x24, 0x00, 0x00, 0x00, 0x00, 0x00, 0x06, 0x00,
  0x08, 0x00, 0x04, 0x00, 0x06, 0x00, 0x00, 0x00, 0x04, 0x00, 0x00, 0x00,
  0x00, 0x00, 0x00, 0x00, 0x00, 0x00, 0x0a, 0x00, 0x10, 0x00, 0x0c, 0x00,
  0x08, 0x00, 0x04, 0x00, 0x0a, 0x00, 0x00, 0x00, 0x02, 0x00, 0x00, 0x00,
  0x02, 0x00, 0x00, 0x00, 0x04, 0x00, 0x00, 0x00, 0x06, 0x00, 0x00, 0x00,
  0x32, 0x2e, 0x31, 0x30, 0x2e, 0x30, 0x00, 0x00, 0x02, 0x65, 0xff, 0xff,
  0x04, 0x00, 0x00, 0x00, 0x10, 0x00, 0x00, 0x00, 0x31, 0x2e, 0x31, 0x30,
  0x2e, 0x30, 0x00, 0x00, 0x00, 0x00, 0x00, 0x00, 0x00, 0x00, 0x00, 0x00,
  0x40, 0x5a, 0xff, 0xff, 0x44, 0x5a, 0xff, 0xff, 0x48, 0x5a, 0xff, 0xff,
  0x4c, 0x5a, 0xff, 0xff, 0x50, 0x5a, 0xff, 0xff, 0x54, 0x5a, 0xff, 0xff,
  0x58, 0x5a, 0xff, 0xff, 0x5c, 0x5a, 0xff, 0xff, 0x60, 0x5a, 0xff, 0xff,
  0x42, 0x65, 0xff, 0xff, 0x04, 0x00, 0x00, 0x00, 0x00, 0x02, 0x00, 0x00,
  0x3e, 0x44, 0x4a, 0x3e, 0xa3, 0x65, 0xc8, 0xbe, 0x7d, 0x52, 0xde, 0x3c,
  0xe6, 0xff, 0x13, 0xbf, 0x7e, 0xec, 0x8a, 0x3e, 0xe2, 0x94, 0xa6, 0xbe,
  0x3e, 0x17, 0x01, 0x3e, 0x56, 0xf3, 0x01, 0xbf, 0x6f, 0x12, 0x09, 0x3f,
  0x2f, 0xc0, 0xce, 0xbe, 0x1f, 0xae, 0x3f, 0x3e, 0xff, 0x53, 0x93, 0x3d,
  0xa7, 0x13, 0xf6, 0x3e, 0xf2, 0x24, 0xd2, 0x3c, 0x26, 0x30, 0xbe, 0x3e,
  0xb2, 0xfa, 0xb1, 0x3e, 0x4b, 0xf9, 0x44, 0x3e, 0x7c, 0xdf, 0xf1, 0xbe,
  0xae, 0x4d, 0x06, 0xbf, 0x23, 0x58, 0x02, 0xbf, 0xaf, 0xd1, 0xe4, 0xbe,
  0xd2, 0x04, 0x00, 0xbe, 0x84, 0x7e, 0xef, 0xbe, 0x72, 0xf3, 0xac, 0x3e,
  0x84, 0x26, 0xb4, 0x3e, 0xae, 0x31, 0xdc, 0xbe, 0x06, 0x0f, 0xeb, 0x3e,
  0x87, 0xa7, 0xe9, 0xbe, 0x52, 0xdf, 0xef, 0xbe, 0x8f, 0x5f, 0x2a, 0xbe,
  0xc1, 0xa0, 0x6b, 0xbe, 0xe2, 0x68, 0x3d, 0xbe, 0x99, 0x28, 0xc2, 0xbe,
  0xee, 0x5a, 0xe4, 0x3e, 0x6c, 0x98, 0xb6, 0x3c, 0x7c, 0x1f, 0x84, 0x3e,
  0xc0, 0x78, 0x53, 0x3e, 0xd0, 0x0b, 0xe2, 0x3e, 0x9d, 0xf3, 0x14, 0xbe,
  0xa4, 0x16, 0xaf, 0x3d, 0xc2, 0x8a, 0xea, 0x3c, 0xc9, 0x39, 0xb8, 0xbe,
  0xe8, 0xb0, 0x64, 0xbd, 0xa1, 0x69, 0xc4, 0xbe, 0x47, 0x38, 0x8e, 0xbe,
  0x2a, 0x18, 0x85, 0x3d, 0xcd, 0x30, 0xa2, 0x3e, 0xb4, 0x0c, 0x81, 0x3e,
  0x14, 0x7c, 0xfd, 0xbb, 0x89, 0x40, 0xa0, 0xbe, 0x12, 0x2a, 0x5a, 0x3e,
  0x26, 0x8a, 0x29, 0x3e, 0x75, 0xa0, 0xcc, 0x3d, 0x28, 0x7d, 0xe1, 0x3e,
  0xad, 0x5a, 0x6f, 0x3e, 0xbb, 0xf9, 0xe6, 0xbe, 0xb8, 0xf8, 0xc5, 0x3d,
  0x81, 0x19, 0xcf, 0xbe, 0x02, 0xc4, 0xad, 0xbe, 0x99, 0x23, 0x93, 0x3e,
  0xb4, 0xa4, 0xd7, 0xbe, 0xe5, 0x18, 0xae, 0x3e, 0x84, 0xbe, 0x1d, 0xbe,
  0x78, 0xf6, 0xb9, 0x3d, 0xa1, 0xf3, 0xd4, 0xbe, 0x03, 0x7e, 0xa1, 0x3d,
  0x46, 0x67, 0xaf, 0xbc, 0x99, 0x25, 0x35, 0xbe, 0xf1, 0x79, 0xda, 0xbe,
  0x07, 0x2d, 0xba, 0xbe, 0xff, 0xf9, 0xeb, 0x3e, 0x1a, 0x47, 0x82, 0x3e,
  0x3f, 0x0a, 0xf5, 0x3d, 0x9e, 0xd6, 0x45, 0xbe, 0x2b, 0x26, 0xe7, 0xbe,
  0xd7, 0x11, 0xf1, 0xbe, 0x4e, 0x5e, 0x07, 0x3e, 0x19, 0xfc, 0xfd, 0x3c,
  0xdd, 0x65, 0xfa, 0xbc, 0x11, 0x74, 0x9e, 0xbd, 0x51, 0x24, 0x28, 0x3d,
  0xae, 0x2e, 0x50, 0xbe, 0x55, 0x59, 0x7b, 0x3e, 0x62, 0xf1, 0x9c, 0x3e,
  0x1c, 0x94, 0x8f, 0xbd, 0xc1, 0x3e, 0x81, 0xbe, 0x97, 0x78, 0xbf, 0x3d,
  0x6c, 0x27, 0x88, 0x3e, 0xd5, 0xc4, 0x7b, 0x3e, 0x10, 0xe1, 0x9d, 0x3e,
  0x8d, 0x4b, 0x72, 0xbe, 0x1b, 0x4a, 0xe9, 0xbc, 0x0d, 0x37, 0x9b, 0xbd,
  0xe8, 0x88, 0x6c, 0xbc, 0xae, 0xfe, 0x0f, 0x3d, 0x69, 0x9b, 0xc6, 0xbe,
  0xb4, 0x9d, 0xc3, 0x3e, 0x27, 0x01, 0xfe, 0x3b, 0xd9, 0xd0, 0x2a, 0xbd,
  0x8b, 0xde, 0x25, 0xbe, 0xb9, 0x56, 0x8f, 0x3e, 0xcc, 0xf3, 0x4e, 0xbe,
  0x1a, 0xd9, 0x92, 0xbd, 0x08, 0x54, 0x8e, 0x3e, 0x6c, 0x31, 0xd7, 0x3e,
  0x09, 0xa8, 0xe3, 0xbe, 0x9b, 0x2e, 0xff, 0xbe, 0x9b, 0xec, 0x92, 0xbd,
  0x10, 0x4b, 0x44, 0x3e, 0x04, 0x9c, 0x62, 0xbe, 0x7a, 0x82, 0xd4, 0x3e,
  0xd5, 0x20, 0x33, 0xbd, 0xff, 0xbd, 0x95, 0xbe, 0x48, 0xe1, 0x40, 0xbd,
  0xf8, 0x13, 0x81, 0x3e, 0xa2, 0x6f, 0x8f, 0x3e, 0x82, 0xe0, 0xd6, 0xbe,
  0x5a, 0xe1, 0xc4, 0xbe, 0xb6, 0xff, 0xb3, 0xbd, 0x2a, 0x59, 0xa7, 0xbe,
  0x42, 0x42, 0xd3, 0xbe, 0x4a, 0x35, 0x81, 0x3e, 0x1c, 0x3a, 0x8d, 0xbe,
  0x3c, 0xd6, 0xc0, 0x3c, 0x41, 0x6b, 0x6a, 0x3e, 0x9c, 0xe3, 0xa4, 0x3e,
  0x5b, 0x7a, 0x81, 0x3e, 0xc7, 0x7e, 0x4b, 0xbd, 0x4e, 0x67, 0xff, 0xff,
  0x04, 0x00, 0x00, 0x00, 0x00, 0x60, 0x00, 0x00, 0x7b, 0x1e, 0x24, 0x3e,
  0x52, 0x35, 0xf5, 0x3d, 0x98, 0x92, 0x75, 0xbd, 0x32, 0x45, 0x98, 0xbc,
  0xfc, 0x33, 0x80, 0xbd, 0x3d, 0xc3, 0x00, 0x3e, 0x58, 0x0e, 0x59, 0xbc,
  0x8e, 0x25, 0xc0, 0xbd, 0x1c, 0x8e, 0x0b, 0x3e, 0x7d, 0xd3, 0x9e, 0x3d,
  0x66, 0x76, 0xa5, 0x3c, 0xae, 0x0c, 0xd6, 0x3c, 0x83, 0xd8, 0x32, 0x3e,
  0x13, 0x4b, 0x87, 0xbd, 0x14, 0x7b, 0x1d, 0x3e, 0x8b, 0x3a, 0x14, 0x3e,
  0x2e, 0xa3, 0x61, 0x3e, 0xcb, 0xdb, 0x9d, 0xbd, 0x68, 0x51, 0x75, 0xbd,
  0x18, 0x85, 0x2e, 0x3e, 0x48, 0x09, 0xdf, 0x3c, 0x24, 0xf9, 0xd3, 0xbd,
  0x2a, 0x6d, 0x34, 0xbd, 0x44, 0x34, 0xd6, 0x3c, 0x25, 0xd3, 0xb7, 0x3b,
  0xbd, 0x0e, 0xc6, 0x8e, 0xa0, 0xe1, 0x50, 0x3e, 0x2d, 0x0a, 0x55, 0x3d,
  0xdc, 0xd3, 0x8e, 0xbc, 0x58, 0x97, 0xea, 0xbc, 0x56, 0xcc, 0xb8, 0xbd,
  0x6e, 0xcf, 0x8b, 0xb9, 0x19, 0xd9, 0xd4, 0x3c, 0x36, 0xee, 0x0c, 0x3d,
  0x5e, 0x25, 0x15, 0xbd, 0x35, 0x35, 0xfe, 0x3d, 0x8a, 0xde, 0xb7, 0xbd,
  0x48, 0x5a, 0x65, 0x3d, 0xae, 0x47, 0x7e, 0xbd, 0xb2, 0xd6, 0x4c, 0x3e,
  0xa6, 0xe3, 0xfa, 0x3d, 0x0f, 0x1c, 0x56, 0x3c, 0x54, 0xb4, 0xa5, 0xb9,
  0x27, 0x93, 0x10, 0x3e, 0x70, 0x06, 0xb7, 0x3c, 0xac, 0xe1, 0x9c, 0xbb,
  0x65, 0xbf, 0xc9, 0xbd, 0xb4, 0x03, 0x9b, 0x3c, 0xf9, 0x71, 0xee, 0xbd,
  0x2a, 0x28, 0x32, 0xbe, 0x59, 0x36, 0xaf, 0x3d, 0xd9, 0xfb, 0x9b, 0xbd,
  0xf0, 0xae, 0xa3, 0xbd, 0x68, 0x4e, 0x4a, 0xbe, 0xad, 0xe7, 0x05, 0x3d,
  0xea, 0xab, 0x53, 0x3d, 0x17, 0x99, 0x8c, 0x3b, 0x5f, 0x5b, 0xc5, 0x0e,
  0xa3, 0xa7, 0x8c, 0x3d, 0x73, 0xd0, 0xd1, 0xbd, 0xd1, 0xda, 0x92, 0x3d,
  0x5a, 0x26, 0x9c, 0x3d, 0x7d, 0x13, 0x45, 0x3e, 0x01, 0xe7, 0xb0, 0x3c,
  0x3a, 0x10, 0x10, 0xbd, 0x4d, 0xa8, 0x9d, 0x3c, 0xf9, 0x1e, 0x53, 0x3e,
  0x73, 0xf3, 0x63, 0x3d, 0x03, 0x66, 0x1a, 0xbd, 0x77, 0x0e, 0xa4, 0x3d,
  0x59, 0x12, 0xe4, 0xbd, 0x30, 0x4c, 0x34, 0x3e, 0xbe, 0xb9, 0x48, 0xbd,
  0xb8, 0x01, 0x20, 0xbe, 0x9a, 0xba, 0x09, 0x3e, 0x4e, 0x51, 0x96, 0x3d,
  0xa7, 0x76, 0x16, 0x3e, 0x90, 0xab, 0xa2, 0x3d, 0x38, 0x2a, 0x0a, 0x3e,
  0x91, 0x49, 0xde, 0x3c, 0xd2, 0xdf, 0x3a, 0x3e, 0x94, 0x11, 0x03, 0x3e,
  0x8c, 0x5f, 0x12, 0x3c, 0x61, 0xe0, 0x43, 0x3e, 0x38, 0x06, 0x92, 0xbd,
  0x2b, 0xe1, 0x13, 0xbe, 0x91, 0x84, 0xbf, 0xbd, 0x44, 0xe5, 0x7a, 0x3c,
  0xee, 0x91, 0xb1, 0x3d, 0x50, 0xfb, 0xc5, 0x0e, 0x25, 0xd0, 0xee, 0xbb,
  0x52, 0xd0, 0x40, 0xbe, 0x75, 0xd9, 0x31, 0x3d, 0x0c, 0xbd, 0x18, 0x3d,
  0xde, 0x37, 0x3f, 0xbd, 0xf8, 0xf8, 0x89, 0x3c, 0x3c, 0x7d, 0xd0, 0xbd,
  0x97, 0xb8, 0xe5, 0x3d, 0xf4, 0x8c, 0x0b, 0xbe, 0x52, 0xc4, 0x1f, 0x3d,
  0xde, 0xf1, 0xd3, 0xbd, 0x6b, 0x71, 0x71, 0x3d, 0x04, 0x88, 0x51, 0xbd,
  0xb0, 0x4a, 0x65, 0xbd, 0xeb, 0xa5, 0xb7, 0xbd, 0x58, 0xef, 0x9f, 0xba,
  0x66, 0xaf, 0xa5, 0xbd, 0x21, 0x5e, 0x88, 0x3d, 0xae, 0x3c, 0xcc, 0x3c,
  0xf8, 0xb7, 0x6d, 0x3c, 0x3c, 0x72, 0xd8, 0xbd, 0x84, 0x9e, 0xce, 0x3c,
  0xc3, 0x0c, 0x7a, 0x3e, 0x2b, 0xa0, 0xad, 0x3d, 0x44, 0x2b, 0xfe, 0x3d,
  0x02, 0xeb, 0xb8, 0xbd, 0x3b, 0x3a, 0xbe, 0xbd, 0x14, 0xc0, 0x09, 0xbe,
  0x98, 0x2b, 0x05, 0xbc, 0xe1, 0xde, 0xcb, 0x3d, 0xa5, 0x41, 0xc6, 0xbd,
  0x33, 0x45, 0xc3, 0x8e, 0xb2, 0xf9, 0x02, 0x3d, 0xd7, 0x9b, 0x59, 0xbd,
  0x8a, 0x0d, 0xbd, 0x3d, 0x0b, 0x62, 0x37, 0x3d, 0xe1, 0x47, 0x3f, 0xbd,
  0xaf, 0x70, 0x07, 0x3e, 0x70, 0xee, 0x28, 0x3e, 0xff, 0x4a, 0x0f, 0xbe,
  0x22, 0x38, 0x01, 0x3e, 0x48, 0xa8, 0x60, 0x3d, 0x34, 0xf3, 0x22, 0x3d,
  0x18, 0xa5, 0x37, 0x3e, 0xa7, 0x59, 0x7c, 0xbd, 0x3f, 0xcf, 0x1a, 0x3e,
  0xe9, 0xa0, 0xab, 0x3d, 0xdb, 0x62, 0x89, 0x3d, 0xc5, 0xab, 0x2b, 0x3e,
  0xb9, 0x17, 0xae, 0x3d, 0x0a, 0xd1, 0x32, 0x3e, 0x3d, 0x3c, 0x46, 0x3e,
  0x84, 0x49, 0x13, 0x3e, 0x86, 0x34, 0x46, 0x3e, 0x13, 0xac, 0xa6, 0xbd,
  0xd0, 0x1c, 0x0e, 0xbe, 0x3e, 0xe6, 0xc2, 0xbd, 0xe2, 0x9a, 0xe9, 0x3d,
  0x56, 0xca, 0x60, 0x3e, 0x37, 0x65, 0x1a, 0x3e, 0xe4, 0x16, 0x07, 0x3d,
  0x27, 0xb2, 0x2b, 0xbd, 0x55, 0x60, 0xa3, 0x3d, 0x68, 0xb0, 0xc5, 0x0e,
  0x5c, 0xaa, 0xc5, 0xbd, 0xb1, 0xd6, 0x2b, 0xbe, 0x8f, 0xa3, 0x60, 0xbd,
  0x11, 0xea, 0x76, 0xbd, 0x16, 0x7c, 0xfe, 0xbc, 0xcf, 0x18, 0xb6, 0xbd,
  0x80, 0x4e, 0x3c, 0x3e, 0x67, 0xce, 0xa2, 0xbd, 0x7d, 0x3a, 0x84, 0x3c,
  0xe4, 0x9d, 0x21, 0xbd, 0x76, 0xec, 0x01, 0x3e, 0x44, 0x94, 0xa5, 0xbd,
  0x6c, 0x66, 0x32, 0x3d, 0x06, 0x6f, 0xb3, 0xbd, 0x51, 0x71, 0x9c, 0xbd,
  0x44, 0xc7, 0x0a, 0x3e, 0x95, 0x56, 0x8a, 0x3d, 0xf7, 0x68, 0xe1, 0xbc,
  0x2f, 0x09, 0x8d, 0xbc, 0x68, 0x12, 0xe6, 0x3d, 0xe0, 0xd5, 0xff, 0xbd,
  0xed, 0xe4, 0x01, 0xbe, 0x1a, 0x2c, 0x3a, 0x3e, 0x10, 0x4e, 0xa9, 0xbd,
  0xfd, 0x94, 0xe8, 0x3d, 0x81, 0xd1, 0xa9, 0x3c, 0x6c, 0x55, 0x33, 0xbd,
  0x65, 0x23, 0x4c, 0xbe, 0x8a, 0x8f, 0x74, 0xbc, 0x64, 0x10, 0x1f, 0x3e,
  0x02, 0xf1, 0x16, 0x3e, 0xdc, 0x43, 0xc3, 0x8e, 0xed, 0x85, 0xa7, 0xba,
  0x69, 0xb2, 0xc3, 0xbd, 0xfd, 0x7a, 0x4d, 0x3e, 0xc7, 0x26, 0xbd, 0xbd,
  0x89, 0xee, 0x06, 0x3d, 0x8c, 0xf8, 0xe1, 0xbc, 0x9b, 0x01, 0xb8, 0xbd,
  0xda, 0xe9, 0x14, 0xbe, 0xc1, 0xed, 0xf0, 0xbd, 0x3c, 0x9a, 0x62, 0xbe,
  0xfe, 0xb9, 0xd2, 0x3d, 0xa5, 0x7a, 0xae, 0x3c, 0xa1, 0x87, 0x7f, 0xbd,
  0x6b, 0x6b, 0x09, 0x3d, 0x90, 0xa9, 0x96, 0x3d, 0xf0, 0xa2, 0x84, 0xbd,
  0xe7, 0x47, 0x0f, 0x3e, 0xa2, 0x40, 0x13, 0xbd, 0xcf, 0xac, 0xc3, 0xbd,
  0x99, 0xc5, 0xfe, 0xbd, 0x94, 0x45, 0x10, 0xbd, 0x4d, 0x4e, 0x1c, 0x3e,
  0x22, 0x8f, 0xd8, 0xbd, 0x8d, 0xd4, 0x7d, 0xbd, 0x99, 0xb9, 0x98, 0xbc,
  0x87, 0xa9, 0x19, 0x3e, 0x3b, 0xa5, 0x17, 0xbe, 0x7a, 0xaf, 0xc4, 0x3c,
  0x05, 0x95, 0x0f, 0xbe, 0x41, 0x6b, 0x3b, 0xbe, 0xd1, 0x21, 0x3f, 0xbe,
  0xd7, 0x48, 0xc4, 0x8e, 0x0d, 0x4c, 0x0d, 0x3e, 0xd2, 0xb4, 0x89, 0x3d,
  0xbc, 0x90, 0xed, 0x3d, 0xc6, 0x19, 0xc6, 0xbc, 0x47, 0x1f, 0xf6, 0xbb,
  0x65, 0x0a, 0x0e, 0xbe, 0x8d, 0x2c, 0x2f, 0x3e, 0xae, 0xe4, 0x3a, 0xbe,
  0xf3, 0x74, 0x2c, 0xbc, 0x58, 0xd8, 0xd1, 0x3d, 0x6e, 0xdc, 0xb9, 0x3b,
  0xdf, 0xbb, 0x2e, 0xbd, 0xc3, 0x57, 0x44, 0x3e, 0xbc, 0x75, 0xc6, 0xbd,
  0x12, 0x92, 0x55, 0xbc, 0x42, 0x01, 0x21, 0xbe, 0x8d, 0x5b, 0x32, 0xbb,
  0x47, 0xda, 0x3d, 0x3d, 0x06, 0xd1, 0x7c, 0xbd, 0xa6, 0xc6, 0xff, 0xbd,
  0xcc, 0xb5, 0xca, 0xbd, 0xa4, 0x5d, 0xd9, 0x3d, 0x62, 0xe1, 0x46, 0xbc,
  0x89, 0xc7, 0x0c, 0xbe, 0x6c, 0x54, 0x3b, 0xbe, 0x82, 0x33, 0x4c, 0x3d,
  0x8b, 0xc5, 0x26, 0xbd, 0xa4, 0xea, 0xf0, 0xbc, 0xa2, 0x3b, 0x46, 0x3c,
  0xb3, 0x0a, 0x0f, 0x3b, 0xd4, 0xbd, 0xca, 0x3d, 0x37, 0xc4, 0xc4, 0x8e,
  0xa3, 0x08, 0xb8, 0x3d, 0x0c, 0xf3, 0xb7, 0xbd, 0x88, 0x3b, 0x96, 0x3c,
  0xa6, 0x8f, 0x73, 0x3b, 0xfb, 0x48, 0xd5, 0xbd, 0xc2, 0xa1, 0x3a, 0xbd,
  0xf1, 0x98, 0xb9, 0x3d, 0x85, 0x77, 0x27, 0x3e, 0x83, 0xf6, 0x3d, 0xbe,
  0x26, 0x6b, 0xdf, 0xbc, 0x47, 0x4f, 0x4b, 0xbc, 0x58, 0xf1, 0xe7, 0xbd,
  0x0b, 0xcd, 0xcc, 0x3c, 0xdb, 0xc0, 0x2b, 0x3d, 0xd1, 0xe6, 0xde, 0xbc,
  0x13, 0x5d, 0x35, 0x3e, 0xe7, 0x3c, 0x34, 0x3e, 0xf7, 0xe3, 0x07, 0xbe,
  0x5f, 0xa3, 0x0b, 0x3d, 0x9c, 0x56, 0xbf, 0x3d, 0x8c, 0x95, 0x4d, 0x3e,
  0xf9, 0x4a, 0xbb, 0x3b, 0xda, 0xca, 0x29, 0xbd, 0xc9, 0xff, 0x3f, 0x3e,
  0x31, 0xa2, 0x28, 0xbc, 0x83, 0x66, 0x71, 0xbd, 0xa1, 0xf0, 0x00, 0xbd,
  0x5e, 0xec, 0x40, 0x3e, 0xe8, 0xd9, 0x57, 0x3c, 0x58, 0xad, 0x38, 0xbc,
  0x9e, 0x34, 0x29, 0x3e, 0x20, 0x1f, 0xc5, 0x8e, 0x51, 0xa4, 0x46, 0x3c,
  0x97, 0x75, 0x82, 0xbd, 0xb5, 0x02, 0x77, 0xbd, 0x94, 0x6c, 0x5a, 0xbe,
  0x63, 0x37, 0x12, 0x3d, 0x1c, 0x01, 0x6c, 0x3d, 0x63, 0x2c, 0x0b, 0xbe,
  0x0b, 0x18, 0xa6, 0xbd, 0xbf, 0x26, 0x17, 0x3e, 0x10, 0xfc, 0x1e, 0xbd,
  0xb8, 0x5f, 0xdc, 0xbd, 0x4b, 0x0e, 0x16, 0x3e, 0x92, 0xf6, 0x65, 0x3d,
  0x4d, 0xf5, 0x49, 0x3d, 0xeb, 0x65, 0x96, 0x3d, 0x5c, 0x0b, 0x8d, 0xbc,
  0x82, 0x5c, 0x3d, 0x3e, 0x2e, 0xe5, 0x14, 0x3e, 0xd7, 0xdf, 0x11, 0x3e,
  0x3d, 0xbc, 0xac, 0xbd, 0x8a, 0x39, 0x00, 0xbe, 0x6d, 0xb8, 0xd1, 0x3d,
  0x46, 0x9b, 0x97, 0xbd, 0x26, 0x31, 0x6a, 0x3e, 0x5c, 0xfe, 0xf6, 0x3d,
  0xf1, 0xc2, 0x81, 0x3d, 0x33, 0x60, 0x0c, 0x3e, 0x80, 0x01, 0xb9, 0x3d,
  0xd4, 0x86, 0x55, 0x3b, 0x32, 0x7a, 0xbf, 0x3d, 0x47, 0x2a, 0xbb, 0x3d,
  0xc4, 0xfd, 0xc2, 0x8e, 0x17, 0x5d, 0x46, 0xbd, 0xc0, 0x15, 0xe8, 0x3d,
  0xf5, 0x6d, 0x8a, 0xbd, 0x95, 0x1b, 0x74, 0x3d, 0xe3, 0x87, 0x1b, 0x3e,
  0xfc, 0x50, 0x63, 0x3d, 0x36, 0x08, 0x99, 0xbd, 0xbd, 0xab, 0xa7, 0x3d,
  0xfd, 0x0a, 0xb5, 0xbc, 0xf0, 0x4e, 0xee, 0x3d, 0xa8, 0x83, 0x3f, 0x3e,
  0xd2, 0xfb, 0x8a, 0xbd, 0x62, 0x4f, 0x2a, 0xbd, 0xd9, 0xc8, 0x5c, 0x3d,
  0x1a, 0xc6, 0xc3, 0xbc, 0xd8, 0xbd, 0x11, 0x3e, 0x19, 0xa1, 0x31, 0x3d,
  0xbe, 0x20, 0xb3, 0x3d, 0x95, 0x25, 0x64, 0xbc, 0x71, 0x8e, 0x0c, 0xbe,
  0x55, 0xce, 0xed, 0xbd, 0x04, 0xa3, 0x02, 0xbe, 0x9a, 0x81, 0xd6, 0xbd,
  0xd0, 0x8c, 0x56, 0x3d, 0x60, 0x36, 0x09, 0x3e, 0x42, 0xbb, 0x2d, 0xbe,
  0xa5, 0x21, 0xa9, 0xbd, 0x01, 0xf8, 0xd6, 0xbc, 0x67, 0x07, 0x07, 0xbe,
  0x45, 0xd1, 0xf7, 0xbd, 0xfa, 0x2c, 0x21, 0x3e, 0x89, 0xec, 0xbc, 0x0e,
  0x93, 0x73, 0xd0, 0x3d, 0x3d, 0x78, 0x0d, 0x3e, 0x7a, 0x10, 0x8e, 0xbc,
  0x0b, 0xfa, 0xb6, 0xbb, 0x41, 0x02, 0x3a, 0xbe, 0xf4, 0x9b, 0x63, 0x3d,
  0x10, 0x0a, 0xcf, 0x3d, 0x75, 0x4b, 0xdb, 0xbd, 0xe3, 0xff, 0x03, 0xbe,
  0x0c, 0x08, 0xb1, 0x3d, 0xc4, 0x64, 0xb8, 0xbd, 0x57, 0x5d, 0x1d, 0xbd,
  0x67, 0xaa, 0xd1, 0x3d, 0x1c, 0x18, 0x01, 0xbd, 0xc6, 0xa6, 0x40, 0xbd,
  0xb4, 0x20, 0xcf, 0x3d, 0x5c, 0xc4, 0x06, 0xbe, 0x84, 0xe4, 0x86, 0x3c,
  0x4e, 0x85, 0x96, 0x3d, 0x1c, 0x1a, 0xc9, 0x3d, 0xc5, 0x06, 0xa6, 0x3d,
  0xca, 0x47, 0xe0, 0x3d, 0xa8, 0x8b, 0xd0, 0xbd, 0x44, 0xbb, 0x09, 0x3e,
  0xf3, 0xc6, 0x9c, 0xbd, 0xdd, 0xc3, 0x3c, 0x3e, 0x4c, 0x4f, 0xc9, 0xbd,
  0xee, 0x44, 0xb2, 0xbd, 0xf4, 0x40, 0x9e, 0xbd, 0x96, 0x30, 0xee, 0xbd,
  0xfb, 0x95, 0x08, 0x3c, 0x88, 0x13, 0xc3, 0x8e, 0x67, 0x75, 0x39, 0x3d,
  0x1f, 0x0f, 0xf1, 0xba, 0xd5, 0xb4, 0xb5, 0x3d, 0x69, 0xb0, 0x4d, 0xbc,
  0x5d, 0x2f, 0x1c, 0x3d, 0xe3, 0xd9, 0xd7, 0xbd, 0xc3, 0x69, 0x1c, 0xbc,
  0xa5, 0x97, 0x29, 0x3c, 0x8e, 0x24, 0x7a, 0xbc, 0x63, 0x7b, 0x4a, 0xbc,
  0x14, 0x54, 0x06, 0x3c, 0xbb, 0xac, 0x96, 0xbb, 0x06, 0x94, 0x17, 0xbb,
  0x5f, 0x3a, 0xd1, 0x3c, 0x3d, 0x18, 0x82, 0x3c, 0xe7, 0xa0, 0xa2, 0x3a,
  0xeb, 0x2d, 0x2c, 0x3d, 0x02, 0xa0, 0x95, 0xbc, 0x6e, 0xa1, 0xb6, 0xbb,
  0x61, 0xd5, 0x73, 0xbb, 0x45, 0x7c, 0x02, 0xbd, 0x8f, 0x31, 0x63, 0xbb,
  0xe4, 0x41, 0x26, 0xbc, 0xf6, 0x93, 0xd3, 0xba, 0x48, 0xf8, 0x82, 0xbc,
  0x96, 0x0e, 0xc6, 0x0e, 0xc9, 0x99, 0xbf, 0xbc, 0x40, 0x5b, 0x6d, 0xbd,
  0xbb, 0xde, 0x67, 0xbc, 0x7f, 0x94, 0x1e, 0xbc, 0x01, 0x97, 0xdd, 0xbc,
  0xe9, 0x3a, 0xc5, 0x0e, 0x68, 0x26, 0x63, 0xb9, 0x25, 0xb6, 0xc3, 0x8e,
  0xc3, 0x57, 0x30, 0xbc, 0x46, 0x54, 0xe0, 0xbb, 0xfa, 0xf3, 0x39, 0xbd,
  0x9e, 0x0e, 0xf1, 0x3c, 0x5b, 0x09, 0xdd, 0x3b, 0x10, 0x13, 0x80, 0xbb,
  0x0c, 0x75, 0xf2, 0x3c, 0x2f, 0x24, 0xc6, 0x3b, 0x00, 0xdb, 0x5d, 0x3c,
  0xb0, 0x10, 0xdf, 0x39, 0x06, 0xe7, 0xed, 0xb8, 0xda, 0xe2, 0x09, 0x3c,
  0xd3, 0x34, 0x0c, 0x3c, 0xf9, 0xbd, 0x4a, 0xbc, 0x63, 0x76, 0x42, 0xbc,
  0xa6, 0xe8, 0x09, 0x3c, 0x41, 0xdc, 0x1b, 0xbc, 0x42, 0x2e, 0xc1, 0x3b,
  0x6d, 0x2f, 0xe9, 0xbc, 0x92, 0x52, 0x9a, 0x3a, 0x7c, 0x54, 0x84, 0xbb,
  0xde, 0x88, 0x80, 0xbc, 0x9e, 0x5c, 0x19, 0x3c, 0xe7, 0x72, 0x17, 0xbb,
  0x37, 0xae, 0xac, 0x3b, 0xf5, 0x9d, 0x10, 0x3c, 0x85, 0xcd, 0x8b, 0xbb,
  0x32, 0x0d, 0x91, 0x3b, 0xe1, 0x2e, 0x17, 0x3d, 0xfc, 0x6e, 0xc5, 0x8e,
  0x7d, 0xe9, 0xc5, 0x0e, 0x82, 0xa4, 0xad, 0xbb, 0x8a, 0x09, 0x2a, 0x3c,
  0xed, 0xd6, 0x2b, 0xba, 0x50, 0x01, 0xc7, 0x3b, 0xa1, 0xa2, 0xee, 0xbc,
  0x63, 0x36, 0x41, 0x3c, 0x64, 0x14, 0x0e, 0xbd, 0x45, 0xa9, 0x3a, 0x3c,
  0x9a, 0xad, 0x9c, 0xbb, 0x05, 0x22, 0x1b, 0x3c, 0x9a, 0x43, 0x14, 0x3c,
  0xab, 0xcd, 0x8f, 0x3b, 0xfb, 0xfc, 0x3f, 0x3c, 0x75, 0x13, 0x7f, 0xbc,
  0x46, 0x4f, 0x91, 0x3b, 0x0b, 0xee, 0x3d, 0xbd, 0xfb, 0xba, 0x61, 0x3c,
  0x7d, 0x2d, 0x9b, 0xbc, 0x98, 0x18, 0xb7, 0xbb, 0xf6, 0x6c, 0x79, 0xbd,
  0xc9, 0xd5, 0x3e, 0x3c, 0x7d, 0x10, 0x84, 0xbc, 0x94, 0x55, 0xe3, 0xbc,
  0xad, 0x50, 0x4f, 0xbc, 0xe1, 0x2f, 0x2f, 0x3c, 0xdf, 0xa0, 0x66, 0x3c,
  0xaf, 0xaf, 0xc5, 0x3b, 0xca, 0x0d, 0x0e, 0xbb, 0xdb, 0xc8, 0x88, 0x3a,
  0xe9, 0x5e, 0xbf, 0xbb, 0x8e, 0x67, 0xc4, 0x0e, 0xe7, 0xb9, 0x5f, 0xbb,
  0x4e, 0xe4, 0xe3, 0x3b, 0xf8, 0x98, 0x38, 0x3c, 0x00, 0x8d, 0x40, 0x3c,
  0x21, 0xf5, 0x55, 0x3c, 0x50, 0x2e, 0x97, 0xbb, 0x43, 0x9a, 0x15, 0x3b,
  0x6c, 0xdd, 0xc4, 0x8e, 0x05, 0x1e, 0x73, 0xbc, 0xa8, 0x31, 0x85, 0xbc,
  0x84, 0xd3, 0xa1, 0x3c, 0x9a, 0x5f, 0x5b, 0x3a, 0xa6, 0xa6, 0x67, 0x3c,
  0x66, 0x34, 0x37, 0xbd, 0xbd, 0xb9, 0x64, 0xbd, 0x17, 0x22, 0xc5, 0x8e,
  0xd9, 0x77, 0x1f, 0xbd, 0x34, 0xc8, 0x37, 0x3c, 0x9b, 0xdf, 0x31, 0xbc,
  0x2a, 0x44, 0x46, 0xbd, 0xea, 0x9b, 0xe9, 0xbb, 0x9d, 0x23, 0x9a, 0xbc,
  0xf2, 0xc0, 0x83, 0xbc, 0x02, 0xb5, 0x50, 0xb1, 0x5a, 0x31, 0x64, 0xbc,
  0xa4, 0x54, 0xa4, 0x3c, 0xed, 0xb6, 0x4b, 0x3d, 0x87, 0x89, 0xae, 0xbd,
  0x46, 0x37, 0x22, 0xbc, 0xb5, 0x74, 0xf1, 0xbc, 0x0b, 0x37, 0xd0, 0x3c,
  0x5d, 0x3e, 0xc5, 0x8e, 0x80, 0xc6, 0x86, 0x3c, 0x6d, 0xea, 0xc5, 0x0e,
  0x17, 0x4a, 0x72, 0x3b, 0x9a, 0xeb, 0x29, 0x3c, 0x90, 0xff, 0x22, 0xbd,
  0xdf, 0x28, 0x89, 0xbc, 0xe4, 0xa6, 0xc3, 0x0e, 0x89, 0x15, 0x4a, 0x3d,
  0x58, 0xca, 0x76, 0xbb, 0x26, 0x69, 0x3f, 0x3a, 0x9b, 0x3e, 0x5b, 0x3d,
  0x04, 0x5f, 0xc6, 0x8e, 0x5b, 0x2a, 0xe3, 0x3b, 0x66, 0x39, 0x2d, 0xba,
  0xd7, 0x5b, 0xeb, 0x3b, 0x73, 0x12, 0x50, 0x3d, 0x4b, 0x6d, 0x0e, 0x3d,
  0x78, 0xe3, 0x82, 0xba, 0xa9, 0xdf, 0x13, 0x3d, 0x09, 0x21, 0xaa, 0x3c,
  0x3b, 0x1d, 0x5e, 0xbd, 0x1f, 0x75, 0xc3, 0x8e, 0x5a, 0x4c, 0x73, 0x3d,
  0xbb, 0x00, 0xc5, 0x3d, 0x71, 0xa0, 0xc6, 0xbd, 0x96, 0x8b, 0xab, 0xba,
  0x06, 0xb5, 0x30, 0xba, 0x78, 0x7e, 0x86, 0x3d, 0xce, 0x14, 0x1c, 0x3d,
  0x99, 0x2f, 0xc4, 0x8e, 0x7f, 0xf5, 0x05, 0xbd, 0xf7, 0x00, 0xc5, 0x0e,
  0xe4, 0x9c, 0x3d, 0x3c, 0x2f, 0xd4, 0x0c, 0x3d, 0x90, 0xef, 0xc5, 0x0e,
  0x55, 0x30, 0x86, 0xb8, 0xee, 0xf0, 0x23, 0xbc, 0xd1, 0x17, 0x89, 0xbc,
  0x3d, 0x99, 0xba, 0xba, 0x3d, 0x2e, 0x6a, 0xbb, 0x54, 0x77, 0xd0, 0x3b,
  0x50, 0xac, 0x23, 0x3c, 0xbf, 0x49, 0xc5, 0xbc, 0xec, 0x3f, 0xc5, 0x0e,
  0xe9, 0x0b, 0x8c, 0x3c, 0x37, 0xf4, 0xc4, 0x8e, 0x6d, 0x6f, 0xf3, 0xbc,
  0x83, 0x1e, 0x61, 0xbb, 0x92, 0x35, 0xf9, 0xbc, 0x9b, 0xaf, 0xff, 0xb7,
  0x6d, 0x41, 0xa4, 0xbd, 0xac, 0x9e, 0x44, 0xbc, 0xb9, 0x57, 0x44, 0xbd,
  0x6a, 0xd2, 0xc5, 0x8e, 0x40, 0xfe, 0x0d, 0x3c, 0xd2, 0x84, 0x08, 0x3d,
  0xd7, 0x56, 0xaa, 0xbc, 0x73, 0x5b, 0xc6, 0xbb, 0x2c, 0xb7, 0xc3, 0x8e,
  0xf3, 0x43, 0xc2, 0x3d, 0x62, 0xb0, 0x22, 0xbb, 0x01, 0x6d, 0xc3, 0x0e,
  0xfd, 0x6e, 0x8b, 0xbd, 0xdf, 0x5c, 0xc3, 0x8e, 0x2d, 0x66, 0x94, 0x3c,
  0xd5, 0x25, 0xbe, 0x3d, 0x8c, 0xb7, 0xc5, 0x8e, 0x6b, 0x85, 0x78, 0xbb,
  0xa1, 0xf5, 0x37, 0x3a, 0x2c, 0xbe, 0xc3, 0x3d, 0x5d, 0x6d, 0xf0, 0x3d,
  0xe6, 0x37, 0x2f, 0xbe, 0x72, 0x12, 0x5f, 0xbe, 0xf2, 0xbb, 0x1e, 0xbe,
  0xf1, 0x3c, 0x1b, 0xbc, 0x79, 0x4d, 0x8c, 0xbd, 0x30, 0x06, 0x86, 0x3d,
  0xa7, 0x2c, 0xb2, 0xbc, 0xa9, 0xe3, 0x5d, 0x3d, 0xe0, 0xf7, 0x82, 0xbb,
  0x5b, 0x8a, 0xd9, 0xbc, 0xf4, 0x40, 0x44, 0xbd, 0x4b, 0x26, 0xd7, 0x3d,
  0x70, 0x5c, 0x4c, 0xbd, 0x49, 0xf3, 0x1b, 0xbe, 0xf8, 0x10, 0x08, 0xbe,
  0xf4, 0x7b, 0x5f, 0xbe, 0xfd, 0x9a, 0x5c, 0xbd, 0xc9, 0x78, 0xb2, 0x3d,
  0x30, 0xe6, 0x06, 0x3e, 0x71, 0xc4, 0x26, 0xbe, 0x6b, 0x55, 0x89, 0x3d,
  0xc5, 0x4f, 0x1d, 0xbe, 0xca, 0x93, 0xa5, 0xbd, 0xd0, 0x08, 0x31, 0x3d,
  0xdf, 0xb0, 0xc4, 0x8e, 0x8c, 0xa0, 0x16, 0x3e, 0xa8, 0xee, 0x9a, 0x3c,
  0x5c, 0x67, 0xca, 0xbd, 0xef, 0x5d, 0x96, 0x3b, 0x78, 0x68, 0x8d, 0x3d,
  0x43, 0xf2, 0xc7, 0xbd, 0x8f, 0x30, 0x0f, 0xbd, 0xec, 0x19, 0x05, 0xbb,
  0x18, 0xf7, 0x01, 0xbe, 0xcf, 0x88, 0x05, 0x3e, 0x8f, 0x1b, 0x87, 0x3d,
  0xd5, 0x2b, 0xcf, 0x3d, 0x0b, 0x04, 0x2f, 0xbd, 0xb0, 0x3f, 0xc7, 0x3d,
  0x30, 0x2f, 0x04, 0x3e, 0xb4, 0xef, 0xc8, 0xbd, 0xf9, 0x15, 0xc2, 0x3d,
  0x64, 0x8a, 0xfa, 0x3d, 0x65, 0x0d, 0x75, 0x3d, 0x68, 0x6a, 0x13, 0xbe,
  0x19, 0x81, 0x1e, 0xbc, 0x72, 0xce, 0xc8, 0x3d, 0xd0, 0xb3, 0x42, 0xbd,
  0xe5, 0x45, 0x8e, 0xbd, 0x5f, 0xab, 0x66, 0xbe, 0x0e, 0x03, 0x16, 0xbe,
  0xcc, 0x1a, 0x96, 0x3c, 0xc9, 0xae, 0x98, 0x3d, 0x0b, 0x7d, 0x48, 0xbe,
  0xa5, 0x39, 0xb3, 0xbd, 0xc6, 0xfc, 0x15, 0xbe, 0xa0, 0x23, 0xc3, 0x0e,
  0x4c, 0x0e, 0x52, 0xbd, 0xd1, 0x7e, 0x77, 0xbd, 0x35, 0x86, 0x9b, 0x3c,
  0xc8, 0x48, 0xcb, 0x3d, 0x33, 0xd5, 0x33, 0xbd, 0x9d, 0xae, 0x96, 0xbd,
  0xca, 0x32, 0xa7, 0xbd, 0x06, 0xe1, 0xb4, 0xbd, 0x68, 0x31, 0x22, 0xbe,
  0xe7, 0x65, 0x37, 0xbd, 0x58, 0xd4, 0x3c, 0x3e, 0x71, 0x50, 0x58, 0xbe,
  0xd8, 0x97, 0x01, 0x3d, 0x0c, 0xf5, 0x41, 0x3d, 0xaa, 0x4b, 0x8c, 0x3c,
  0x6d, 0xb5, 0xcf, 0xbd, 0xb2, 0xe6, 0x89, 0x3d, 0x53, 0xfe, 0x95, 0xbc,
  0x8a, 0x70, 0x48, 0x3c, 0x93, 0xef, 0x2c, 0xbc, 0x80, 0x0c, 0x12, 0x3d,
  0x55, 0x5e, 0x17, 0xbd, 0xcf, 0x24, 0xc0, 0x3d, 0x60, 0x00, 0x8f, 0x3d,
  0xf3, 0x31, 0x86, 0xbd, 0x7e, 0x3a, 0xa9, 0xbd, 0xf6, 0x79, 0x1a, 0x3c,
  0xcb, 0xd2, 0x48, 0x3e, 0xf7, 0x71, 0x24, 0x3e, 0x70, 0x48, 0x07, 0x3c,
  0x80, 0xf2, 0x9f, 0x3d, 0xc2, 0xf6, 0xc4, 0x8e, 0x8c, 0x3e, 0x12, 0x3e,
  0x13, 0xbe, 0x44, 0x3e, 0xf2, 0x22, 0x5a, 0xbd, 0x9e, 0x18, 0xb9, 0xbd,
  0x63, 0x8f, 0x68, 0xbd, 0xde, 0xe3, 0x0f, 0x3e, 0x81, 0x97, 0xa7, 0xbd,
  0xcc, 0x2f, 0xd6, 0x3d, 0xbe, 0xab, 0x8f, 0x3d, 0xd1, 0x19, 0xc9, 0xbd,
  0x8c, 0xe2, 0x6e, 0xbd, 0xac, 0xe1, 0x9f, 0xbd, 0x79, 0x07, 0xc6, 0xbd,
  0x37, 0x58, 0xf5, 0x3d, 0x1e, 0x51, 0x5c, 0x3e, 0x0f, 0xe0, 0x2e, 0x3e,
  0xbe, 0x64, 0xd3, 0xbc, 0x8d, 0xb8, 0x68, 0x3d, 0xd4, 0xa2, 0xef, 0xbc,
  0x21, 0xb6, 0x35, 0x3e, 0x9b, 0xa4, 0x2e, 0xbd, 0x06, 0x98, 0x2c, 0x3e,
  0x1e, 0x79, 0xbf, 0xbd, 0x05, 0xd9, 0x0c, 0x3e, 0x39, 0x5f, 0x54, 0x3d,
  0xfb, 0x18, 0x8e, 0x3d, 0xfc, 0x4c, 0xeb, 0xbd, 0x76, 0xcb, 0xb0, 0xbc,
  0x7b, 0x7d, 0xc1, 0xbc, 0x31, 0x8f, 0x16, 0xbc, 0xd1, 0x17, 0x20, 0xbc,
  0xeb, 0x88, 0xc4, 0x8e, 0x48, 0x51, 0x20, 0xbe, 0x76, 0x25, 0x5d, 0xbd,
  0x8d, 0x08, 0x15, 0x3d, 0x3e, 0x8b, 0xa5, 0xbc, 0x8b, 0x26, 0xc4, 0xbd,
  0x61, 0x38, 0x8c, 0xbc, 0xf2, 0x62, 0x1a, 0x3e, 0x55, 0xb9, 0x38, 0x3e,
  0x03, 0x8e, 0x34, 0xbe, 0xa3, 0x29, 0xe3, 0xbd, 0xe6, 0xf9, 0xac, 0xbc,
  0x6a, 0xc8, 0xf2, 0xbc, 0x15, 0x84, 0xa7, 0xbd, 0x7e, 0x71, 0x86, 0x3d,
  0xd9, 0x09, 0x2a, 0x3e, 0xd2, 0xbc, 0x2d, 0x3e, 0x4c, 0x5f, 0x92, 0x3d,
  0x42, 0x29, 0xbc, 0x3c, 0xed, 0x38, 0x0d, 0xbe, 0x98, 0x89, 0xf7, 0x3d,
  0x87, 0xdd, 0x29, 0xbd, 0x70, 0x0a, 0xdf, 0xbc, 0x7b, 0x11, 0x83, 0x3c,
  0x61, 0xbd, 0x27, 0x3e, 0x03, 0xad, 0x25, 0x3e, 0x16, 0x7a, 0x9e, 0xbd,
  0x1b, 0xf2, 0xf1, 0x3d, 0xeb, 0xfa, 0xad, 0xbd, 0x2b, 0xed, 0x6a, 0xbd,
  0xbf, 0x18, 0x30, 0xbc, 0x55, 0x27, 0xc0, 0x3d, 0x4a, 0x5d, 0xba, 0x0e,
  0x47, 0xa5, 0x0b, 0x3e, 0xa6, 0x8d, 0xd1, 0x3d, 0xad, 0x00, 0x79, 0x3d,
  0x8f, 0x72, 0xa7, 0x3d, 0xb6, 0x60, 0x97, 0xbc, 0xdd, 0x2a, 0x52, 0x3c,
  0x9b, 0x3e, 0x47, 0x3e, 0x9c, 0x27, 0xbf, 0xbb, 0xe1, 0xd4, 0xf2, 0x3d,
  0xe3, 0x24, 0x2f, 0x3d, 0x16, 0x94, 0xf0, 0x3d, 0x3f, 0x85, 0x15, 0x3e,
  0xed, 0x2d, 0x33, 0xbd, 0x16, 0x00, 0x14, 0x3e, 0xbf, 0xa2, 0x0c, 0x3e,
  0x2e, 0x15, 0x5e, 0xbd, 0x77, 0x6d, 0x08, 0x3e, 0xe3, 0x11, 0xf4, 0x3d,
  0x7c, 0xf8, 0x4e, 0xbd, 0xe5, 0x7f, 0x5d, 0xbd, 0xe3, 0xf3, 0xe6, 0x3c,
  0x1c, 0x31, 0xdb, 0xbd, 0x2d, 0x3f, 0x7f, 0x3d, 0xf9, 0xc5, 0x02, 0x3e,
  0x96, 0xec, 0x14, 0x3e, 0x8f, 0x49, 0x9e, 0xbd, 0xd6, 0xb9, 0x81, 0x3d,
  0xa6, 0xdf, 0x1f, 0x3e, 0xb4, 0x0d, 0x12, 0xbe, 0x8a, 0x22, 0x0a, 0x3e,
  0x80, 0xf1, 0xc4, 0xbc, 0xfa, 0x08, 0xc5, 0x0e, 0xa8, 0x06, 0x17, 0x3b,
  0xda, 0x5b, 0xf2, 0x3d, 0x2c, 0x15, 0x2d, 0x3d, 0x33, 0x87, 0x97, 0xbc,
  0x87, 0x91, 0x41, 0x3d, 0x6b, 0xea, 0x6f, 0xbc, 0xff, 0x94, 0xfb, 0x3d,
  0x74, 0x51, 0x19, 0xbd, 0xa1, 0xc6, 0x6c, 0xbd, 0xf1, 0x8f, 0xd0, 0xbc,
  0x81, 0xb9, 0xc7, 0xbd, 0x53, 0xf2, 0x9a, 0x3d, 0x57, 0xf3, 0xa6, 0xbc,
  0xcb, 0xe2, 0xcd, 0xbd, 0x8c, 0x72, 0xb1, 0xbd, 0xb5, 0xed, 0x30, 0x3d,
  0x43, 0xbb, 0x14, 0xbe, 0x77, 0xde, 0x02, 0xbe, 0xa2, 0x06, 0xc4, 0x3d,
  0x70, 0xf0, 0xab, 0xbd, 0x2c, 0x95, 0xc9, 0xbd, 0x7a, 0xc7, 0x7b, 0x3d,
  0xaf, 0x16, 0xba, 0x3c, 0x31, 0xaf, 0x10, 0xbe, 0xcb, 0x4e, 0x10, 0x3d,
  0xad, 0x19, 0x9b, 0x3d, 0xef, 0x58, 0x23, 0x3e, 0xa4, 0x28, 0x36, 0x3b,
  0x39, 0xf4, 0xd9, 0xbd, 0x2c, 0xcc, 0xf8, 0xbd, 0x5d, 0xc9, 0x17, 0xbe,
  0x95, 0x5a, 0xc3, 0x8e, 0x5c, 0xb0, 0x5f, 0x3d, 0xc5, 0xa0, 0x1b, 0xbe,
  0x26, 0x23, 0x8b, 0x3c, 0xba, 0x5b, 0x00, 0xbe, 0x09, 0xb7, 0x21, 0xbe,
  0x1c, 0x2d, 0x9c, 0x3d, 0x72, 0x11, 0xc0, 0xbc, 0x3b, 0x04, 0xf4, 0x3d,
  0xa9, 0xa8, 0xe5, 0x3d, 0x5a, 0x5b, 0x9e, 0x3e, 0x4c, 0x9d, 0xf4, 0xbd,
  0x81, 0x55, 0x53, 0xbd, 0x27, 0x61, 0x06, 0xbe, 0x6a, 0x7a, 0x2b, 0xbd,
  0x70, 0x2b, 0xd6, 0x3d, 0xee, 0xfe, 0x29, 0xbd, 0xdc, 0x77, 0x17, 0x3e,
  0x0e, 0xad, 0xd3, 0xbd, 0xcb, 0xab, 0x84, 0x3b, 0xa9, 0x20, 0x36, 0x3e,
  0x15, 0xd7, 0x22, 0x3c, 0xc9, 0xe1, 0x56, 0xbe, 0x8a, 0x2e, 0x43, 0x3e,
  0xc7, 0x87, 0x08, 0x3e, 0xfe, 0xd2, 0x2c, 0x3e, 0x8a, 0x02, 0x10, 0xbd,
  0xb7, 0x9d, 0x12, 0xbe, 0x6b, 0x8e, 0x8a, 0xbc, 0xde, 0xd0, 0x1d, 0x3e,
  0x29, 0xb9, 0xf0, 0xbd, 0x0e, 0x10, 0x38, 0x3e, 0x9e, 0xa9, 0xc4, 0x8e,
  0x2b, 0x15, 0xfe, 0xbd, 0xf8, 0xf8, 0xc2, 0xbd, 0x0d, 0x4f, 0x3e, 0x3d,
  0x9f, 0x95, 0xa7, 0x3d, 0x35, 0xf8, 0x3b, 0x3c, 0xd0, 0x17, 0xb7, 0x3d,
  0x7a, 0x4d, 0xd5, 0xbd, 0x56, 0x35, 0xf1, 0xbc, 0xda, 0x52, 0x07, 0xbe,
  0xba, 0x84, 0xb2, 0x3d, 0xe6, 0x90, 0x55, 0xbc, 0x3c, 0xe3, 0x46, 0xbe,
  0xd1, 0x1b, 0x12, 0xbc, 0x99, 0x1b, 0xb5, 0xbc, 0x56, 0x38, 0x55, 0x3e,
  0x9f, 0xdc, 0x3f, 0x3e, 0xd1, 0x95, 0x8b, 0x3d, 0x5a, 0x48, 0xf1, 0x3d,
  0xc4, 0xcd, 0xf4, 0x3c, 0x84, 0x85, 0x11, 0xbe, 0x94, 0x64, 0x1f, 0x3d,
  0x19, 0xb5, 0x2f, 0xbd, 0xed, 0x24, 0xf8, 0xba, 0xd5, 0x05, 0x1c, 0x3e,
  0x47, 0x0c, 0xb6, 0x3d, 0xf6, 0x3d, 0xe1, 0xbd, 0x92, 0x47, 0x56, 0x3d,
  0x67, 0x3b, 0x1b, 0x3e, 0xbc, 0x60, 0xfb, 0x3d, 0x17, 0x3b, 0xee, 0xbd,
  0x7c, 0x5d, 0x0e, 0x3e, 0xac, 0x71, 0xc3, 0x8e, 0x75, 0x0c, 0x32, 0xbe,
  0x3c, 0x9d, 0x0e, 0x3e, 0xbc, 0x13, 0x0c, 0xbe, 0x28, 0x63, 0x01, 0xbe,
  0x8e, 0x74, 0xea, 0x3d, 0x48, 0x50, 0xe2, 0x3c, 0xc9, 0x8b, 0x43, 0xbc,
  0x9b, 0x45, 0x97, 0xbd, 0x4e, 0xbd, 0x98, 0xbd, 0x71, 0x53, 0x05, 0x3e,
  0x86, 0x42, 0xef, 0xbc, 0x02, 0x43, 0x02, 0x3e, 0xa9, 0x32, 0x29, 0xbe,
  0xfa, 0xe9, 0x68, 0xbd, 0x85, 0x51, 0x79, 0x3b, 0x02, 0x25, 0xc8, 0x3d,
  0x34, 0x7b, 0xef, 0x3a, 0x0f, 0x39, 0xbd, 0x3d, 0x36, 0x12, 0xba, 0x3d,
  0x08, 0x34, 0x22, 0x3c, 0xbb, 0xfe, 0xea, 0xbc, 0x92, 0x8b, 0x43, 0xbc,
  0xf9, 0x7a, 0x52, 0x3e, 0x20, 0xec, 0xda, 0xbd, 0xfe, 0xe2, 0x53, 0x3c,
  0x53, 0x1a, 0x30, 0xbe, 0xe4, 0xf3, 0xfb, 0x3d, 0x32, 0xf4, 0x05, 0xbd,
  0xa0, 0x19, 0xee, 0x3d, 0xae, 0x6d, 0xc5, 0x3d, 0x6e, 0xf1, 0xac, 0x3d,
  0xed, 0xbe, 0xc4, 0x0e, 0x10, 0xbe, 0x19, 0x3e, 0xbc, 0x36, 0xd8, 0xbd,
  0xf8, 0xd7, 0x4d, 0xbd, 0x9f, 0xfe, 0xce, 0xbd, 0xc0, 0x17, 0xa5, 0xbd,
  0x54, 0x68, 0x81, 0x3d, 0x30, 0x00, 0xeb, 0x3d, 0x70, 0x27, 0x27, 0xbd,
  0xf0, 0x1b, 0x4b, 0x3e, 0xbf, 0xd1, 0xa0, 0xbc, 0x8e, 0x7a, 0x22, 0x3e,
  0xf4, 0x57, 0x12, 0xbe, 0xd6, 0x74, 0xe6, 0x3d, 0xb6, 0x97, 0xc2, 0xbc,
  0x12, 0xd1, 0x02, 0x3e, 0x0f, 0x1f, 0x1b, 0x3e, 0xf4, 0x4c, 0x4d, 0xbd,
  0x89, 0xb9, 0x5f, 0x3c, 0x3a, 0x64, 0xdd, 0x3c, 0x53, 0x53, 0x5a, 0x3e,
  0x77, 0x09, 0xa5, 0x3d, 0x72, 0x50, 0x1b, 0x3e, 0x47, 0xc6, 0xc2, 0x3d,
  0xa0, 0xbe, 0x8b, 0x3c, 0x98, 0x12, 0xd4, 0x3d, 0xdc, 0xf3, 0xe8, 0xbd,
  0x6e, 0xd5, 0x9b, 0x3d, 0xba, 0x4a, 0xe1, 0x3d, 0x74, 0xa4, 0xf5, 0x3d,
  0xf1, 0xb9, 0x74, 0xbc, 0x5f, 0x94, 0xb6, 0x3d, 0xc3, 0x4e, 0xc4, 0x0e,
  0x69, 0xe6, 0x98, 0xbd, 0xff, 0xe9, 0xdf, 0x3d, 0xad, 0xbc, 0xe7, 0x3d,
  0x52, 0x05, 0x0d, 0xbd, 0x08, 0xfe, 0x14, 0x3d, 0x7f, 0x0c, 0xcc, 0x3d,
  0xf1, 0xc0, 0x97, 0xbc, 0xdc, 0x20, 0xd2, 0x3d, 0x87, 0xa7, 0xde, 0xbd,
  0x7c, 0xc7, 0x40, 0x3e, 0x31, 0x91, 0x38, 0x3e, 0x58, 0xbc, 0xaa, 0xbd,
  0x3d, 0x3b, 0xbe, 0x3c, 0xce, 0x62, 0xf9, 0xbd, 0x7e, 0xf0, 0x16, 0x3d,
  0x14, 0x06, 0x91, 0xbd, 0x1a, 0x20, 0xe8, 0x3d, 0xa5, 0x13, 0xae, 0x3b,
  0x33, 0x7e, 0x85, 0xbd, 0xca, 0xca, 0xae, 0xbd, 0x16, 0xd6, 0x4a, 0xbd,
  0x56, 0xfc, 0x55, 0x3d, 0xee, 0xa5, 0x00, 0x3e, 0x08, 0x72, 0x5d, 0xbd,
  0xca, 0x88, 0xc2, 0xbc, 0xa1, 0x5b, 0x80, 0xbd, 0x90, 0x09, 0x40, 0x3c,
  0x33, 0x0e, 0xd4, 0xbd, 0x0d, 0x82, 0x2b, 0x3e, 0xd0, 0x57, 0x64, 0x3d,
  0x51, 0xf5, 0x80, 0xbc, 0xfa, 0x56, 0xc4, 0x8e, 0x3e, 0x4b, 0xef, 0xbd,
  0xea, 0xfe, 0xef, 0x3d, 0x29, 0xbd, 0x43, 0x3e, 0xe2, 0x72, 0x75, 0x3d,
  0x69, 0xcd, 0x20, 0xbe, 0x9c, 0xb0, 0x1b, 0xbd, 0xd7, 0xd6, 0x47, 0x3e,
  0x3f, 0x91, 0x2a, 0x3d, 0x16, 0x9c, 0x0d, 0x3e, 0x6a, 0xde, 0x03, 0x3d,
  0xa4, 0xe2, 0xff, 0xbd, 0x93, 0xe1, 0x35, 0x3e, 0x01, 0x5f, 0xd9, 0xbc,
  0x40, 0x9b, 0x19, 0x3e, 0x7a, 0x8c, 0xa3, 0x3d, 0x82, 0xa3, 0x4d, 0xbe,
  0xf7, 0x00, 0x11, 0xbe, 0x84, 0x83, 0x26, 0x3e, 0xfe, 0x68, 0xc2, 0x3d,
  0xa1, 0x03, 0x11, 0xbe, 0x40, 0xae, 0x14, 0xbe, 0x77, 0x9e, 0xb8, 0x3d,
  0x61, 0x33, 0x20, 0x3d, 0x4b, 0x38, 0x1c, 0xbe, 0x92, 0xeb, 0x45, 0xbe,
  0xdd, 0x25, 0x03, 0xbd, 0x3f, 0x38, 0x31, 0x3e, 0x79, 0x08, 0x1e, 0xbe,
  0x65, 0x15, 0x06, 0x3c, 0x85, 0xd8, 0x7f, 0x3d, 0xf6, 0xc3, 0xc8, 0xbd,
  0x14, 0xfb, 0xc5, 0x8e, 0x80, 0x20, 0xd2, 0x3d, 0xc2, 0xee, 0x31, 0xbe,
  0x20, 0xec, 0x0a, 0x3e, 0xcb, 0x50, 0x0a, 0x3e, 0x1d, 0x74, 0xaf, 0x3d,
  0xb5, 0xc8, 0x19, 0xbe, 0xe2, 0x42, 0x74, 0xbd, 0x55, 0xce, 0x3b, 0xbd,
  0x8d, 0xef, 0x02, 0x3d, 0x3d, 0x8b, 0xbc, 0x3d, 0xbe, 0x18, 0x19, 0x3e,
  0x4e, 0xa0, 0x8a, 0x3d, 0x90, 0x10, 0xc0, 0xbd, 0x6f, 0xf1, 0x62, 0xbc,
  0xe9, 0x43, 0x16, 0x3e, 0x58, 0xd9, 0x45, 0xbe, 0x5f, 0x3e, 0xdf, 0x3c,
  0x14, 0x47, 0x53, 0xbd, 0x5d, 0xb8, 0x33, 0xbd, 0x4e, 0x71, 0xa3, 0xbd,
  0x47, 0x9b, 0x52, 0xbd, 0x83, 0xdf, 0x45, 0xbd, 0xff, 0x4a, 0x35, 0xbe,
  0x96, 0x53, 0x25, 0xbd, 0x5f, 0x8e, 0x2d, 0xbe, 0xd8, 0xde, 0x3e, 0x3e,
  0x95, 0x67, 0x13, 0x3e, 0x7c, 0x74, 0x08, 0xbc, 0xf9, 0x3a, 0x95, 0xbd,
  0x41, 0x5c, 0xc9, 0x3d, 0x8d, 0x15, 0x06, 0x3b, 0xef, 0xf5, 0xc3, 0x0e,
  0xec, 0x58, 0x6c, 0x3d, 0xf4, 0xc9, 0xd2, 0xbd, 0x1e, 0xea, 0x01, 0xbd,
  0x2e, 0x70, 0xf4, 0x3d, 0x34, 0x72, 0x15, 0x3e, 0xcd, 0xe3, 0xc2, 0xbd,
  0xc6, 0x47, 0xd3, 0x3d, 0xd2, 0x2b, 0x3d, 0xbd, 0xd1, 0xeb, 0x38, 0xbe,
  0xe6, 0xac, 0x1c, 0xbe, 0xaa, 0x37, 0xdd, 0x3d, 0x0d, 0x74, 0x14, 0x3d,
  0xb8, 0x7c, 0x13, 0xbe, 0x0d, 0x96, 0x38, 0x3d, 0xbb, 0xd0, 0xe1, 0x3d,
  0x98, 0xb2, 0x77, 0x3e, 0x7b, 0x52, 0x7d, 0x3e, 0x3d, 0x99, 0x88, 0x3d,
  0xae, 0x7a, 0x03, 0xbe, 0xe7, 0x61, 0x0e, 0x3e, 0x73, 0xe3, 0x4a, 0x3e,
  0xe4, 0xf9, 0x33, 0xbe, 0x69, 0xd6, 0xc4, 0x3d, 0x87, 0x37, 0x5e, 0x3e,
  0x62, 0x13, 0x7b, 0x3e, 0x42, 0xb6, 0x04, 0xbe, 0xc7, 0x75, 0x91, 0x3d,
  0x17, 0x1e, 0x24, 0x3e, 0x22, 0xc2, 0xf8, 0xbc, 0x7a, 0xfe, 0xd7, 0xbb,
  0xc1, 0x79, 0x7e, 0xbd, 0x8c, 0x07, 0xc3, 0x0e, 0x4b, 0xc4, 0x21, 0x3e,
  0xb9, 0x8b, 0x0f, 0x3d, 0x36, 0x30, 0x84, 0x3c, 0xcb, 0xd5, 0xe5, 0x3c,
  0xa6, 0xf1, 0x57, 0xbe, 0x43, 0x38, 0x82, 0x3e, 0xd7, 0x0d, 0xcd, 0xbc,
  0x04, 0xe3, 0xf2, 0x3b, 0xd0, 0xe9, 0x23, 0xbb, 0xb3, 0x23, 0xe1, 0xbc,
  0x10, 0xd5, 0x57, 0x3e, 0x7c, 0xa1, 0x73, 0xbe, 0x83, 0x29, 0x4c, 0xbe,
  0xdd, 0x96, 0x84, 0x3d, 0x59, 0xaf, 0x46, 0x3e, 0x9f, 0x12, 0x08, 0x3d,
  0x66, 0x76, 0x39, 0x3e, 0xff, 0x7d, 0xb4, 0xbd, 0xfb, 0x9a, 0x90, 0x3d,
  0x73, 0x48, 0x1b, 0xbc, 0xda, 0x71, 0x5e, 0xbb, 0xcd, 0x26, 0x56, 0xbe,
  0x26, 0x62, 0x91, 0xbd, 0xe7, 0x00, 0x6d, 0x3e, 0x11, 0xf7, 0x14, 0x3e,
  0x9e, 0x81, 0xdb, 0xbd, 0x9f, 0x3c, 0x28, 0xbe, 0xf0, 0xa9, 0xf1, 0x3d,
  0x04, 0x22, 0x20, 0x3e, 0x25, 0x07, 0x6b, 0x3b, 0xc4, 0x42, 0x0f, 0xbe,
  0xd1, 0x46, 0xc3, 0x0e, 0xbb, 0xf4, 0x34, 0xbe, 0x66, 0x26, 0x63, 0x3e,
  0x6c, 0x36, 0x17, 0xbe, 0x5f, 0xd6, 0xf6, 0x3c, 0x27, 0xd6, 0x1f, 0xbe,
  0x5c, 0x54, 0x1b, 0x3e, 0x6f, 0x7f, 0x0c, 0x3e, 0xb5, 0x50, 0xd6, 0xbd,
  0x26, 0xed, 0x17, 0x3e, 0xe2, 0xaa, 0x8b, 0xbd, 0x16, 0x66, 0xa3, 0xbc,
  0xc3, 0x63, 0x0f, 0x3e, 0x11, 0xee, 0x05, 0xbe, 0xef, 0xb6, 0x3d, 0x3e,
  0xc4, 0xf1, 0xe5, 0x3d, 0xbd, 0xe9, 0x51, 0x3a, 0x94, 0x64, 0x2f, 0x3d,
  0xbb, 0x33, 0x7c, 0x3d, 0xe7, 0x36, 0x7c, 0xbd, 0x76, 0x3f, 0xcf, 0xbd,
  0x3e, 0x06, 0xc1, 0x3d, 0xd3, 0xbe, 0x17, 0x3e, 0xf7, 0x56, 0x29, 0xbd,
  0x36, 0x88, 0x67, 0x3b, 0x48, 0x6d, 0xe6, 0xbd, 0x04, 0x98, 0x95, 0xbd,
  0x7e, 0x16, 0x11, 0x3d, 0xd2, 0x52, 0x27, 0xbd, 0xf6, 0x4b, 0xe7, 0x3d,
  0x29, 0x0d, 0xad, 0xbd, 0x81, 0x3f, 0x72, 0x3b, 0x7e, 0x21, 0xc4, 0x0e,
  0x19, 0x67, 0x88, 0xbd, 0x57, 0xbd, 0xae, 0x3d, 0xaf, 0x54, 0x2e, 0x3e,
  0x71, 0x8c, 0xf4, 0x3d, 0xf2, 0xe9, 0xd7, 0x3c, 0xbe, 0xd0, 0x9f, 0x3d,
  0x6d, 0x7c, 0x76, 0x3d, 0xcf, 0x19, 0x74, 0x3d, 0xdf, 0x40, 0xf9, 0x3b,
  0x61, 0xad, 0x00, 0x3d, 0x0a, 0x2e, 0x96, 0xbd, 0x83, 0x20, 0x4f, 0x3e,
  0x7e, 0xb4, 0xee, 0x3d, 0xca, 0xea, 0x3c, 0x3e, 0x6f, 0xf7, 0xc8, 0x3d,
  0xe4, 0xb8, 0xc8, 0x3d, 0xf3, 0x30, 0xec, 0x3c, 0x3c, 0x71, 0x90, 0x3d,
  0xff, 0x22, 0xf0, 0x3d, 0x73, 0x7b, 0x00, 0x3e, 0x42, 0xc5, 0xcb, 0xbc,
  0x40, 0x7e, 0x06, 0x3e, 0x48, 0x1b, 0x8b, 0xbd, 0x07, 0xea, 0xc1, 0xbd,
  0xc6, 0x5f, 0x8f, 0xbd, 0xeb, 0x53, 0xfd, 0xbd, 0x14, 0x69, 0xea, 0x3b,
  0x34, 0x66, 0xe3, 0xbd, 0x49, 0x10, 0x9e, 0x3d, 0xe4, 0xa1, 0x20, 0xbd,
  0x71, 0x53, 0x02, 0xbe, 0x89, 0x1b, 0xc4, 0x0e, 0xd5, 0x69, 0x44, 0x3d,
  0x91, 0xa0, 0x0a, 0xbe, 0xd5, 0x1a, 0x13, 0x3e, 0x23, 0x05, 0x83, 0x3c,
  0x96, 0xcd, 0x7d, 0xbd, 0x65, 0xc0, 0xc1, 0xbd, 0x12, 0x77, 0xf7, 0x3d,
  0x7b, 0x88, 0x27, 0x3b, 0x7c, 0x71, 0xf8, 0xbd, 0x7b, 0x26, 0xfc, 0xbd,
  0x55, 0xf6, 0x30, 0x3e, 0xec, 0x85, 0xd0, 0xbc, 0x25, 0xa6, 0xc7, 0xbd,
  0x82, 0xf7, 0x1e, 0x3b, 0x08, 0x1f, 0xfc, 0x3d, 0x32, 0xb0, 0xdf, 0xbd,
  0xf4, 0x8f, 0xb8, 0x3d, 0xbe, 0xb3, 0x45, 0xbd, 0x57, 0x3b, 0x0a, 0xbd,
  0xe6, 0x5e, 0xc5, 0xbd, 0x11, 0x14, 0x57, 0x3e, 0xfa, 0x8e, 0xfe, 0xbd,
  0xce, 0xe3, 0x08, 0xbd, 0x07, 0xb2, 0x22, 0xbd, 0x2e, 0x39, 0x86, 0x3d,
  0xbf, 0xfb, 0x5f, 0xbe, 0xe5, 0xb0, 0x30, 0xbd, 0x59, 0x0f, 0xfa, 0x3d,
  0x64, 0x50, 0xe7, 0xbd, 0x11, 0x72, 0xeb, 0x3d, 0x71, 0x84, 0x42, 0x3e,
  0x8c, 0x5d, 0xc5, 0x0e, 0x08, 0xe1, 0x28, 0xbe, 0xf3, 0xa2, 0x38, 0x3e,
  0xa8, 0xd6, 0x1c, 0x3e, 0xf2, 0x46, 0x4e, 0x3d, 0xe9, 0x86, 0x0b, 0xbe,
  0x18, 0x2c, 0xa0, 0xbd, 0xfb, 0xc2, 0x94, 0x3c, 0x71, 0xe0, 0xf7, 0x3d,
  0x86, 0xc2, 0xa1, 0xbd, 0x1f, 0x01, 0x4e, 0xbe, 0x39, 0xf5, 0xfa, 0x3c,
  0x12, 0x03, 0x1c, 0x3e, 0xe6, 0xb3, 0x37, 0x3e, 0xbe, 0x5c, 0x35, 0x3d,
  0x71, 0x9e, 0x66, 0x3c, 0xc8, 0x51, 0x0a, 0x3d, 0xbb, 0x32, 0x05, 0x3e,
  0xe4, 0x4b, 0xbd, 0x3c, 0xb6, 0x64, 0xf7, 0xbd, 0x96, 0x2c, 0x22, 0xbe,
  0xa7, 0x9c, 0x67, 0xbd, 0x8d, 0xce, 0x0a, 0x3e, 0x88, 0xf3, 0x27, 0x3e,
  0x2a, 0xbd, 0x43, 0x3e, 0x24, 0x9a, 0xc8, 0x3d, 0x06, 0x66, 0xf1, 0xbc,
  0x4b, 0x0c, 0xb9, 0x3c, 0x64, 0x38, 0x57, 0x3e, 0x54, 0x3a, 0x48, 0x3e,
  0x17, 0xa7, 0x20, 0xbe, 0xc9, 0x98, 0xca, 0xbc, 0x27, 0x4f, 0xc3, 0x8e,
  0xcc, 0xbf, 0x3e, 0x3e, 0x56, 0x92, 0x35, 0x3e, 0x06, 0x52, 0xa7, 0x3d,
  0xf1, 0x41, 0x04, 0xbe, 0x2b, 0x8e, 0x50, 0xbe, 0x2f, 0xc8, 0x0d, 0x3e,
  0x85, 0x44, 0xf6, 0x3d, 0xab, 0xb1, 0xef, 0xbd, 0xfa, 0xab, 0x38, 0x3e,
  0x1d, 0xb4, 0xba, 0x3c, 0x6e, 0xcb, 0xc4, 0x3b, 0x15, 0x92, 0xe6, 0x3d,
  0x4b, 0xf5, 0x1f, 0x3d, 0x41, 0x1e, 0xc5, 0xbd, 0x78, 0x5b, 0x36, 0x3d,
  0x17, 0x13, 0xbc, 0xbd, 0x89, 0xf1, 0x0b, 0xbe, 0x7c, 0xfd, 0x4e, 0x3e,
  0xba, 0x98, 0x98, 0xbd, 0x34, 0xca, 0x3a, 0xbd, 0xac, 0xb8, 0x79, 0xbc,
  0xc5, 0x77, 0x00, 0xbe, 0x09, 0x36, 0x11, 0x3e, 0x87, 0x22, 0x41, 0xbc,
  0x29, 0x8c, 0x52, 0xbd, 0x29, 0x89, 0x84, 0xbd, 0x85, 0x84, 0x3b, 0x3e,
  0xa5, 0xfe, 0x26, 0xbe, 0x42, 0x27, 0xd1, 0x3d, 0x8f, 0x87, 0xf3, 0x3d,
  0xfb, 0x60, 0x40, 0x3e, 0x1b, 0x3a, 0xc4, 0x0e, 0x79, 0xeb, 0x43, 0x3b,
  0xc7, 0xdd, 0x1c, 0xbe, 0xfd, 0xb8, 0x88, 0x3c, 0x26, 0x2a, 0xb5, 0x3d,
  0x41, 0x0e, 0x98, 0xbd, 0xca, 0xef, 0x9e, 0x3d, 0x8c, 0x62, 0xa6, 0x3d,
  0x93, 0xc0, 0x7d, 0xbd, 0x30, 0x57, 0x26, 0x3e, 0x58, 0xde, 0x90, 0x3d,
  0x10, 0xa4, 0xbf, 0xbc, 0x2f, 0xac, 0xb6, 0xbd, 0x12, 0xb5, 0x90, 0xbb,
  0x48, 0xb0, 0xd3, 0x3d, 0x19, 0x4c, 0xd5, 0xbb, 0xe5, 0x25, 0x65, 0xbd,
  0x1f, 0xe6, 0xa3, 0x3d, 0xb3, 0x3c, 0x2d, 0x3e, 0x13, 0x08, 0xf5, 0x3d,
  0x8d, 0x10, 0x38, 0xbe, 0x51, 0x67, 0xd7, 0x3d, 0x99, 0x86, 0x09, 0xbe,
  0xb4, 0x10, 0x1e, 0xbe, 0x9e, 0x8e, 0x92, 0xbd, 0x43, 0x82, 0x5b, 0xbd,
  0x0b, 0x59, 0x64, 0x3e, 0xb4, 0xfa, 0x60, 0x3d, 0x15, 0xe8, 0x1a, 0x3e,
  0x00, 0x3a, 0x99, 0xbd, 0xa8, 0x9e, 0x2c, 0x3e, 0x30, 0xb5, 0x95, 0x3d,
  0x6a, 0xd3, 0xc5, 0x0e, 0x37, 0x39, 0x56, 0x3e, 0xd5, 0x54, 0x09, 0xbe,
  0x24, 0x0c, 0x13, 0xbe, 0x65, 0xff, 0xf7, 0x3d, 0xef, 0x21, 0x94, 0x3d,
  0x36, 0x9a, 0xa3, 0xbd, 0x60, 0x93, 0x84, 0x3c, 0xf9, 0xfa, 0x4f, 0xbd,
  0x86, 0xe8, 0x04, 0x3d, 0x3a, 0x1a, 0x53, 0xbe, 0xbb, 0x97, 0x5c, 0x3d,
  0x77, 0x81, 0x11, 0x3c, 0x22, 0xa5, 0x00, 0xbe, 0x4d, 0x49, 0xb8, 0xbd,
  0xa0, 0x9a, 0xc2, 0xbd, 0xf4, 0x96, 0xb7, 0xbd, 0xe3, 0xf6, 0x20, 0x3e,
  0x75, 0x89, 0xeb, 0xbd, 0x49, 0xbf, 0x29, 0xbe, 0xc4, 0x0b, 0xad, 0xbd,
  0x7c, 0x6a, 0x84, 0xbd, 0x20, 0x14, 0xcd, 0xbb, 0x26, 0x11, 0x12, 0x3c,
  0x67, 0x6e, 0x07, 0xbe, 0x3e, 0xd6, 0xf7, 0xbd, 0x23, 0x53, 0x5f, 0x3d,
  0xa2, 0x72, 0xbf, 0x3d, 0x04, 0x81, 0x15, 0xbe, 0x94, 0x28, 0x7f, 0x3d,
  0xd6, 0xd2, 0x46, 0x3c, 0x0a, 0x23, 0x60, 0x3d, 0xcf, 0xc5, 0xc4, 0x8e,
  0xe7, 0x80, 0xaa, 0x3d, 0x67, 0xb4, 0x01, 0x3d, 0x16, 0xe5, 0xdc, 0xbc,
  0x7c, 0x6d, 0x1e, 0xbe, 0xf3, 0x26, 0x64, 0xbd, 0x98, 0xc7, 0x42, 0x3b,
  0x83, 0xe5, 0xe4, 0x3d, 0x61, 0xa2, 0xac, 0xbb, 0x6d, 0x54, 0xb3, 0xbd,
  0x0e, 0xdb, 0xc2, 0x3d, 0x90, 0xf8, 0x0c, 0xbe, 0xec, 0x0c, 0x11, 0xbe,
  0x95, 0x3e, 0xf3, 0x3c, 0x22, 0xde, 0x17, 0x3d, 0x82, 0xf4, 0xe0, 0x3d,
  0x87, 0x50, 0x2d, 0xbe, 0xca, 0xd7, 0xfe, 0x3c, 0xf5, 0xae, 0x9f, 0xbd,
  0x67, 0xc8, 0x94, 0x3d, 0x44, 0x9d, 0x06, 0xbe, 0x34, 0x2b, 0x06, 0xbe,
  0x78, 0xaf, 0xfd, 0xbd, 0x7a, 0xdb, 0xc6, 0xbd, 0x41, 0xb1, 0x37, 0xbe,
  0xab, 0x28, 0x9c, 0xbd, 0xc1, 0x0a, 0x12, 0x3d, 0xaf, 0xc1, 0xb1, 0xbd,
  0x56, 0xc3, 0x0f, 0x3e, 0x95, 0x25, 0xd1, 0x3c, 0xd6, 0xa3, 0x8a, 0xbd,
  0xca, 0x73, 0x12, 0x3e, 0xb0, 0x94, 0xc4, 0x0e, 0x03, 0x55, 0xc2, 0x3c,
  0xfe, 0x2c, 0x73, 0x3c, 0x04, 0x5a, 0xc3, 0x3d, 0xda, 0xa7, 0x8a, 0x3d,
  0x9a, 0xf6, 0x42, 0x3e, 0x94, 0x3a, 0xe2, 0xbd, 0xac, 0xbc, 0x08, 0x3e,
  0xc3, 0x6a, 0xf2, 0xbc, 0x5d, 0x5c, 0x68, 0xbd, 0x40, 0x53, 0x10, 0x3d,
  0xdb, 0xdf, 0xd0, 0xbc, 0x16, 0x2f, 0x16, 0x3d, 0x95, 0xc6, 0xe0, 0x3d,
  0xbe, 0xc9, 0xf2, 0x3d, 0x9f, 0xbb, 0x77, 0x3e, 0xac, 0x06, 0xe6, 0x3d,
  0x19, 0xee, 0x02, 0xbc, 0x25, 0x22, 0x3f, 0x3e, 0x76, 0xb9, 0x0e, 0x3e,
  0x6c, 0xdd, 0x96, 0xbb, 0x4a, 0xd2, 0x4d, 0x3e, 0x7e, 0xec, 0x01, 0x3d,
  0x05, 0x16, 0xd6, 0xbd, 0xab, 0x1b, 0x1f, 0x3e, 0x12, 0x39, 0x34, 0x3e,
  0xd7, 0x11, 0xca, 0xbd, 0x44, 0xc6, 0x32, 0x3d, 0x0d, 0x0f, 0x3d, 0x3d,
  0x8e, 0x57, 0x01, 0x3d, 0x81, 0x21, 0xd9, 0x3d, 0x42, 0x69, 0xb2, 0xbd,
  0x21, 0x7a, 0xc4, 0x8e, 0xe8, 0xbe, 0xf3, 0x3d, 0xb0, 0xf8, 0x14, 0x3e,
  0x14, 0x33, 0x21, 0xbd, 0xb5, 0xab, 0x4a, 0x3e, 0x8d, 0xbc, 0x78, 0x3c,
  0x25, 0x9d, 0x3d, 0x3e, 0xfb, 0x97, 0x14, 0xbd, 0xb2, 0x2b, 0x83, 0xbd,
  0x0a, 0xba, 0xd8, 0xbd, 0x6b, 0x7a, 0x07, 0xbe, 0x39, 0x32, 0x8d, 0xbd,
  0xa1, 0xb4, 0x12, 0x3e, 0xab, 0x08, 0x9f, 0xbd, 0x3f, 0xe8, 0x00, 0x3e,
  0xc6, 0xf4, 0xdf, 0x3b, 0x1b, 0x11, 0x1e, 0x3d, 0x9e, 0xe8, 0x15, 0xbe,
  0x05, 0xe6, 0x1a, 0x3e, 0x59, 0xc8, 0x43, 0x3e, 0x5b, 0xed, 0x1f, 0xbd,
  0x6a, 0x23, 0x83, 0xbd, 0x38, 0xce, 0xcf, 0xbd, 0x98, 0x84, 0x7b, 0xbd,
  0x4d, 0x5a, 0x3d, 0x3e, 0x08, 0xa3, 0x44, 0x3d, 0xdb, 0x1b, 0xa7, 0x3d,
  0x96, 0xe9, 0x84, 0x3d, 0x86, 0x09, 0xf7, 0xbc, 0x0d, 0x9e, 0x8b, 0xbd,
  0x54, 0x29, 0xeb, 0xbb, 0x4a, 0xba, 0x56, 0x3d, 0x69, 0x64, 0xc3, 0x0e,
  0x21, 0x74, 0xb4, 0x3c, 0x05, 0x5e, 0x15, 0x3e, 0xd4, 0x98, 0x9d, 0xbb,
  0x30, 0x32, 0x85, 0xbd, 0x3e, 0xfb, 0xac, 0xbc, 0x3e, 0x43, 0x44, 0x3d,
  0x82, 0x79, 0x54, 0x3e, 0xb8, 0x2f, 0xc8, 0xbd, 0x79, 0xeb, 0xd1, 0x3c,
  0xf9, 0x1f, 0xe3, 0x3b, 0x7e, 0xe0, 0xd3, 0x3d, 0x38, 0x4e, 0xd7, 0x3d,
  0x60, 0x44, 0x7a, 0x3e, 0xb0, 0x1b, 0xa1, 0x3d, 0x28, 0x59, 0x0f, 0x36,
  0x0a, 0xa0, 0x5f, 0xbd, 0xfa, 0x5c, 0xff, 0xbd, 0xac, 0x76, 0x13, 0xbd,
  0xce, 0x3a, 0x39, 0x3d, 0x7e, 0x3b, 0x49, 0x3c, 0x09, 0xbc, 0x95, 0x3d,
  0xca, 0x19, 0xc4, 0x3d, 0x8c, 0x97, 0x47, 0xbd, 0xce, 0x3e, 0xf5, 0xbd,
  0x18, 0xdd, 0x90, 0xbd, 0xd7, 0x56, 0x72, 0x3e, 0xc7, 0x15, 0x86, 0xbd,
  0xfe, 0x36, 0x9f, 0x3d, 0x02, 0x82, 0xf8, 0xbd, 0xe0, 0x10, 0x05, 0xbd,
  0x46, 0xa1, 0xbf, 0x3d, 0x90, 0xaa, 0xc3, 0x8e, 0x12, 0x0d, 0xaa, 0xbc,
  0xa6, 0x8c, 0x29, 0x3d, 0x9b, 0x32, 0x29, 0x3c, 0x6c, 0x52, 0xbf, 0x3d,
  0x67, 0xfe, 0x27, 0x3d, 0xf6, 0x4b, 0xb7, 0xbd, 0xdb, 0x45, 0x13, 0x3e,
  0x34, 0x4c, 0x09, 0xbe, 0x5b, 0xfa, 0xf1, 0xbd, 0x48, 0x70, 0x80, 0x3d,
  0x18, 0xeb, 0x4f, 0x3d, 0x6c, 0x60, 0x3d, 0x3e, 0x64, 0x0f, 0x83, 0xbd,
  0x5c, 0x62, 0x25, 0x3d, 0x4f, 0xcd, 0xa2, 0xbd, 0xa5, 0xbf, 0xb6, 0x3c,
  0xf1, 0x30, 0xb7, 0x3b, 0xb6, 0x34, 0x51, 0xbd, 0x9a, 0x9c, 0x32, 0x3e,
  0x05, 0x8b, 0x3a, 0xbd, 0x47, 0xcf, 0x4d, 0x3e, 0xfb, 0xed, 0x57, 0x3d,
  0xea, 0x78, 0xb8, 0xbd, 0xdc, 0xa0, 0xf5, 0xbd, 0xdb, 0xb6, 0xbe, 0xbc,
  0x05, 0x9f, 0xfe, 0x3d, 0x33, 0x43, 0xaa, 0x3d, 0xb8, 0xa3, 0xf5, 0x3c,
  0x6c, 0x33, 0xce, 0xbd, 0x81, 0x7a, 0xd7, 0x3c, 0x94, 0xb9, 0x11, 0xbd,
  0xd5, 0x91, 0xc5, 0x0e, 0x27, 0x3a, 0x41, 0xbd, 0xe5, 0x09, 0x26, 0xbb,
  0x4b, 0x2b, 0xa1, 0xba, 0x36, 0x34, 0xc0, 0xbd, 0xfc, 0x83, 0xa8, 0xbd,
  0x52, 0x10, 0x16, 0xbd, 0xc6, 0x62, 0x95, 0xbb, 0x5d, 0x35, 0xf2, 0xbd,
  0x2c, 0xf1, 0xd0, 0xbc, 0x89, 0xeb, 0xbc, 0x3d, 0xa6, 0xf0, 0x77, 0x3c,
  0x15, 0x99, 0xbd, 0x3c, 0xa3, 0x28, 0x11, 0xbd, 0x30, 0xbd, 0x84, 0x3d,
  0xfc, 0xe5, 0x3f, 0x3e, 0xb3, 0x29, 0x9a, 0xbd, 0x9e, 0x1d, 0x0c, 0x3e,
  0x91, 0x67, 0x1e, 0xbb, 0xbe, 0xeb, 0x83, 0xbd, 0x29, 0xb4, 0x4a, 0x3c,
  0xe4, 0x93, 0xf4, 0x3d, 0xed, 0x4a, 0x98, 0x3d, 0xb8, 0x78, 0x6a, 0xbd,
  0xbb, 0x09, 0xbf, 0xbd, 0x8e, 0x27, 0xdc, 0xbd, 0x59, 0x3a, 0xda, 0xbc,
  0x5a, 0x68, 0x41, 0x3e, 0x33, 0x96, 0xa9, 0x3d, 0x2a, 0x59, 0x25, 0xbe,
  0x91, 0xa4, 0x6e, 0x3d, 0x59, 0x70, 0x89, 0x3d, 0x1b, 0x99, 0xc6, 0x0e,
  0x9d, 0x37, 0x06, 0x3d, 0x7e, 0x0e, 0xc7, 0xbc, 0x41, 0xdb, 0xb6, 0x3d,
  0x74, 0x11, 0x41, 0x3e, 0x31, 0xbe, 0x9d, 0x3d, 0xf3, 0x63, 0x83, 0x3c,
  0x92, 0x6c, 0xa8, 0x3d, 0xea, 0x15, 0x35, 0x3d, 0x54, 0x0a, 0xa7, 0x3d,
  0xc3, 0xcd, 0xa2, 0xbd, 0xce, 0x09, 0x5d, 0xbd, 0x7e, 0x76, 0x0f, 0xbd,
  0x40, 0x47, 0x0d, 0x3e, 0xef, 0xfa, 0xc4, 0xbd, 0xd5, 0xcb, 0x44, 0x3e,
  0xe5, 0x97, 0x0c, 0xbc, 0xb7, 0x0c, 0x20, 0x3c, 0x49, 0x53, 0x69, 0x3d,
  0x0b, 0xd8, 0x36, 0x3e, 0x3a, 0x9d, 0x65, 0xbb, 0xb0, 0x36, 0xa9, 0xbd,
  0x2f, 0xf5, 0xa0, 0xbd, 0x92, 0x05, 0x10, 0xbe, 0x71, 0x90, 0x3c, 0x3e,
  0x4b, 0x45, 0x07, 0xbc, 0xea, 0x7e, 0x79, 0xbd, 0x0a, 0xe4, 0x06, 0x3e,
  0xcb, 0xe6, 0x16, 0x3e, 0xff, 0x0b, 0x77, 0x3b, 0xa9, 0xd1, 0x89, 0xbd,
  0x49, 0xd1, 0x75, 0x3c, 0x52, 0xb4, 0xc4, 0x8e, 0x50, 0x03, 0x4d, 0x3e,
  0x4c, 0x9a, 0x8e, 0xbb, 0xa4, 0xd0, 0x34, 0x3e, 0xf1, 0x36, 0x64, 0xbd,
  0x4a, 0x26, 0xa9, 0xbd, 0x82, 0x68, 0x05, 0xbd, 0x19, 0x96, 0x4c, 0xbd,
  0xfd, 0x07, 0x09, 0xbe, 0x12, 0x05, 0x1f, 0x3e, 0x9e, 0x70, 0xcb, 0x3d,
  0xe4, 0x2d, 0xb6, 0xbc, 0x22, 0xa3, 0x5d, 0x3d, 0x20, 0x9c, 0x07, 0xbe,
  0xba, 0x96, 0x10, 0x3e, 0xba, 0x37, 0xd1, 0xbd, 0xdf, 0x19, 0x93, 0xbd,
  0x07, 0x36, 0x01, 0x3d, 0xdc, 0x82, 0xd3, 0x3d, 0x93, 0x62, 0xf3, 0x3d,
  0xf5, 0xc7, 0x1d, 0x3e, 0x57, 0x66, 0xe6, 0xbd, 0xa6, 0x2c, 0x81, 0xbc,
  0x35, 0xc8, 0xfe, 0x3d, 0x17, 0x0e, 0xdb, 0xbd, 0x38, 0xb2, 0xe4, 0x3d,
  0xf7, 0x76, 0x8b, 0x3d, 0xe5, 0x5b, 0xa2, 0x3d, 0x21, 0xda, 0x20, 0x3e,
  0x43, 0x76, 0x2b, 0x3e, 0xb9, 0xc4, 0xe2, 0x3d, 0xae, 0x3a, 0x81, 0xbd,
  0xde, 0x4b, 0xc4, 0x0e, 0xf8, 0x82, 0x3f, 0xbd, 0x7c, 0x48, 0xd3, 0xbc,
  0xff, 0x9d, 0x29, 0x3d, 0xb7, 0x2d, 0x9a, 0x3d, 0x6f, 0x14, 0x1d, 0x3e,
  0x3f, 0xdc, 0x06, 0xbe, 0x50, 0xeb, 0x9a, 0xbd, 0x74, 0x36, 0x24, 0x3e,
  0x61, 0x47, 0x43, 0x3e, 0xea, 0xbe, 0x8a, 0x3d, 0x98, 0x80, 0xcd, 0x3c,
  0xe8, 0x1a, 0x88, 0xbd, 0x98, 0x09, 0x28, 0xbe, 0x61, 0xf8, 0x05, 0xbe,
  0x90, 0x21, 0x92, 0xbd, 0x73, 0x49, 0x71, 0x3e, 0xf3, 0x36, 0x02, 0x3e,
  0xcd, 0x94, 0x49, 0x3d, 0x63, 0x39, 0xe4, 0xbd, 0x76, 0xc7, 0x40, 0x3e,
  0xa8, 0x7f, 0x34, 0x3e, 0xe8, 0x46, 0x54, 0xbe, 0xe0, 0x96, 0x86, 0x3e,
  0xd7, 0xcd, 0x07, 0xbb, 0x54, 0x28, 0x8e, 0x3e, 0x0a, 0xa9, 0x45, 0xbe,
  0xdf, 0xe5, 0x2e, 0xbe, 0x74, 0x98, 0x40, 0x3d, 0xf8, 0x57, 0xe2, 0xb8,
  0x92, 0x9c, 0xed, 0xbd, 0xaf, 0xfb, 0xa9, 0xbc, 0xac, 0x1d, 0xc4, 0x8e,
  0xcf, 0x67, 0x1b, 0xbe, 0x94, 0x06, 0x86, 0xbb, 0xe3, 0xee, 0x37, 0xbe,
  0xc0, 0x7c, 0xa0, 0xbd, 0x1f, 0x9d, 0x02, 0xbe, 0xdf, 0xdf, 0x83, 0x3d,
  0x6e, 0xa3, 0xca, 0xbd, 0xf0, 0x54, 0x41, 0x3e, 0xbc, 0x4e, 0x5c, 0x3d,
  0x28, 0xf0, 0x90, 0xbd, 0x66, 0x5b, 0x79, 0x3b, 0x17, 0x26, 0xaf, 0x3a,
  0x34, 0x44, 0x8d, 0xbd, 0xc4, 0x42, 0x22, 0xbe, 0xa2, 0x22, 0xf0, 0xbc,
  0xe9, 0xa1, 0x9d, 0x3d, 0xeb, 0xd7, 0x48, 0xbc, 0x79, 0x1d, 0xaf, 0x3d,
  0x98, 0x58, 0xfd, 0xbd, 0x34, 0xf2, 0xa4, 0x3d, 0x15, 0x56, 0x68, 0x3d,
  0x1b, 0x81, 0x8b, 0x3c, 0x6f, 0xd8, 0x56, 0x3e, 0xaf, 0xb1, 0x99, 0xbd,
  0x9c, 0xd8, 0xc1, 0xbd, 0xdb, 0xf8, 0xae, 0xbd, 0xf6, 0xc0, 0x11, 0xbe,
  0x58, 0xfd, 0xfb, 0x3d, 0x04, 0x6a, 0xc6, 0xbd, 0xf2, 0x4a, 0x28, 0xbe,
  0x96, 0x44, 0xe5, 0x3d, 0x8f, 0x0d, 0xc4, 0x8e, 0xc6, 0x39, 0x63, 0xbe,
  0x53, 0x0d, 0x0e, 0xbd, 0x12, 0xf2, 0x41, 0xbe, 0xd9, 0xc5, 0x4c, 0xbd,
  0x04, 0x8d, 0xcc, 0x3d, 0x61, 0xc9, 0xb7, 0x3d, 0x0e, 0xaa, 0xd3, 0x3d,
  0xbd, 0xe8, 0xfd, 0x3d, 0xdb, 0x41, 0xbe, 0x3d, 0x3c, 0x1b, 0x0d, 0x3e,
  0xd4, 0xac, 0xc6, 0xbd, 0xdc, 0x82, 0xe9, 0x3c, 0x1f, 0x64, 0x48, 0x3d,
  0x53, 0x2a, 0x74, 0xbc, 0xcc, 0x11, 0x9f, 0xbd, 0x5a, 0x15, 0x01, 0x3e,
  0x80, 0xa1, 0x3f, 0xbe, 0x42, 0xaf, 0xf0, 0x3d, 0xfe, 0x05, 0xce, 0x3d,
  0xbe, 0x71, 0xd8, 0xbd, 0xb0, 0x06, 0xf8, 0x3d, 0xb9, 0x90, 0x2c, 0xbd,
  0xf4, 0xe2, 0x8b, 0x3e, 0x0e, 0x46, 0xce, 0xbd, 0x68, 0x22, 0xb1, 0xbd,
  0xb5, 0x99, 0x96, 0x3d, 0xce, 0xee, 0x0b, 0xbe, 0x7f, 0x7a, 0x5a, 0xbd,
  0x0c, 0xdb, 0xab, 0xbb, 0xf8, 0xe8, 0xdf, 0x3b, 0xa5, 0xc2, 0xcf, 0xbd,
  0x4b, 0x98, 0xc6, 0x8e, 0x83, 0x22, 0x1e, 0xbc, 0x2e, 0x6f, 0x83, 0x3d,
  0xf3, 0x94, 0x19, 0xbe, 0xcf, 0x2e, 0x28, 0x3d, 0xe2, 0x5a, 0x3e, 0xbd,
  0x46, 0xee, 0x13, 0xbe, 0x0e, 0xf9, 0x3a, 0xbe, 0x9e, 0xf5, 0x2c, 0xbd,
  0x2b, 0xa2, 0x8a, 0x3e, 0x3e, 0xe3, 0xae, 0xbc, 0xd9, 0xb3, 0xcf, 0x3d,
  0xd1, 0xeb, 0xeb, 0xbc, 0x0f, 0x31, 0x4d, 0xbe, 0xbf, 0x10, 0x53, 0x3e,
  0xc2, 0x09, 0xf2, 0x3d, 0xce, 0xc1, 0x2c, 0x3d, 0x98, 0x6f, 0x8c, 0xbd,
  0xde, 0x1b, 0x35, 0x3c, 0x91, 0x2f, 0x0f, 0x3e, 0x0b, 0x2e, 0x44, 0x3e,
  0xbb, 0x56, 0x85, 0xbd, 0x26, 0x20, 0x04, 0x3e, 0x87, 0xa5, 0x64, 0x3e,
  0x51, 0xfd, 0x64, 0xbd, 0xac, 0x7d, 0x82, 0x3d, 0x8e, 0xf8, 0x7a, 0x3c,
  0xb5, 0x50, 0x02, 0xbe, 0x3d, 0xe6, 0x33, 0x3d, 0x9b, 0x34, 0xce, 0x3d,
  0xc5, 0x3f, 0x87, 0xbd, 0x0b, 0xbb, 0x35, 0xbd, 0x24, 0x7b, 0xb7, 0x8e,
  0xd3, 0x74, 0xfb, 0xbd, 0x7e, 0x38, 0xd5, 0x3b, 0x61, 0xb4, 0xed, 0xb9,
  0x14, 0xcd, 0x9f, 0x3c, 0x1b, 0xd9, 0x1d, 0x3e, 0xb1, 0xe5, 0xad, 0x3c,
  0x3a, 0x7f, 0x53, 0xbe, 0x0a, 0xe2, 0xd2, 0x3d, 0x07, 0x9e, 0x84, 0x3d,
  0xd0, 0xfe, 0x11, 0x3c, 0x81, 0x44, 0xdd, 0xbd, 0x39, 0xa8, 0xd7, 0xbd,
  0xf2, 0x08, 0xc5, 0xbd, 0xbf, 0x45, 0xb1, 0x3c, 0x54, 0xce, 0xe9, 0xbd,
  0xca, 0x98, 0xaf, 0x3c, 0x5f, 0xae, 0x80, 0xbd, 0x16, 0xac, 0xed, 0xbd,
  0x1e, 0xcc, 0x15, 0x3d, 0xad, 0x70, 0x71, 0x3d, 0x8f, 0x6d, 0x26, 0x3e,
  0xf1, 0x9e, 0x49, 0xbe, 0xba, 0x86, 0x05, 0xbd, 0x50, 0x33, 0x6c, 0x3c,
  0xd6, 0x45, 0xda, 0x3d, 0xd4, 0xa8, 0xa5, 0x3c, 0x08, 0x15, 0xe0, 0xbd,
  0x56, 0x79, 0xf2, 0xbd, 0x20, 0x54, 0xe9, 0x3d, 0x67, 0xb6, 0xbe, 0xbd,
  0x2a, 0xc3, 0x03, 0xbd, 0x26, 0x3b, 0xc4, 0x8e, 0xba, 0xa7, 0x4d, 0x3d,
  0xf5, 0x48, 0xc6, 0x3d, 0x1f, 0x85, 0xaf, 0x3d, 0x88, 0xf0, 0x64, 0xbd,
  0x24, 0x91, 0xc1, 0xbd, 0x9e, 0x1c, 0x25, 0xbd, 0x75, 0xbb, 0xb5, 0xbd,
  0xfe, 0xed, 0x13, 0x3c, 0x21, 0xd5, 0x87, 0xbc, 0xfb, 0xea, 0xc2, 0xbc,
  0x04, 0xdb, 0xf6, 0x3d, 0x45, 0xed, 0xeb, 0xbd, 0xf4, 0x43, 0x1b, 0xbd,
  0x24, 0x3c, 0xd2, 0xbd, 0xa5, 0xc0, 0x1e, 0x3e, 0x5d, 0x13, 0x90, 0xbd,
  0x7f, 0x61, 0x22, 0x3e, 0x69, 0xfd, 0x88, 0x3b, 0xa5, 0x67, 0xc0, 0xba,
  0xab, 0x2b, 0xb9, 0x3d, 0xf4, 0x74, 0x05, 0x3d, 0x85, 0xb2, 0x39, 0xbb,
  0xbd, 0x1e, 0x33, 0x3d, 0xe5, 0xf2, 0xfa, 0x3c, 0x17, 0x63, 0x38, 0xbd,
  0x5b, 0xb3, 0x28, 0xbe, 0x57, 0x18, 0xc6, 0xbd, 0x61, 0x13, 0xa2, 0xbc,
  0x9f, 0x07, 0x22, 0x3e, 0xa4, 0x17, 0x4f, 0xbc, 0x3d, 0x1e, 0x3c, 0x3d,
  0x18, 0x36, 0xc3, 0x8e, 0xe8, 0xe8, 0xdb, 0xbd, 0xee, 0xc8, 0x95, 0x3c,
  0xc2, 0xfe, 0xf1, 0xbb, 0xae, 0xa7, 0x25, 0xbd, 0x70, 0xf0, 0xc2, 0xbd,
  0x4d, 0x50, 0x0d, 0x3e, 0x8f, 0x2a, 0x93, 0xbd, 0xde, 0x61, 0x78, 0x3e,
  0x97, 0x2e, 0xb5, 0xbd, 0x95, 0xda, 0x94, 0xbd, 0xcb, 0x98, 0x05, 0x3e,
  0xc7, 0x13, 0x81, 0xbd, 0x31, 0xc4, 0xb0, 0xbc, 0x59, 0xb1, 0x81, 0xbd,
  0x01, 0x08, 0x8b, 0x3d, 0xe4, 0x85, 0x22, 0x3d, 0x9e, 0x50, 0x01, 0xbd,
  0xce, 0xfb, 0x31, 0xbe, 0x20, 0xef, 0xf7, 0xbd, 0x1f, 0x29, 0x93, 0x3b,
  0x17, 0x79, 0x5d, 0xbd, 0xd5, 0x5b, 0x58, 0xbd, 0xe2, 0x45, 0xa7, 0x3d,
  0x94, 0x16, 0xb4, 0x3d, 0xa3, 0x77, 0xe6, 0x3d, 0x62, 0xfa, 0x18, 0x3d,
  0x65, 0x2e, 0x16, 0xbe, 0x91, 0x02, 0x8d, 0x3e, 0xb3, 0xa0, 0xd8, 0x3d,
  0x69, 0x37, 0x6c, 0xbd, 0x31, 0x37, 0xd6, 0x3c, 0xe4, 0x05, 0xc6, 0x8e,
  0x81, 0x7a, 0x83, 0xbc, 0x72, 0x59, 0x20, 0x3e, 0x41, 0xa3, 0x05, 0xbe,
  0xeb, 0x75, 0xaf, 0x3d, 0xab, 0xec, 0x21, 0xbe, 0xc0, 0xd8, 0xe6, 0x3d,
  0xa8, 0xe0, 0x85, 0x3d, 0x5a, 0x4a, 0xab, 0xbd, 0xbb, 0x28, 0x75, 0xbd,
  0xfc, 0xb1, 0x9a, 0xbd, 0x35, 0x5d, 0x92, 0x3d, 0x1d, 0x72, 0x01, 0x3e,
  0xcf, 0xbf, 0xe8, 0xbd, 0x1b, 0x74, 0xed, 0xbd, 0x5e, 0xf4, 0xa7, 0xbc,
  0x6e, 0x07, 0x23, 0xbe, 0x4b, 0x52, 0xa6, 0xbd, 0xf2, 0x0f, 0xef, 0x3d,
  0xd8, 0xed, 0x90, 0xbc, 0x15, 0xc8, 0xd1, 0x3c, 0x12, 0xb2, 0x85, 0x3d,
  0x63, 0xef, 0x14, 0xbe, 0xf9, 0xe9, 0x15, 0xbd, 0xfb, 0x07, 0xde, 0xbd,
  0x31, 0xe3, 0x2d, 0xbe, 0xf6, 0x6c, 0x39, 0x3d, 0xa1, 0xfa, 0xeb, 0xbd,
  0x5e, 0xfc, 0xc4, 0xbc, 0xec, 0xac, 0x24, 0xbe, 0xbc, 0xd1, 0x1f, 0x3e,
  0x41, 0xea, 0x00, 0x3e, 0x14, 0xa6, 0xc3, 0x8e, 0x94, 0x47, 0x86, 0xbd,
  0xfc, 0xa7, 0x75, 0xbd, 0xab, 0xcc, 0xf5, 0x3c, 0x08, 0xaa, 0x80, 0x3d,
  0x6a, 0x3b, 0x19, 0xbd, 0x1f, 0x42, 0xca, 0xbd, 0xbe, 0xbd, 0xd7, 0x3d,
  0xb0, 0x8a, 0x69, 0xbd, 0x79, 0xe0, 0xc8, 0xbd, 0xed, 0x19, 0x03, 0xbe,
  0x7e, 0x7c, 0xd6, 0xbc, 0xed, 0x5c, 0x19, 0x3e, 0xb7, 0x43, 0xab, 0x3d,
  0xd6, 0x85, 0xab, 0x3d, 0x78, 0x39, 0xb1, 0xbc, 0x0c, 0x69, 0xdf, 0xbc,
  0xf0, 0x6e, 0x0d, 0x3e, 0x95, 0xb3, 0xe0, 0xbd, 0xf6, 0x6e, 0xfa, 0x3d,
  0x50, 0x09, 0x43, 0x3d, 0x1d, 0x43, 0xe3, 0xbd, 0x3d, 0xa7, 0xda, 0xbd,
  0x7a, 0x0f, 0xff, 0xbd, 0x2b, 0x7c, 0xf3, 0xbd, 0x24, 0x90, 0x40, 0xbe,
  0x28, 0xbd, 0x95, 0xbd, 0x11, 0xa3, 0x9b, 0x3d, 0x09, 0x65, 0x00, 0x3e,
  0x6c, 0x55, 0x42, 0x3b, 0x19, 0x4e, 0x73, 0x3c, 0xcb, 0xba, 0x4e, 0xbd,
  0xfd, 0x74, 0xc3, 0x8e, 0x3a, 0x36, 0x10, 0x3d, 0x3b, 0x6f, 0x72, 0x3c,
  0xe8, 0x9b, 0xcf, 0x3d, 0x5f, 0xc2, 0xa1, 0xbd, 0xbb, 0x53, 0x01, 0xbe,
  0x17, 0xd8, 0x1b, 0xbd, 0x3a, 0x08, 0xd0, 0x3c, 0x8c, 0x31, 0x25, 0x3d,
  0xd5, 0x5c, 0x78, 0xbe, 0xd4, 0x77, 0xb1, 0xbd, 0xec, 0x46, 0x61, 0x3d,
  0xd7, 0xe7, 0x02, 0xbe, 0x47, 0xe2, 0xb1, 0x3d, 0x08, 0xee, 0xbb, 0xb8,
  0xec, 0xe7, 0x6d, 0x3c, 0x7d, 0x9e, 0x3e, 0x3d, 0x54, 0x80, 0xea, 0x3d,
  0x93, 0xe2, 0xba, 0xbd, 0x08, 0x67, 0xfb, 0x3d, 0x7d, 0x24, 0x0d, 0xbe,
  0x86, 0x63, 0x2a, 0x3d, 0x72, 0xe3, 0x8d, 0xbd, 0x29, 0x09, 0xcc, 0xbd,
  0x24, 0x3c, 0xc5, 0xbc, 0x0c, 0x1f, 0xc7, 0xba, 0xc1, 0x87, 0x0f, 0xbe,
  0x66, 0x48, 0xdd, 0x3d, 0x6f, 0x4c, 0x89, 0xbd, 0xd4, 0xaf, 0x38, 0x3c,
  0x05, 0x3d, 0x84, 0xbd, 0x0c, 0x93, 0x7f, 0x3c, 0x93, 0x77, 0xc5, 0x8e,
  0xf1, 0x2c, 0x0f, 0x3e, 0xbe, 0x0e, 0x5f, 0x3d, 0x78, 0x84, 0x59, 0xbd,
  0x13, 0xdc, 0xe4, 0x3c, 0xf8, 0x6c, 0x2a, 0xbe, 0x57, 0x72, 0xb0, 0x3d,
  0x94, 0xe3, 0xf5, 0xbd, 0x95, 0x78, 0xc9, 0xbc, 0xaf, 0x51, 0x30, 0x3e,
  0x6a, 0xf1, 0xc0, 0xbd, 0x46, 0xa9, 0xe9, 0x3d, 0xf4, 0xab, 0xa3, 0x3c,
  0xec, 0xf5, 0xae, 0xbd, 0x80, 0xc7, 0x54, 0xbd, 0x6a, 0x2b, 0x91, 0x3d,
  0x6e, 0xee, 0x94, 0xbd, 0xb0, 0xa7, 0x45, 0xbd, 0xd2, 0x08, 0xd8, 0xbc,
  0x75, 0xb7, 0x23, 0x3e, 0x2d, 0x3f, 0x24, 0xbd, 0x27, 0x70, 0xe7, 0xbc,
  0x6d, 0xb6, 0xce, 0xbd, 0xe1, 0xb4, 0x37, 0xbe, 0xcc, 0xd0, 0x9e, 0x3d,
  0x5a, 0x13, 0xed, 0x3c, 0xda, 0x59, 0x07, 0xbc, 0xc0, 0x37, 0x91, 0x3d,
  0x9d, 0x8c, 0x14, 0xbd, 0xf5, 0x4a, 0xa2, 0xbd, 0x1a, 0x7c, 0xe6, 0xbd,
  0x86, 0xc5, 0x1a, 0x3e, 0x0b, 0xe1, 0xc3, 0x8e, 0xe5, 0x6e, 0x68, 0xbd,
  0x4c, 0x02, 0x35, 0x3d, 0xc3, 0xc5, 0x1f, 0xbd, 0x54, 0xa6, 0x5c, 0x3d,
  0x77, 0xf0, 0x31, 0x3e, 0x40, 0xa4, 0x5b, 0x3d, 0xec, 0x4c, 0xd1, 0xbd,
  0x8e, 0xe8, 0xc2, 0xbc, 0xb9, 0xf1, 0x42, 0x3e, 0xdb, 0x0b, 0x62, 0x3d,
  0x05, 0x32, 0x3d, 0x3d, 0xdd, 0x98, 0x9e, 0x3d, 0x77, 0x26, 0xe9, 0x3d,
  0xcf, 0x5a, 0x0c, 0xbe, 0x47, 0x74, 0xba, 0xbd, 0x29, 0xdf, 0xcd, 0xbd,
  0xd5, 0x7a, 0xe3, 0xbd, 0x6c, 0x99, 0xc5, 0xbd, 0xbf, 0x02, 0x1a, 0xbe,
  0x4f, 0x8b, 0xbd, 0xbd, 0xa0, 0x21, 0xd3, 0x3d, 0x86, 0x77, 0xcd, 0xbd,
  0x6a, 0x16, 0x47, 0x3d, 0xd4, 0x0e, 0x4c, 0xbd, 0x5f, 0xd7, 0xf4, 0xbb,
  0x30, 0xed, 0x87, 0xbd, 0xb3, 0xd0, 0x88, 0xbd, 0x19, 0xb8, 0xa2, 0x3d,
  0x9a, 0x59, 0x18, 0x3e, 0x7b, 0xd1, 0x61, 0xbd, 0x34, 0x8e, 0x82, 0xbc,
  0x4c, 0x5b, 0xc5, 0x0e, 0x98, 0x1c, 0x09, 0xba, 0x13, 0x31, 0x38, 0xbe,
  0xae, 0x61, 0xcb, 0x3d, 0x58, 0xf1, 0xcc, 0x3d, 0x68, 0xfc, 0x41, 0xbe,
  0x97, 0xc1, 0xb5, 0x3d, 0x6a, 0xd2, 0x0f, 0xba, 0xa8, 0xa6, 0xe6, 0x3d,
  0x68, 0xdb, 0x05, 0x3e, 0x2e, 0x9e, 0x93, 0xbc, 0xc9, 0x75, 0xc8, 0x3d,
  0xc0, 0x75, 0xfc, 0xbd, 0xc6, 0x35, 0x48, 0x3d, 0xad, 0x7f, 0x01, 0x3e,
  0xfe, 0x0e, 0x22, 0xbc, 0xcb, 0x65, 0x81, 0x3d, 0x55, 0x1b, 0x5c, 0x3d,
  0x59, 0x27, 0xb5, 0xbd, 0x5e, 0x5b, 0xbb, 0xbc, 0x54, 0xb8, 0xb0, 0x3d,
  0x59, 0x11, 0x2a, 0x3e, 0xf0, 0x31, 0xa9, 0x3d, 0xb4, 0x70, 0x0a, 0x3c,
  0x53, 0x1d, 0xac, 0xbd, 0xf9, 0x5b, 0xb3, 0x3d, 0xa2, 0x80, 0xa1, 0x3d,
  0x36, 0x0b, 0x12, 0x3d, 0xda, 0x5d, 0xaa, 0x3c, 0x48, 0x0a, 0x53, 0x3e,
  0x6c, 0x98, 0x8e, 0x3c, 0x64, 0xc6, 0xfb, 0x3d, 0xec, 0xb1, 0xc3, 0x0e,
  0x0d, 0x61, 0x08, 0x3e, 0x5d, 0x2d, 0x62, 0xbd, 0x28, 0x3f, 0xa4, 0x3d,
  0xca, 0x11, 0x98, 0x3d, 0x8c, 0xb2, 0xb0, 0x3d, 0x77, 0x74, 0xe3, 0x3d,
  0x95, 0xff, 0x4c, 0xbe, 0x5b, 0xaa, 0x4d, 0x3e, 0x6d, 0xfe, 0x43, 0x3d,
  0xe9, 0x82, 0x9a, 0x3d, 0x74, 0x3a, 0xde, 0xbc, 0xa0, 0x36, 0xbe, 0x3d,
  0x71, 0x6a, 0x07, 0xbe, 0x94, 0x7c, 0x85, 0xbd, 0x09, 0xbc, 0x31, 0x3e,
  0x81, 0x05, 0xd0, 0x3d, 0x20, 0x5a, 0x61, 0x3e, 0x7c, 0x1d, 0x12, 0xbd,
  0xa3, 0x70, 0x86, 0x3b, 0x57, 0x86, 0xe3, 0x3c, 0x08, 0xb6, 0x5f, 0x3e,
  0x33, 0x92, 0x5a, 0xbd, 0x79, 0xba, 0x45, 0x3e, 0x2c, 0xfe, 0x9f, 0xbc,
  0x28, 0x52, 0xaa, 0x3d, 0xa8, 0x4e, 0x0d, 0x3c, 0x06, 0x0f, 0x3b, 0xbd,
  0xee, 0x3f, 0x40, 0x3d, 0x1d, 0x2e, 0xce, 0x3d, 0x77, 0xa1, 0x81, 0x3c,
  0xa8, 0x50, 0x17, 0x3e, 0x0c, 0x24, 0xc4, 0x0e, 0xaa, 0x3a, 0xb6, 0x3d,
  0x92, 0xbf, 0xb2, 0x3d, 0x3c, 0x0b, 0x84, 0x3c, 0x84, 0xc4, 0x36, 0xbe,
  0x9b, 0xc8, 0x0e, 0xbe, 0x90, 0x93, 0xd8, 0x3d, 0xce, 0x50, 0x42, 0xbc,
  0x2a, 0x5c, 0x63, 0x3e, 0x6a, 0x4c, 0xce, 0xbd, 0xa9, 0xe2, 0x16, 0x3d,
  0xd0, 0xbf, 0x01, 0xbc, 0x24, 0xd3, 0xa4, 0x3d, 0x09, 0xe6, 0xd6, 0x3c,
  0x96, 0x26, 0xc2, 0xbc, 0x67, 0x11, 0xc5, 0xbd, 0xbb, 0xe4, 0xd7, 0x3d,
  0x60, 0xbb, 0x0e, 0x3e, 0xc2, 0x02, 0xd4, 0x3c, 0xd8, 0x51, 0x04, 0xbe,
  0x1b, 0xbc, 0x37, 0x3e, 0x05, 0x38, 0xb6, 0x3d, 0x15, 0xf0, 0xe7, 0xbd,
  0x25, 0x82, 0x2d, 0x3e, 0x33, 0x6c, 0x6c, 0xbc, 0xf3, 0x9f, 0x89, 0x3e,
  0x64, 0x61, 0xef, 0xbc, 0x39, 0x1e, 0xbc, 0x3d, 0xe7, 0x8c, 0x04, 0x3e,
  0x67, 0x9c, 0x8b, 0x3e, 0x24, 0xd6, 0xb3, 0xbd, 0xa9, 0xc1, 0x24, 0x3e,
  0x38, 0x06, 0xc5, 0x8e, 0xda, 0x60, 0x4a, 0x3d, 0xc0, 0x41, 0x48, 0xbc,
  0x25, 0x59, 0x93, 0xbd, 0x4a, 0x1c, 0xd7, 0x3d, 0xbc, 0xbb, 0x0b, 0xbe,
  0xc4, 0x80, 0x96, 0xbd, 0xe0, 0x01, 0xa7, 0xbd, 0x02, 0x8e, 0xb6, 0x3d,
  0x13, 0x0d, 0x8d, 0x3d, 0xc5, 0x4e, 0x6c, 0xbd, 0x70, 0x5d, 0xe5, 0xba,
  0x01, 0xd3, 0xd9, 0x3c, 0xaf, 0x8c, 0x66, 0x3c, 0xeb, 0x23, 0xf9, 0xbd,
  0x86, 0x8e, 0x5c, 0x3d, 0x4c, 0x6c, 0x1e, 0xbd, 0x90, 0x92, 0x54, 0x3e,
  0xa3, 0x84, 0xc2, 0x3d, 0x6b, 0x51, 0xe7, 0x3d, 0xa7, 0x8e, 0x18, 0xbc,
  0x0d, 0x4b, 0x9a, 0xbc, 0x25, 0xea, 0x30, 0xbe, 0xcc, 0x5e, 0x1c, 0x3e,
  0x3d, 0x74, 0xab, 0xbb, 0xa1, 0x63, 0x30, 0x3e, 0x54, 0xc6, 0xb1, 0xbd,
  0x68, 0xd0, 0xe9, 0xbc, 0x84, 0x39, 0xcc, 0xbc, 0x27, 0x29, 0x73, 0x3d,
  0xc7, 0x41, 0x73, 0x3c, 0xd5, 0xab, 0x0d, 0x3e, 0x24, 0x6e, 0xab, 0x0e,
  0x1e, 0x3a, 0x03, 0x3e, 0x79, 0x97, 0x0e, 0xbe, 0x04, 0x1d, 0xe0, 0xbd,
  0x78, 0x62, 0xa9, 0xbd, 0xb0, 0xa0, 0x25, 0xbe, 0x81, 0xf3, 0xf7, 0x3c,
  0x67, 0xcd, 0x1f, 0xbd, 0xcb, 0x7e, 0x56, 0x3d, 0x68, 0x57, 0xf0, 0x3d,
  0x6e, 0x2a, 0xb0, 0x3d, 0xa1, 0x11, 0x2e, 0x3e, 0x5a, 0x30, 0x9d, 0xbd,
  0xad, 0xfb, 0xf0, 0xbb, 0x7b, 0x75, 0x23, 0x3d, 0x48, 0xea, 0xca, 0x3d,
  0x52, 0xaa, 0x5c, 0x3c, 0x33, 0xf9, 0x05, 0xbe, 0x3b, 0xc1, 0x31, 0xbd,
  0x57, 0x18, 0xd4, 0x3c, 0xb8, 0x4e, 0x01, 0x3d, 0x93, 0x4b, 0x09, 0x3e,
  0x4d, 0x28, 0x6b, 0x3d, 0xa5, 0xce, 0xe3, 0x3c, 0xda, 0xb6, 0xa4, 0x3d,
  0x56, 0x91, 0x8f, 0x3d, 0xa6, 0xaf, 0x0b, 0xbd, 0xf4, 0x97, 0xf3, 0xbd,
  0x87, 0x7b, 0x20, 0x3e, 0x87, 0xcf, 0x26, 0x3e, 0xb3, 0x67, 0xc4, 0x3c,
  0x5b, 0x98, 0xc6, 0x3d, 0x29, 0xfd, 0xc4, 0x0e, 0x8f, 0x4d, 0xb4, 0x3c,
  0x7e, 0x07, 0x18, 0xbd, 0x00, 0x34, 0x13, 0xbd, 0xe5, 0x74, 0xe1, 0xbd,
  0x6b, 0xff, 0xab, 0xbb, 0x0c, 0x3d, 0x23, 0x3e, 0x73, 0x6b, 0x9d, 0xbc,
  0x25, 0x43, 0x70, 0xbd, 0xc2, 0x89, 0xbe, 0x3d, 0xd7, 0x9d, 0x19, 0xbd,
  0xcb, 0x53, 0x29, 0x3e, 0x86, 0xa7, 0xf4, 0x3d, 0x11, 0xfd, 0x85, 0xbd,
  0x5c, 0xad, 0x8b, 0xbd, 0x51, 0xde, 0xbb, 0x3d, 0x99, 0x0e, 0xf6, 0xbd,
  0x94, 0xdc, 0x40, 0x3e, 0x99, 0xfd, 0xdb, 0xbb, 0x59, 0x62, 0xfc, 0xbb,
  0x82, 0x3f, 0x00, 0x3e, 0xa1, 0x7e, 0x59, 0xbd, 0xd7, 0xb5, 0xe4, 0x3d,
  0xe5, 0xa2, 0x91, 0x3d, 0x6b, 0xb8, 0x59, 0x3c, 0xa4, 0x1d, 0x2a, 0x3e,
  0x35, 0xd5, 0x54, 0x3c, 0x59, 0x36, 0xd3, 0xbd, 0x66, 0xfc, 0x1f, 0xbe,
  0x76, 0x7c, 0x35, 0xbd, 0xbe, 0x57, 0x06, 0x3d, 0xe3, 0x41, 0x9e, 0x3b,
  0xc2, 0x7c, 0xc4, 0x0e, 0x19, 0xad, 0x0b, 0xbd, 0xa0, 0x3c, 0x35, 0xbe,
  0x31, 0x30, 0x9a, 0x3d, 0x42, 0x20, 0xbf, 0xbd, 0x47, 0x95, 0x42, 0xbd,
  0xa2, 0x16, 0xd6, 0x3d, 0x29, 0xa7, 0xcf, 0xbd, 0x3a, 0xc8, 0xd2, 0xbb,
  0xeb, 0xe6, 0xc3, 0x3d, 0xa6, 0x76, 0xe1, 0x3d, 0x1c, 0x8f, 0x9e, 0xbd,
  0xc4, 0xfd, 0x52, 0xbe, 0xf4, 0x2d, 0x63, 0xbe, 0x31, 0xb1, 0x86, 0xbb,
  0x08, 0xe9, 0x36, 0xbd, 0xad, 0x51, 0x52, 0x3e, 0x3c, 0xe8, 0x31, 0xbd,
  0xc5, 0x15, 0xbb, 0x3d, 0x58, 0xa3, 0x3e, 0xbd, 0x9f, 0xb4, 0xe8, 0x3d,
  0xa6, 0xcf, 0x19, 0x3e, 0x84, 0x5b, 0xc9, 0xbc, 0xe2, 0x0d, 0x75, 0x3e,
  0xea, 0xc8, 0x44, 0x3d, 0x8c, 0xc5, 0x37, 0x3e, 0xf0, 0xd7, 0x00, 0xbd,
  0x53, 0x0e, 0x29, 0xbd, 0xa0, 0x91, 0x39, 0x3e, 0x5e, 0x47, 0x1c, 0x3e,
  0xd9, 0x81, 0xba, 0xbd, 0x07, 0x3b, 0x6b, 0x3e, 0xb9, 0x3c, 0xc5, 0x8e,
  0x36, 0xf7, 0x66, 0x3c, 0x97, 0x6b, 0xe7, 0xbd, 0x17, 0xd0, 0x2f, 0xbe,
  0xf5, 0xd3, 0x81, 0xbe, 0x7b, 0xfc, 0x48, 0x3c, 0xe3, 0x51, 0xfa, 0x3d,
  0xcc, 0xae, 0x86, 0xbe, 0x25, 0x10, 0x99, 0x3d, 0xf0, 0x0a, 0x23, 0xbd,
  0x42, 0xfc, 0xf4, 0x3d, 0x6c, 0x78, 0x95, 0x3c, 0xc9, 0xfa, 0xc8, 0xbd,
  0xc4, 0xb3, 0x64, 0xbe, 0x24, 0x76, 0x00, 0xbe, 0x5d, 0x64, 0x0e, 0xbc,
  0x32, 0x0d, 0x91, 0x3b, 0x18, 0x96, 0xb6, 0xbd, 0x28, 0xac, 0x47, 0xbd,
  0x65, 0xbc, 0x81, 0x3d, 0x05, 0xfe, 0xf1, 0xbc, 0x6a, 0xfa, 0x15, 0xbd,
  0x06, 0x31, 0x23, 0xbc, 0xa1, 0x1f, 0x3f, 0xbb, 0xdc, 0x7a, 0x08, 0xbe,
  0xc8, 0x5f, 0xc2, 0x3d, 0x87, 0x6d, 0x3e, 0xbe, 0x43, 0x99, 0x3d, 0xbe,
  0x2d, 0xbf, 0xef, 0x3d, 0x8b, 0x65, 0xa1, 0x3c, 0x01, 0x5f, 0x26, 0xbd,
  0x38, 0xec, 0x92, 0xbd, 0xe9, 0x8e, 0xc5, 0x8e, 0x0e, 0xaf, 0x3e, 0xbe,
  0x46, 0x93, 0xe0, 0x3d, 0xf4, 0xa0, 0x0b, 0xbe, 0x3b, 0x38, 0x0c, 0xbe,
  0xa5, 0x71, 0x19, 0xbe, 0x34, 0xd4, 0x22, 0x3b, 0x57, 0xdb, 0x53, 0x3c,
  0x12, 0xc2, 0xa9, 0x3d, 0xd2, 0x4c, 0xb1, 0xbd, 0x96, 0x47, 0x0f, 0x3d,
  0x88, 0x99, 0x24, 0x3d, 0x70, 0x9a, 0x40, 0xbd, 0x22, 0x98, 0x95, 0x3d,
  0x1a, 0x98, 0xf3, 0xbd, 0xfe, 0x65, 0x92, 0x3c, 0xc7, 0x43, 0xc4, 0x3d,
  0xfb, 0x57, 0x30, 0xbd, 0x04, 0xb0, 0x9d, 0x3d, 0xcb, 0xce, 0x66, 0x3c,
  0xbf, 0x5c, 0x2a, 0x3e, 0xe1, 0x60, 0xff, 0x3d, 0x79, 0xff, 0x0c, 0x3e,
  0x9f, 0xcc, 0xba, 0x3c, 0x56, 0x37, 0xbd, 0xbd, 0x7b, 0x05, 0xf8, 0x3d,
  0x64, 0x9a, 0x61, 0x3d, 0x07, 0x72, 0x3a, 0x3d, 0xd9, 0x7b, 0x3b, 0xbe,
  0x44, 0x8a, 0x0d, 0x3e, 0xf8, 0x8e, 0xea, 0x3d, 0xea, 0x37, 0x29, 0xbd,
  0xcd, 0x3e, 0xc6, 0x0e, 0xd0, 0x2c, 0xc0, 0x3d, 0x18, 0x7b, 0xde, 0xbd,
  0xae, 0xcc, 0x17, 0xbd, 0x18, 0xfe, 0x14, 0xbe, 0xcf, 0x9c, 0xf9, 0xbd,
  0x16, 0x1b, 0x9b, 0xbd, 0xec, 0xb0, 0xf3, 0xbd, 0x50, 0x0f, 0x3f, 0xbd,
  0x1f, 0xf0, 0x73, 0x3e, 0x0b, 0xb9, 0x43, 0x3b, 0x6d, 0x6b, 0xad, 0xbd,
  0x4f, 0xed, 0xf5, 0x3a, 0x82, 0xa8, 0x35, 0xbe, 0x12, 0x28, 0xfb, 0x3b,
  0x24, 0x50, 0xad, 0x3d, 0xbb, 0x54, 0xab, 0x3d, 0xeb, 0xf5, 0xc7, 0x3c,
  0x9c, 0x8c, 0x52, 0x3d, 0x2c, 0x19, 0xa7, 0xbd, 0x42, 0xf8, 0x2d, 0x3d,
  0x2d, 0x45, 0x36, 0x3c, 0xe5, 0x04, 0xae, 0xbd, 0xe7, 0xf8, 0x10, 0x3e,
  0x15, 0x61, 0xe2, 0xbd, 0x7e, 0xc9, 0x7b, 0x3c, 0xfd, 0x57, 0x08, 0xbe,
  0x4b, 0x13, 0x36, 0x3d, 0x33, 0x6a, 0x04, 0x3d, 0x5e, 0xe6, 0x70, 0x3e,
  0x86, 0xdb, 0x16, 0xbd, 0xa2, 0x4d, 0xe0, 0x3d, 0x4c, 0x23, 0xc1, 0x8e,
  0x29, 0xbf, 0xa0, 0xbd, 0xc0, 0x95, 0x4c, 0xbd, 0x83, 0xe2, 0x3b, 0x3c,
  0xa9, 0x8c, 0x04, 0xbe, 0x84, 0x24, 0x80, 0x3e, 0x83, 0x18, 0xe8, 0xbc,
  0xd7, 0x27, 0x13, 0xbe, 0x57, 0x85, 0x69, 0x3b, 0xe2, 0x3c, 0x30, 0x3e,
  0xc0, 0x15, 0x3f, 0xbd, 0x95, 0x48, 0xde, 0x3b, 0xd6, 0x3e, 0xcb, 0x3d,
  0xf5, 0x49, 0xbb, 0xbd, 0xf0, 0xd0, 0xdf, 0xbc, 0xed, 0x85, 0x18, 0xbd,
  0xaf, 0x83, 0x9c, 0xbd, 0x0d, 0x3e, 0xa5, 0xbd, 0xd0, 0xf6, 0x0c, 0x3e,
  0x0e, 0x6c, 0x0c, 0xbe, 0xee, 0x23, 0xa1, 0xb9, 0x87, 0x1a, 0x23, 0x3e,
  0x7d, 0x3a, 0xf3, 0x3c, 0x5b, 0xf2, 0x3e, 0x3e, 0x30, 0x3b, 0x25, 0xbd,
  0x3d, 0xc6, 0xaa, 0x3c, 0xff, 0x60, 0x56, 0xbe, 0xb4, 0xe3, 0x0d, 0xbe,
  0x1c, 0x3c, 0x29, 0x3e, 0x5a, 0x73, 0xf0, 0x3d, 0x1d, 0x32, 0x46, 0xbb,
  0xd0, 0xe5, 0x41, 0x3c, 0xb1, 0x27, 0xc5, 0x8e, 0xf7, 0x6d, 0xb7, 0x3d,
  0xec, 0xcc, 0xf9, 0x3d, 0xfd, 0x26, 0xe7, 0xbc, 0x33, 0x7b, 0x0e, 0xbd,
  0xa3, 0xe4, 0xb2, 0xbc, 0xed, 0x87, 0xa0, 0x3d, 0x09, 0x21, 0x34, 0xbd,
  0xee, 0x59, 0x41, 0x3e, 0x0d, 0xfc, 0x12, 0x3e, 0x11, 0x9d, 0x7e, 0x3e,
  0x05, 0x82, 0xe7, 0x3d, 0x06, 0x32, 0xe0, 0xbd, 0xbe, 0x5a, 0x98, 0xbb,
  0x52, 0xf4, 0x50, 0xbd, 0xff, 0x2f, 0xb2, 0xbd, 0x40, 0x3d, 0x52, 0x3e,
  0x56, 0x43, 0x17, 0x3d, 0xac, 0x60, 0x87, 0x3d, 0xb4, 0xe6, 0x81, 0x3c,
  0x2f, 0xa2, 0xcc, 0xbc, 0xaa, 0x23, 0xc4, 0x3d, 0x92, 0x1b, 0x0a, 0x3e,
  0x9a, 0x05, 0x6c, 0x3e, 0xbc, 0xd4, 0x22, 0x3c, 0xea, 0x58, 0x07, 0x3e,
  0x4a, 0x21, 0x07, 0x3d, 0x79, 0x2e, 0x74, 0x3d, 0x19, 0x8d, 0xb6, 0xbc,
  0x5f, 0xc9, 0x96, 0x3d, 0x47, 0x50, 0x28, 0x3d, 0x90, 0x61, 0x82, 0x3e,
  0xf9, 0x12, 0xbc, 0x0e, 0x7c, 0x05, 0xf2, 0x3c, 0x5b, 0xd0, 0xf9, 0xbc,
  0x5e, 0xf7, 0x19, 0x3d, 0x10, 0xd6, 0xf6, 0xbd, 0x0a, 0x97, 0x48, 0x3c,
  0x24, 0x68, 0x07, 0x3e, 0x8c, 0x21, 0x44, 0xbe, 0x39, 0xff, 0x94, 0x3e,
  0x42, 0x5d, 0x51, 0x3e, 0x33, 0x06, 0xfa, 0xbc, 0xa0, 0x6b, 0xa4, 0x3c,
  0x50, 0x83, 0xf3, 0x3d, 0x90, 0x4a, 0x02, 0xbe, 0x7a, 0x0e, 0xfb, 0x3d,
  0x7c, 0xe9, 0x02, 0xbe, 0xa0, 0xa7, 0x5e, 0x3e, 0x64, 0x05, 0x10, 0x3e,
  0xd2, 0xb9, 0x92, 0x3d, 0x60, 0x92, 0x2b, 0x3e, 0x8e, 0xfc, 0x32, 0x3e,
  0x0f, 0x9d, 0x4a, 0x3e, 0x00, 0x00, 0xf0, 0xbd, 0x5c, 0x74, 0x22, 0x3e,
  0xca, 0xf0, 0xa1, 0x3c, 0x33, 0x6c, 0x18, 0x3e, 0x81, 0x1c, 0x16, 0x3d,
  0x48, 0xc0, 0x94, 0xbc, 0xfb, 0x13, 0x39, 0x3e, 0x53, 0x23, 0xc6, 0xba,
  0x8b, 0x24, 0x3b, 0x3c, 0xe7, 0xfe, 0x1f, 0x3e, 0xf3, 0x1f, 0xc3, 0x8e,
  0x55, 0xd6, 0x63, 0x3d, 0x81, 0xb8, 0xbb, 0x3d, 0xb3, 0x77, 0xc0, 0xbd,
  0x9d, 0xfd, 0xb8, 0x3c, 0x84, 0x0b, 0x10, 0x3e, 0xdb, 0x46, 0x66, 0xbd,
  0x32, 0x94, 0x0f, 0x3e, 0xa6, 0xf8, 0xe7, 0xbd, 0x7c, 0x1e, 0x82, 0x3e,
  0xf4, 0x05, 0x64, 0x3e, 0x61, 0xd3, 0x3f, 0xbd, 0x5e, 0xcd, 0x01, 0xbd,
  0xa6, 0xcb, 0x74, 0xbd, 0xee, 0xd1, 0xab, 0x3d, 0x82, 0xdf, 0x48, 0xbe,
  0x74, 0x8e, 0xfd, 0x3d, 0x77, 0xea, 0xc1, 0x3d, 0x2e, 0x43, 0x83, 0xbd,
  0xba, 0xc1, 0xaf, 0xbd, 0x7f, 0x48, 0x74, 0x3c, 0xf4, 0xd7, 0xbe, 0x3d,
  0x8a, 0x08, 0x75, 0xbd, 0x02, 0x42, 0x6a, 0x3e, 0xce, 0xfa, 0xbd, 0x3d,
  0xdb, 0xb7, 0x18, 0x3e, 0x00, 0x3f, 0x31, 0x3e, 0xce, 0x49, 0x11, 0x3e,
  0xb1, 0x45, 0x4f, 0x3d, 0xa9, 0xc5, 0xb3, 0xbd, 0xbe, 0xd8, 0x70, 0xbd,
  0xdb, 0x05, 0x98, 0xbc, 0x11, 0x14, 0xc5, 0x8e, 0x75, 0x5d, 0x25, 0xbe,
  0x99, 0x20, 0xdd, 0xbd, 0x1f, 0x16, 0x2c, 0x3e, 0x17, 0x81, 0x3e, 0x3c,
  0x1e, 0x5d, 0x1f, 0x3e, 0x34, 0x80, 0x4e, 0x3d, 0xa0, 0x97, 0x18, 0x3e,
  0xf6, 0x89, 0xf3, 0xbd, 0xc1, 0xa0, 0x97, 0xbd, 0x92, 0xa7, 0x94, 0x3d,
  0x26, 0x6c, 0x15, 0xbd, 0x99, 0x8b, 0xd3, 0x3c, 0x68, 0x4a, 0x07, 0x3d,
  0xd3, 0x31, 0xf7, 0x3d, 0x66, 0x61, 0x15, 0xbe, 0x03, 0x16, 0x3f, 0x3e,
  0xe9, 0x4d, 0x50, 0x3d, 0x93, 0x72, 0x51, 0xbd, 0x64, 0xd0, 0x8b, 0x3d,
  0x13, 0x71, 0xa3, 0xbd, 0xdc, 0xa9, 0xca, 0xbd, 0x5b, 0x6a, 0x16, 0x3e,
  0x1b, 0x79, 0x03, 0x3e, 0x88, 0x62, 0xee, 0x3d, 0x0a, 0xed, 0x78, 0x3d,
  0xfc, 0x17, 0x17, 0xbd, 0x13, 0x95, 0x1d, 0xbd, 0x73, 0x55, 0xf6, 0x3c,
  0xdb, 0x12, 0xa2, 0x3d, 0x83, 0x31, 0xf4, 0xbd, 0x15, 0xc6, 0xda, 0x3d,
  0x8a, 0x06, 0xc6, 0x8e, 0xbc, 0xee, 0x35, 0x3e, 0xd7, 0xaa, 0xf2, 0xbd,
  0x4b, 0xb9, 0x06, 0xbd, 0x7d, 0x7f, 0x6f, 0xbd, 0x71, 0x94, 0xa6, 0xbb,
  0x85, 0xe0, 0x8d, 0xbd, 0xc0, 0x48, 0xdb, 0x3d, 0x00, 0xa1, 0x77, 0xbd,
  0xd3, 0xa5, 0x13, 0x3d, 0x85, 0x25, 0x70, 0x3e, 0x9d, 0x41, 0x1c, 0x3d,
  0xc9, 0xee, 0x97, 0xbd, 0xab, 0xe8, 0xc7, 0xbd, 0x1e, 0xce, 0x20, 0x3d,
  0x2a, 0x12, 0x06, 0x3e, 0xb5, 0x93, 0x8c, 0x3d, 0xdd, 0x71, 0xc8, 0x3d,
  0xc0, 0xe9, 0xeb, 0x3d, 0x55, 0x7b, 0x96, 0xbd, 0x41, 0x0e, 0x60, 0x3d,
  0xf4, 0xf6, 0xa6, 0x3d, 0x6b, 0xde, 0x8a, 0x3d, 0xce, 0x08, 0x39, 0x3e,
  0xcc, 0x68, 0x38, 0xbd, 0x21, 0x38, 0xaa, 0x3d, 0x55, 0x27, 0x86, 0x3d,
  0xfb, 0xce, 0xfe, 0xbc, 0x52, 0x35, 0xb7, 0xbd, 0xfd, 0x9f, 0x14, 0x3e,
  0xf0, 0xa4, 0xc7, 0x3c, 0xe7, 0x98, 0x57, 0xbd, 0xb4, 0x9f, 0xc3, 0x0e,
  0x99, 0xd3, 0x0f, 0xbe, 0x88, 0xc3, 0xb8, 0xbd, 0xc8, 0x91, 0x25, 0x3e,
  0x18, 0xd8, 0x97, 0xbd, 0xca, 0xb5, 0xab, 0x3c, 0x45, 0x5b, 0x05, 0x3e,
  0x9f, 0xab, 0xd8, 0xbd, 0x69, 0x15, 0x28, 0x3e, 0x33, 0x66, 0x3e, 0x3e,
  0xea, 0x9d, 0x8c, 0x3d, 0xad, 0x8b, 0xd3, 0xbd, 0x1f, 0x55, 0xfa, 0x3c,
  0xd5, 0x03, 0x73, 0xbd, 0xeb, 0xff, 0x5c, 0xbd, 0x9c, 0x74, 0xb0, 0xbd,
  0xde, 0x7e, 0xe5, 0xbd, 0xa1, 0x8d, 0x02, 0xbd, 0xe5, 0x59, 0x20, 0xbc,
  0x1b, 0xf1, 0x92, 0xbd, 0x28, 0x11, 0xf3, 0x3d, 0x69, 0x23, 0xac, 0x3d,
  0xcb, 0x5c, 0xeb, 0xbd, 0x36, 0x4a, 0x5d, 0x3d, 0xcb, 0x92, 0x0d, 0xbe,
  0x7d, 0x06, 0xe4, 0xbd, 0xc3, 0x44, 0x1e, 0x3e, 0x9f, 0x60, 0x3b, 0x3e,
  0x29, 0x0f, 0xbf, 0x3d, 0xa9, 0xdc, 0x23, 0x3e, 0x4a, 0x8d, 0x99, 0xbd,
  0xf8, 0x86, 0xf3, 0x3d, 0xbb, 0x7e, 0xc5, 0x0e, 0x59, 0x53, 0x03, 0x3e,
  0x66, 0xb0, 0x34, 0x3c, 0x5d, 0x80, 0xac, 0xbd, 0xea, 0x2e, 0xe5, 0xbd,
  0x6a, 0xe3, 0xb0, 0xbd, 0x9c, 0x72, 0x87, 0xbd, 0x7e, 0xb1, 0x35, 0x3c,
  0x4e, 0x01, 0x10, 0x3c, 0x9b, 0xf5, 0x42, 0xbd, 0x1a, 0xa2, 0x64, 0xbc,
  0xcc, 0x06, 0x3a, 0xbc, 0x0d, 0x70, 0xcc, 0xbc, 0xb6, 0xf5, 0x1e, 0xbd,
  0xa9, 0x75, 0xf3, 0xbc, 0x63, 0xb1, 0xf6, 0xbb, 0xa9, 0xab, 0x1b, 0x3c,
  0xad, 0xbe, 0xb8, 0x3a, 0xcc, 0x09, 0x0b, 0xbd, 0x2f, 0xb1, 0x94, 0xbc,
  0x56, 0xce, 0x07, 0xbc, 0x4e, 0x52, 0xf0, 0x38, 0x46, 0x33, 0xfd, 0xba,
  0x2d, 0xa9, 0x37, 0x3c, 0xf1, 0x42, 0x29, 0x3b, 0x83, 0x1e, 0xe7, 0x3b,
  0x1c, 0x19, 0xea, 0xbb, 0x0e, 0x7d, 0x19, 0xbd, 0x42, 0x17, 0x21, 0x3a,
  0x3a, 0x9d, 0x9f, 0x3b, 0x88, 0xaa, 0x22, 0xbd, 0xbb, 0xb9, 0xe5, 0xbb,
  0x89, 0x46, 0xc4, 0x0e, 0x0c, 0xe3, 0x6d, 0x3a, 0xc9, 0x48, 0x0d, 0x3b,
  0xb2, 0xef, 0x13, 0xbd, 0x5b, 0x35, 0x81, 0xbc, 0x6e, 0xc7, 0x5c, 0xbd,
  0x9c, 0xd4, 0x74, 0x3b, 0xfb, 0x99, 0x9e, 0xbc, 0xcf, 0x25, 0x78, 0x3d,
  0x8e, 0x67, 0xd9, 0x3c, 0x02, 0x67, 0x06, 0x3d, 0x56, 0x12, 0xbf, 0x3c,
  0x10, 0x19, 0xc0, 0xbc, 0xcc, 0x8a, 0x83, 0xbc, 0x30, 0x21, 0x8c, 0xbc,
  0x15, 0xd9, 0x08, 0x3c, 0xf2, 0x8a, 0x6a, 0x3d, 0xa0, 0x5f, 0xc2, 0x3c,
  0x20, 0xf1, 0xa2, 0xbc, 0x5d, 0xfe, 0xc2, 0xbc, 0x08, 0x76, 0xc8, 0x3c,
  0x12, 0x5d, 0x00, 0x3d, 0xda, 0xc7, 0xc7, 0xbc, 0x47, 0xb1, 0x46, 0x3d,
  0xd5, 0x07, 0x48, 0x3d, 0xc1, 0xf0, 0x58, 0x3d, 0x39, 0xbc, 0x85, 0xbc,
  0x56, 0xb2, 0xd1, 0xbc, 0xbb, 0x2e, 0x4f, 0x3d, 0xaf, 0x18, 0x53, 0x3d,
  0x3e, 0x8c, 0x06, 0xbd, 0x4e, 0xaf, 0x3b, 0x3c, 0x10, 0xa9, 0xbd, 0x0e,
  0x44, 0x09, 0x2d, 0xbc, 0x1a, 0x8e, 0x39, 0x3d, 0xb1, 0x1c, 0xd0, 0xbc,
  0x95, 0x4c, 0xaf, 0xbc, 0xa7, 0x31, 0x2e, 0xbd, 0xe1, 0x01, 0x4f, 0x3d,
  0x0b, 0xc9, 0x14, 0xbc, 0x49, 0x25, 0xfe, 0x3c, 0xb4, 0xc3, 0x6a, 0x3a,
  0xe1, 0xd6, 0x16, 0x3b, 0xa0, 0x7c, 0xdc, 0x3c, 0x4b, 0x8b, 0x1b, 0xbc,
  0x11, 0xd1, 0xa5, 0xbb, 0x47, 0x6a, 0x66, 0xbb, 0xdd, 0x65, 0x08, 0x3c,
  0x67, 0xb1, 0xe7, 0x3c, 0x03, 0xb7, 0xbf, 0x3b, 0x8d, 0xf8, 0xad, 0xbb,
  0xc5, 0x2e, 0xfe, 0xbb, 0x66, 0x26, 0x65, 0x3b, 0x9e, 0x0f, 0xc4, 0x3c,
  0xe1, 0x00, 0x70, 0xbc, 0xf4, 0x76, 0xbe, 0x3c, 0x22, 0x74, 0xb8, 0x3c,
  0xcd, 0x41, 0xc1, 0x3c, 0x01, 0x33, 0x30, 0xbc, 0xf8, 0x13, 0x9b, 0xbb,
  0xd2, 0xda, 0xc3, 0x3c, 0xfe, 0x7c, 0x91, 0x3c, 0x59, 0xf0, 0xf5, 0xbb,
  0xd4, 0x96, 0x11, 0xba, 0x0b, 0xb3, 0xc4, 0x8e, 0x0f, 0xf1, 0x7d, 0x3a,
  0x1f, 0xdd, 0xf3, 0x3c, 0xad, 0xb2, 0x26, 0xbc, 0x9c, 0xbc, 0x4c, 0xbc,
  0xa5, 0xe2, 0x73, 0x3b, 0xed, 0xdc, 0xff, 0x3c, 0x08, 0x78, 0x48, 0x3d,
  0x96, 0x25, 0xc9, 0x39, 0x12, 0x21, 0x72, 0x3a, 0x07, 0x36, 0x26, 0x3c,
  0xf1, 0xbe, 0xc0, 0xba, 0x52, 0xd0, 0x03, 0xbc, 0xe8, 0xa8, 0x49, 0x3c,
  0x28, 0x0e, 0x97, 0xbb, 0xac, 0x45, 0x34, 0x3d, 0x32, 0x29, 0xb7, 0xbb,
  0xb6, 0xe4, 0xf3, 0x3b, 0x6a, 0x9d, 0x9b, 0xbc, 0xde, 0xf4, 0x29, 0x3b,
  0x93, 0xb3, 0x6d, 0x3c, 0xe5, 0xdb, 0x6c, 0x3b, 0xc7, 0xae, 0xd8, 0xbb,
  0x6b, 0x4b, 0x1d, 0xbc, 0x09, 0x9d, 0x39, 0xbb, 0x8c, 0x53, 0xb3, 0xbb,
  0xe6, 0x14, 0x67, 0xbd, 0xdf, 0x57, 0x02, 0xbc, 0x64, 0xaf, 0xea, 0x3a,
  0xb8, 0x82, 0xbe, 0x38, 0xe8, 0x70, 0xcb, 0xbc, 0x33, 0x89, 0xcb, 0x3a,
  0x60, 0xe4, 0xc4, 0x8e, 0x5b, 0x47, 0x3c, 0x3c, 0x80, 0x71, 0xd9, 0xbb,
  0xce, 0x68, 0x01, 0xbd, 0x4d, 0x0a, 0xa4, 0x3c, 0x3d, 0xcf, 0xa9, 0xbc,
  0x32, 0x43, 0x8c, 0x3a, 0x76, 0x39, 0xad, 0x3b, 0x6d, 0xd2, 0x07, 0xbc,
  0x5e, 0x86, 0x1d, 0x3c, 0xfd, 0xba, 0x84, 0xbb, 0x10, 0xbc, 0xac, 0xbb,
  0x7f, 0x8f, 0x50, 0xbc, 0xa6, 0x03, 0x09, 0xba, 0xf3, 0xd5, 0x83, 0x3b,
  0x0d, 0xd9, 0x1c, 0xbb, 0x3f, 0x57, 0x91, 0xbc, 0xb3, 0x56, 0x4e, 0xbd,
  0xce, 0xa6, 0x41, 0x3d, 0xdb, 0x3b, 0x1a, 0x3d, 0x4c, 0x6e, 0x17, 0xbc,
  0x59, 0x72, 0x9e, 0xbb, 0xa8, 0x8b, 0x49, 0x3c, 0x7e, 0xc1, 0x06, 0xbc,
  0x4d, 0x52, 0xa3, 0xbc, 0x27, 0xac, 0x85, 0xbc, 0x10, 0x29, 0x8c, 0x3a,
  0x3d, 0x8f, 0x4d, 0x3b, 0x1b, 0xa0, 0x85, 0xbc, 0x97, 0x96, 0x2a, 0xbc,
  0x4a, 0x84, 0x03, 0x3c, 0x18, 0x9b, 0x88, 0xba, 0xa5, 0x63, 0xc5, 0x0e,
  0x91, 0x5f, 0xee, 0x3a, 0x7c, 0xe4, 0xa5, 0xbc, 0xb9, 0xf0, 0x34, 0x3c,
  0x8e, 0x57, 0xd0, 0xb9, 0x24, 0x2b, 0x12, 0xbc, 0x8b, 0x40, 0xc4, 0xba,
  0xbc, 0xa9, 0x80, 0x3c, 0x04, 0x28, 0xe4, 0xbb, 0x83, 0x14, 0x12, 0xbd,
  0x84, 0xe5, 0x66, 0x3a, 0x1f, 0x8e, 0x3b, 0x3c, 0xfb, 0x95, 0xf4, 0x3b,
  0xb5, 0xd1, 0x9c, 0x3c, 0x9c, 0x35, 0xa3, 0x3c, 0xa2, 0x19, 0x8a, 0xbc,
  0x9c, 0xdd, 0x5d, 0xbc, 0x9b, 0x3d, 0xc0, 0xbb, 0x65, 0x62, 0x18, 0x3c,
  0xa0, 0x91, 0x17, 0x3c, 0x97, 0x4a, 0x89, 0xbc, 0xf0, 0x11, 0x09, 0x3c,
  0xa5, 0x47, 0x8d, 0xbc, 0x69, 0x02, 0x91, 0xbc, 0xf0, 0xdb, 0x42, 0x3b,
  0xb6, 0x40, 0x71, 0xbb, 0x0b, 0x27, 0x5d, 0x3c, 0xb2, 0x20, 0xc6, 0xbc,
  0x6b, 0x7b, 0x02, 0x3c, 0xf1, 0xcf, 0x72, 0xbc, 0xab, 0x41, 0x0a, 0xbc,
  0x39, 0xfb, 0xa2, 0x3c, 0x70, 0x15, 0xc4, 0x0e, 0x0b, 0xe3, 0xb5, 0x3c,
  0x0e, 0x92, 0x0d, 0xbb, 0xe7, 0x0e, 0x0c, 0x3b, 0x93, 0x1f, 0x67, 0x3c,
  0x54, 0xd0, 0x0d, 0x3c, 0x3b, 0xa3, 0x34, 0x3c, 0x18, 0x0a, 0xbb, 0xbc,
  0xd6, 0x9c, 0x07, 0xbe, 0x03, 0x0c, 0xab, 0xbd, 0x0b, 0x29, 0x14, 0x3e,
  0x06, 0xaa, 0xd3, 0x3c, 0x4b, 0xce, 0xa1, 0xbd, 0x88, 0x51, 0xd8, 0x3b,
  0x06, 0x58, 0xc6, 0x3d, 0x0e, 0xbe, 0xd2, 0x3d, 0x50, 0xb4, 0x01, 0x3d,
  0xbc, 0x58, 0x13, 0x3e, 0xda, 0x4d, 0x38, 0x3d, 0x6b, 0x1a, 0x47, 0x3d,
  0x99, 0x2e, 0x95, 0xbd, 0xa9, 0x7d, 0xe6, 0xbd, 0xf6, 0x34, 0xa6, 0x3d,
  0x92, 0x72, 0xbc, 0xbd, 0x53, 0xa2, 0xa1, 0x3c, 0xfd, 0xda, 0x20, 0x3d,
  0x65, 0xc6, 0x25, 0x3e, 0x25, 0x66, 0xbd, 0x3d, 0xa4, 0x16, 0x9f, 0x3d,
  0xc0, 0x5e, 0x17, 0xbd, 0xea, 0x21, 0x18, 0x3e, 0xd3, 0x6e, 0x1a, 0x3e,
  0x85, 0x70, 0xc3, 0x8e, 0xcc, 0x88, 0x5f, 0xbd, 0xa5, 0xa2, 0xcd, 0x3d,
  0xd6, 0x7b, 0xb4, 0xbd, 0xcd, 0xdf, 0xff, 0x3d, 0xa1, 0xe4, 0x61, 0xbd,
  0x5d, 0xea, 0x0c, 0x3e, 0x4b, 0x4c, 0x3e, 0x3d, 0xb1, 0x36, 0xe1, 0xbd,
  0xc7, 0x7b, 0x82, 0xbd, 0xdc, 0x5f, 0x9e, 0x3b, 0x68, 0x44, 0x25, 0xbd,
  0xe8, 0xdc, 0x12, 0x3e, 0xf0, 0x9b, 0xed, 0x3d, 0xd4, 0xd0, 0xad, 0xbd,
  0xdf, 0xc2, 0x9b, 0xbd, 0xb0, 0x2c, 0x44, 0xbe, 0x4b, 0x32, 0x29, 0xbe,
  0xef, 0xf9, 0x5e, 0x3e, 0xb1, 0x05, 0x02, 0x3e, 0x2f, 0xf1, 0x16, 0xbd,
  0xf5, 0x81, 0xab, 0xbd, 0x57, 0x44, 0x1a, 0x3e, 0x03, 0x49, 0x8e, 0x3d,
  0x8b, 0xe8, 0x8a, 0xbd, 0x3c, 0xea, 0xb8, 0x3d, 0x48, 0x69, 0x6d, 0x3c,
  0x92, 0xa8, 0x8e, 0xbc, 0x0e, 0x5e, 0xc5, 0xbc, 0x4f, 0x64, 0x96, 0xbd,
  0xe9, 0x23, 0x0f, 0xbd, 0x54, 0x5b, 0x0d, 0x3e, 0x8b, 0x1f, 0xc3, 0x8e,
  0xd0, 0x6e, 0xd2, 0xbd, 0x2e, 0x82, 0x13, 0xbe, 0xb9, 0x7b, 0x14, 0x3e,
  0x6e, 0x52, 0xce, 0x3d, 0x43, 0x1a, 0xeb, 0x3d, 0xbc, 0x06, 0x3c, 0xbe,
  0x55, 0xfc, 0xe1, 0x3c, 0x37, 0xa3, 0x3f, 0x3e, 0x5a, 0xc7, 0x2e, 0xbe,
  0xa1, 0x14, 0xad, 0xbd, 0xee, 0x5f, 0x8d, 0xbb, 0x42, 0xfd, 0x05, 0xbe,
  0xd5, 0x23, 0x1b, 0x3e, 0x74, 0x57, 0xa1, 0x3c, 0xe9, 0x1b, 0x63, 0x3e,
  0x16, 0x62, 0xa0, 0xbc, 0xa8, 0xef, 0x98, 0x3d, 0x0c, 0x3e, 0xd2, 0x3d,
  0x45, 0x57, 0xf6, 0x3d, 0x9e, 0x63, 0x0a, 0x3e, 0x07, 0x06, 0x36, 0xbd,
  0xf2, 0xa9, 0x29, 0x3e, 0xc8, 0x20, 0x2e, 0xbc, 0xf4, 0xfd, 0x9f, 0x3c,
  0x9a, 0x1c, 0x46, 0x3d, 0x50, 0xa8, 0x07, 0x3e, 0x1a, 0x0c, 0x81, 0x3d,
  0x34, 0x35, 0xbb, 0x3c, 0x07, 0xe1, 0x4a, 0x3e, 0x53, 0x05, 0xfd, 0x3d,
  0x60, 0x00, 0x4a, 0xbd, 0x67, 0x7e, 0xc5, 0x8e, 0x0a, 0x0c, 0x02, 0xbe,
  0x21, 0xc6, 0x38, 0x3e, 0xb0, 0xa6, 0x98, 0x3d, 0xd0, 0xbd, 0xfa, 0x3c,
  0x49, 0xec, 0xd0, 0xbd, 0xc0, 0xdc, 0xab, 0x3d, 0x8e, 0x7e, 0xbd, 0xbc,
  0x49, 0xc6, 0x2a, 0xbc, 0x97, 0x07, 0x3d, 0xbc, 0xd7, 0x5a, 0x80, 0x3d,
  0xf5, 0xd2, 0x0c, 0x3d, 0x22, 0x70, 0xb0, 0xbd, 0x08, 0x61, 0xa7, 0x3b,
  0x97, 0xf4, 0x18, 0x3d, 0xa9, 0x27, 0xd4, 0x3d, 0x52, 0x28, 0x72, 0x3e,
  0x87, 0xad, 0x0a, 0xbd, 0xba, 0x7c, 0xd4, 0xbd, 0x17, 0x40, 0xc3, 0x3a,
  0x2e, 0x4f, 0xf6, 0x3d, 0x1b, 0xf1, 0xc4, 0xbd, 0xeb, 0xf8, 0x8b, 0xbd,
  0xaa, 0xfd, 0x5c, 0x3e, 0x10, 0x7c, 0x05, 0x3b, 0x7d, 0xe5, 0x81, 0xbb,
  0x78, 0xca, 0x9b, 0xbd, 0x0c, 0xd2, 0xee, 0xbd, 0xbc, 0xe9, 0xaa, 0x3d,
  0x1f, 0x0e, 0x33, 0xbc, 0x2d, 0xd5, 0x17, 0x3e, 0x8a, 0x8a, 0xfa, 0x3d,
  0x60, 0x4a, 0xc5, 0x8e, 0xf8, 0x26, 0x2a, 0xbe, 0xbe, 0x54, 0x2c, 0x3e,
  0xbb, 0xdf, 0xe8, 0x3d, 0xa0, 0xc8, 0xa0, 0xbc, 0x21, 0xef, 0xce, 0x3d,
  0xbb, 0x31, 0x90, 0x3d, 0x06, 0x0b, 0x86, 0xbd, 0x58, 0xed, 0x2d, 0x3d,
  0x8a, 0x38, 0x77, 0x3e, 0x9f, 0x19, 0xc9, 0x3d, 0xfe, 0xda, 0x41, 0x3e,
  0x45, 0xbf, 0xbd, 0x3d, 0x1e, 0x67, 0x8d, 0x3c, 0x04, 0x4a, 0x3f, 0x3e,
  0xb5, 0xe9, 0xec, 0x3d, 0x72, 0x5c, 0x19, 0x3e, 0x96, 0xdb, 0x90, 0x3c,
  0xe6, 0xe6, 0x0b, 0x3e, 0xe3, 0x90, 0x24, 0xbd, 0x69, 0xe1, 0x26, 0xbd,
  0x11, 0x9d, 0x59, 0xbd, 0x56, 0xeb, 0x41, 0xbd, 0x50, 0x08, 0x73, 0xbd,
  0xa8, 0xfa, 0xd5, 0x3d, 0x67, 0x95, 0xfd, 0x3d, 0x5f, 0x5f, 0x81, 0x3d,
  0x21, 0x06, 0x4b, 0x3d, 0x76, 0xab, 0x67, 0x3e, 0xfe, 0xc7, 0x2f, 0x3e,
  0xee, 0x70, 0x2d, 0xbd, 0x1e, 0xaf, 0x23, 0x3e, 0xd2, 0x32, 0xc5, 0x8e,
  0x15, 0x36, 0xc6, 0x3d, 0x9f, 0x36, 0x26, 0x3e, 0xf5, 0xc8, 0xc6, 0xbd,
  0x0f, 0x35, 0x23, 0x3e, 0x66, 0x3e, 0x5a, 0x3e, 0x96, 0x01, 0xb5, 0x3d,
  0x31, 0x66, 0xa3, 0x3c, 0x45, 0xc4, 0xf6, 0xbd, 0x53, 0xef, 0x7c, 0x3d,
  0x24, 0xe4, 0xe0, 0xbd, 0x83, 0x7d, 0xd0, 0x3c, 0xcf, 0xff, 0x02, 0xbe,
  0x91, 0x32, 0x07, 0x3d, 0x36, 0xff, 0x92, 0x3c, 0x95, 0xc4, 0x9e, 0x3d,
  0xff, 0x2e, 0x8c, 0xbd, 0x31, 0x39, 0x97, 0xbd, 0xe2, 0x73, 0x29, 0x3e,
  0x76, 0x40, 0x79, 0x3c, 0x8a, 0x76, 0xdb, 0x3d, 0x2d, 0x90, 0x52, 0x3d,
  0x7b, 0xf1, 0x94, 0x3c, 0x19, 0x60, 0x06, 0x3e, 0x5b, 0xbc, 0x0b, 0x3e,
  0x26, 0xaa, 0xf2, 0x3d, 0x90, 0x73, 0x6d, 0x3d, 0xcd, 0x46, 0xc0, 0x3c,
  0x66, 0x15, 0xa4, 0xbc, 0x21, 0x7b, 0x88, 0x3d, 0x45, 0xa2, 0x16, 0x3e,
  0x99, 0x28, 0xff, 0xbd, 0x3c, 0xd4, 0xc3, 0x8e, 0x37, 0x74, 0xa4, 0xbd,
  0xb3, 0x7e, 0x94, 0x3d, 0x94, 0x3d, 0x01, 0x3e, 0xf1, 0x02, 0x82, 0x3b,
  0x30, 0xa8, 0x44, 0xbd, 0x40, 0x46, 0x90, 0x3a, 0x18, 0x64, 0xe8, 0xbc,
  0x21, 0x7f, 0x84, 0xbd, 0xf4, 0x89, 0x14, 0x3e, 0xce, 0x05, 0x7e, 0x3d,
  0xdc, 0x02, 0xfc, 0xbb, 0xe4, 0xed, 0xb3, 0xbd, 0x67, 0xf3, 0x0f, 0x3e,
  0xdc, 0xf9, 0xea, 0x3d, 0x42, 0x2f, 0x7c, 0xbd, 0x13, 0x4c, 0xc8, 0xbc,
  0xe9, 0x45, 0x67, 0xbd, 0xf9, 0xb9, 0x18, 0xbe, 0xcc, 0x45, 0x3f, 0x3d,
  0xff, 0x99, 0x22, 0xbe, 0x33, 0xbf, 0x55, 0xbd, 0x29, 0xee, 0x07, 0x3e,
  0xdf, 0x2e, 0xba, 0x3d, 0x40, 0xbd, 0x8c, 0xbd, 0x7d, 0xf2, 0x8e, 0x3d,
  0xb4, 0xf4, 0x89, 0xbc, 0x7a, 0x4e, 0x1e, 0xbd, 0x2e, 0x3e, 0x0d, 0xbe,
  0xe6, 0x7a, 0xa5, 0x3d, 0x56, 0x95, 0x38, 0xbe, 0xe8, 0x04, 0x23, 0xbc,
  0x48, 0x5f, 0xc4, 0x8e, 0xd7, 0x4c, 0xb5, 0xbc, 0x03, 0xf8, 0x17, 0xbd,
  0xc9, 0xad, 0x9d, 0x3d, 0xd9, 0xdd, 0xe5, 0xbc, 0x74, 0xa1, 0x20, 0x3d,
  0x59, 0xe6, 0x19, 0x3d, 0x44, 0x4a, 0xc5, 0x3d, 0x4d, 0xf5, 0xe3, 0x3d,
  0x3f, 0x41, 0x57, 0xbd, 0xaf, 0x71, 0xbd, 0x3d, 0xdb, 0x86, 0x27, 0x3b,
  0x11, 0x6f, 0x03, 0xbe, 0xa1, 0x08, 0xf1, 0xbd, 0x91, 0xc1, 0xd1, 0xbd,
  0x1f, 0x1d, 0x53, 0xbc, 0xd2, 0x41, 0x34, 0x3e, 0xe7, 0x36, 0x53, 0x3e,
  0xf1, 0x58, 0xc3, 0x3d, 0x93, 0x03, 0x38, 0xbd, 0x97, 0x1d, 0x94, 0xbd,
  0xe1, 0x1d, 0x00, 0x3e, 0x24, 0xf4, 0x4f, 0x3d, 0xf8, 0x7c, 0xf9, 0x3d,
  0xc5, 0x9c, 0x0a, 0xbe, 0x3b, 0x98, 0x63, 0xbd, 0x88, 0xb3, 0x18, 0x3e,
  0xe6, 0xc7, 0x80, 0x3d, 0xae, 0xd4, 0x37, 0xbe, 0x6f, 0xbb, 0xed, 0xbc,
  0xdc, 0xf9, 0x3a, 0xbd, 0xff, 0x62, 0x96, 0xbc, 0x42, 0xb6, 0xc4, 0x0e,
  0xd6, 0x25, 0xe7, 0xbd, 0x3d, 0x86, 0x0a, 0xbe, 0x55, 0xae, 0x87, 0x3d,
  0x4f, 0xd2, 0xd0, 0xbd, 0x9b, 0xfd, 0xd8, 0x3c, 0x7f, 0x75, 0x47, 0x3c,
  0xb5, 0x6f, 0xd1, 0x3d, 0x1f, 0x96, 0x63, 0x3d, 0xa0, 0x1f, 0x6b, 0x3e,
  0x7e, 0x40, 0xac, 0x3d, 0x65, 0x3e, 0x06, 0xbd, 0xe7, 0x4e, 0x94, 0xbd,
  0x22, 0x3f, 0x98, 0x3d, 0xf4, 0xb9, 0xa5, 0xbd, 0xe5, 0x8d, 0x4e, 0x3e,
  0x97, 0x05, 0x3c, 0x3e, 0x78, 0xc0, 0xfc, 0xbc, 0x96, 0xd8, 0x1b, 0x3c,
  0xc8, 0x65, 0xef, 0x3d, 0xe0, 0xbe, 0xb9, 0x3d, 0x6e, 0xaf, 0x20, 0xbd,
  0xc1, 0xf4, 0x41, 0x3d, 0x91, 0xf4, 0x70, 0x3d, 0x57, 0x38, 0x21, 0xbd,
  0x39, 0xeb, 0xcf, 0x3b, 0x65, 0xba, 0xd6, 0xbd, 0x93, 0x7d, 0xc3, 0x3d,
  0xc7, 0x93, 0x92, 0xbd, 0x2a, 0xf3, 0x48, 0x3e, 0x46, 0x24, 0xc5, 0xbc,
  0x3b, 0x6b, 0x69, 0x3c, 0x26, 0x40, 0xc5, 0x8e, 0xfe, 0x61, 0x62, 0x3d,
  0x76, 0x01, 0x7b, 0xbd, 0xab, 0xc5, 0xf6, 0xbc, 0xed, 0x10, 0x81, 0xbd,
  0x59, 0xe4, 0x9c, 0xbd, 0x13, 0x51, 0x76, 0x3e, 0x25, 0xaf, 0x64, 0x3c,
  0xdd, 0x1c, 0x44, 0x3e, 0xff, 0xd1, 0xcc, 0x3d, 0x48, 0xb3, 0x6a, 0xbd,
  0x6e, 0x80, 0x82, 0xbd, 0x62, 0x10, 0x98, 0x3d, 0x9d, 0x6b, 0x22, 0xbe,
  0x24, 0xaf, 0xf0, 0x3d, 0x86, 0xdc, 0xe8, 0xbd, 0xb0, 0x10, 0x27, 0x3e,
  0xd2, 0xc2, 0xa4, 0x3d, 0xf6, 0x12, 0x46, 0xbe, 0x18, 0x31, 0x71, 0x3d,
  0xcd, 0x1f, 0x2e, 0x39, 0xf5, 0x82, 0x0a, 0x3c, 0x3d, 0x1d, 0xc0, 0xbd,
  0x89, 0x8c, 0x30, 0x3e, 0xae, 0x26, 0x10, 0x3d, 0xbb, 0x90, 0xb3, 0x3d,
  0xcc, 0x1e, 0x6d, 0xbc, 0x6c, 0xbc, 0x12, 0xbd, 0x04, 0xad, 0xa4, 0xbb,
  0xbe, 0x51, 0x05, 0x3e, 0x10, 0x77, 0x12, 0xbe, 0x2a, 0x22, 0x8a, 0xbd,
  0x0f, 0xd6, 0xc5, 0x0e, 0x4f, 0xde, 0x19, 0xbe, 0xfa, 0xa8, 0x9e, 0x3d,
  0x2a, 0x71, 0x16, 0xbe, 0x29, 0x2c, 0x6c, 0x3d, 0x95, 0xcf, 0x97, 0xbd,
  0xa0, 0xcb, 0x40, 0x3e, 0xbf, 0x98, 0x1c, 0xbe, 0x0f, 0x8f, 0x30, 0x3e,
  0x2c, 0x1f, 0xb1, 0x3b, 0xd0, 0x9c, 0x38, 0x3e, 0x8c, 0x06, 0x0c, 0x3e,
  0x9f, 0x09, 0x5a, 0xbc, 0x0e, 0xb0, 0xd2, 0x3d, 0x33, 0xed, 0xcb, 0x3d,
  0x4a, 0xbb, 0xec, 0xbd, 0x5e, 0xce, 0x9f, 0x3d, 0x76, 0xbb, 0x54, 0xbd,
  0x89, 0xac, 0x42, 0x3d, 0x72, 0x0e, 0x28, 0xbd, 0x01, 0xd6, 0x2e, 0xb9,
  0x69, 0xd2, 0x3e, 0x3e, 0x70, 0x35, 0x99, 0xbd, 0xcd, 0x1d, 0xf6, 0x3d,
  0x87, 0x3b, 0x1a, 0xbd, 0x59, 0x4c, 0x1a, 0x3e, 0x0d, 0xfb, 0x11, 0xbe,
  0x9c, 0xfa, 0x22, 0xbe, 0x7e, 0xd5, 0x34, 0x3d, 0x53, 0xae, 0x98, 0xbd,
  0x2b, 0x24, 0xed, 0xbc, 0x75, 0x7c, 0x3f, 0x3e, 0xcf, 0xc6, 0xbe, 0x0e,
  0xed, 0x63, 0xf4, 0x3d, 0xfc, 0xb9, 0xf0, 0x3d, 0xd1, 0x53, 0x2d, 0x3b,
  0x52, 0xdd, 0xeb, 0xbd, 0xf1, 0xc5, 0xfa, 0xbd, 0x7b, 0xc7, 0x27, 0x3e,
  0xda, 0x0f, 0xc4, 0xbb, 0xa2, 0x4f, 0xfd, 0xbc, 0xb4, 0xe4, 0x2a, 0xbd,
  0xd0, 0xaa, 0x91, 0x3d, 0x73, 0xa9, 0xe4, 0x3d, 0x4d, 0xee, 0xae, 0x3d,
  0x8f, 0x07, 0xe5, 0x3d, 0x41, 0x4d, 0x99, 0x3d, 0x46, 0x4b, 0xfa, 0x3d,
  0x88, 0xaf, 0x07, 0xbe, 0xce, 0x30, 0x11, 0x3e, 0x73, 0x5f, 0xc5, 0x3c,
  0x15, 0xf3, 0xcc, 0xbd, 0xf9, 0x18, 0x08, 0x3d, 0xc7, 0x27, 0x28, 0x3e,
  0xa1, 0x0d, 0x72, 0x3d, 0xbd, 0x7f, 0x3e, 0x3d, 0x1d, 0x2d, 0xef, 0x3d,
  0x4d, 0xb2, 0x05, 0x3e, 0x2a, 0xf9, 0x32, 0xbd, 0xfe, 0x07, 0x6c, 0xbd,
  0x99, 0x9a, 0x60, 0xbd, 0x0d, 0x62, 0xcf, 0x3d, 0x4f, 0x2e, 0x01, 0x3e,
  0xde, 0x40, 0x37, 0xbd, 0xcb, 0x36, 0xc6, 0x0e, 0x6f, 0xb3, 0xcd, 0x3d,
  0x0a, 0xc1, 0x85, 0x3d, 0x1f, 0x76, 0x26, 0x3e, 0x62, 0xf7, 0xb1, 0xbd,
  0xdb, 0x2f, 0xfc, 0xbd, 0x60, 0x51, 0x1c, 0x3c, 0x94, 0x93, 0x42, 0xbe,
  0x75, 0xc4, 0x66, 0x3d, 0x87, 0x8e, 0x84, 0xbd, 0x99, 0x4a, 0x44, 0x3b,
  0xe6, 0xe8, 0xa2, 0xbd, 0xb3, 0xb1, 0x9c, 0xbd, 0x04, 0x9e, 0x85, 0xbc,
  0x53, 0x97, 0x37, 0xbe, 0x85, 0x48, 0x2e, 0xbd, 0xf3, 0x56, 0x1d, 0x3d,
  0x3d, 0xcf, 0x1f, 0xbc, 0xc9, 0xbb, 0x0c, 0xbe, 0xbe, 0xa8, 0xd9, 0xbd,
  0x88, 0x95, 0xe9, 0xbd, 0x94, 0xf1, 0xa8, 0xbd, 0x1e, 0xc8, 0x9d, 0xbc,
  0xaa, 0xa2, 0xf3, 0x3c, 0x6c, 0xdf, 0x13, 0xbc, 0x73, 0x41, 0x44, 0x3d,
  0xd3, 0x58, 0x83, 0x3b, 0x76, 0x7b, 0x8f, 0xbb, 0xc4, 0xe0, 0x41, 0xbd,
  0x42, 0x13, 0x9e, 0xbd, 0xe1, 0xf7, 0xd5, 0x3c, 0xc3, 0x90, 0xe8, 0xbd,
  0x6e, 0x4e, 0xc5, 0x0e, 0x91, 0xcf, 0xce, 0xbc, 0x5a, 0x6e, 0x78, 0x3c,
  0x08, 0xec, 0x0c, 0x3d, 0x12, 0x4e, 0xd9, 0xbc, 0xe6, 0xb2, 0xe5, 0x3c,
  0xa8, 0xa0, 0x91, 0x3d, 0xc7, 0x10, 0x9a, 0xbd, 0x77, 0xbb, 0x63, 0xbd,
  0x27, 0x08, 0xab, 0x3d, 0x3a, 0x9e, 0xd0, 0x3d, 0x9d, 0x5a, 0x4b, 0x3b,
  0xf4, 0x9c, 0x59, 0x3d, 0x83, 0x80, 0x33, 0xbd, 0x16, 0xfd, 0x17, 0x3c,
  0xe4, 0x05, 0xbf, 0x3d, 0xab, 0x8f, 0x40, 0xbd, 0x71, 0x0e, 0x96, 0x3c,
  0x9a, 0x83, 0xac, 0xbd, 0x23, 0xa5, 0xd9, 0xbd, 0x35, 0x2e, 0xe5, 0xba,
  0x12, 0x6f, 0x83, 0xbd, 0x51, 0xba, 0xaa, 0xbd, 0xe5, 0xc0, 0x53, 0xbd,
  0x2b, 0x91, 0x55, 0xb9, 0x08, 0x64, 0xae, 0x3d, 0x94, 0xb7, 0x63, 0x3d,
  0xfe, 0x3b, 0x4c, 0x3d, 0x58, 0x9b, 0xbd, 0xbd, 0x51, 0xd0, 0x22, 0x3d,
  0x4c, 0xf6, 0xa0, 0x3d, 0xcc, 0x75, 0x80, 0xbd, 0x6f, 0x18, 0xc4, 0x0e,
  0x83, 0x2a, 0x97, 0x3d, 0x5f, 0xc7, 0x31, 0x3b, 0xb2, 0xdc, 0x49, 0x3d,
  0xd9, 0x14, 0x3d, 0xbd, 0x95, 0xf5, 0x22, 0x3d, 0xb0, 0xfa, 0x5e, 0x3d,
  0x05, 0x18, 0x51, 0x3d, 0x6a, 0xfa, 0x27, 0xbe, 0x0a, 0x28, 0xb7, 0xbd,
  0x23, 0x43, 0x13, 0xbd, 0xe6, 0x18, 0x82, 0x3d, 0x9e, 0x08, 0x67, 0x3d,
  0xb5, 0x6f, 0x71, 0x3d, 0xbe, 0x54, 0x71, 0x3d, 0xc2, 0x1c, 0x44, 0xbd,
  0x50, 0xfd, 0x1a, 0xbe, 0x93, 0x8b, 0x9d, 0xbd, 0x9c, 0x8d, 0x33, 0x3e,
  0x8c, 0xcf, 0xfa, 0xbd, 0xc3, 0xb8, 0xe3, 0xbd, 0x57, 0xf3, 0xca, 0xbd,
  0x04, 0x52, 0x90, 0x3d, 0xff, 0x38, 0x3f, 0xbb, 0x79, 0x15, 0x8a, 0xbd,
  0x7e, 0xdf, 0x3a, 0xbe, 0xa8, 0xb2, 0x45, 0x3b, 0x48, 0x36, 0x8a, 0x3d,
  0xfc, 0xd8, 0x0c, 0x3d, 0xf2, 0x76, 0xb7, 0x3a, 0x90, 0x29, 0x27, 0x3a,
  0x28, 0xac, 0x2c, 0x3e, 0xbf, 0x6a, 0xc4, 0x8e, 0x0f, 0x23, 0x9f, 0x3c,
  0x74, 0xd9, 0xb8, 0x3c, 0x93, 0xed, 0x26, 0x3d, 0xef, 0xd9, 0xa1, 0x3c,
  0x09, 0x59, 0x8a, 0x3d, 0x76, 0x90, 0x8b, 0xbc, 0xff, 0x01, 0xe4, 0xbc,
  0x1d, 0xd3, 0xc5, 0x0e, 0xe2, 0xd0, 0x89, 0x3d, 0x44, 0x3c, 0x8f, 0xbc,
  0xb5, 0x77, 0x28, 0x3d, 0x2a, 0x74, 0x11, 0xbd, 0x19, 0xcc, 0xc9, 0xbd,
  0x42, 0x3e, 0x94, 0xbc, 0x8b, 0x2a, 0xc8, 0x3d, 0xeb, 0xf8, 0xc3, 0x0e,
  0xbc, 0x27, 0x4e, 0xbd, 0xed, 0xd5, 0xd1, 0xbc, 0x79, 0x94, 0xbe, 0x3c,
  0xc2, 0xf3, 0xa8, 0x3c, 0x43, 0xbc, 0x5e, 0xbe, 0xd3, 0x8e, 0x08, 0x3e,
  0x3f, 0x8b, 0x40, 0xbd, 0x2c, 0xef, 0x98, 0x3c, 0xf7, 0xee, 0xc4, 0x0e,
  0x42, 0x04, 0x88, 0x3c, 0xfd, 0x3c, 0xf5, 0x3d, 0xfe, 0x8c, 0xd2, 0xbd,
  0xc1, 0x2b, 0xda, 0xb9, 0x76, 0x31, 0x9e, 0x3d, 0x3d, 0xbd, 0x8f, 0xbd,
  0xe3, 0x2f, 0xc4, 0x0e, 0xa0, 0x0e, 0xcb, 0xbc, 0x81, 0xee, 0x90, 0x3a,
  0x3c, 0xf4, 0xa9, 0x3d, 0x8b, 0x30, 0xef, 0x3d, 0x92, 0x64, 0x8e, 0x3d,
  0x14, 0xc6, 0xe6, 0xbc, 0xdd, 0xbe, 0x36, 0xbb, 0x69, 0xb1, 0x72, 0x3d,
  0xfc, 0x8a, 0xe0, 0xbc, 0x4a, 0x3f, 0xc0, 0xbd, 0xc8, 0xb6, 0x87, 0x3c,
  0x70, 0x99, 0xb7, 0xbb, 0xc0, 0x06, 0xf7, 0x3c, 0x79, 0x5b, 0xb5, 0xbd,
  0x14, 0xe8, 0x77, 0xbd, 0x5f, 0x68, 0xbf, 0x3c, 0xb9, 0x9a, 0x82, 0xbd,
  0xc2, 0x87, 0x24, 0xbd, 0xf2, 0xb0, 0x19, 0xbe, 0x3f, 0xd6, 0xc7, 0x3d,
  0xea, 0xec, 0xc6, 0x3b, 0xf6, 0xcf, 0x64, 0xbc, 0xd2, 0x35, 0xb3, 0x3d,
  0x2d, 0x85, 0x25, 0x3e, 0xb0, 0x9c, 0x0a, 0x3e, 0x0c, 0xca, 0xa6, 0x39,
  0x69, 0xff, 0xce, 0xbc, 0xe4, 0x63, 0xbc, 0x3d, 0x16, 0xcd, 0xd3, 0xbd,
  0x88, 0x2d, 0xb5, 0xbc, 0xe7, 0x40, 0x61, 0xbd, 0x48, 0x98, 0xc5, 0x8e,
  0x25, 0x93, 0xf4, 0x3c, 0xe7, 0x5e, 0x8c, 0xbd, 0x97, 0x8d, 0xab, 0xbc,
  0xe0, 0x7a, 0x2e, 0xbb, 0x77, 0x1c, 0x61, 0xbc, 0x7a, 0x5b, 0x6f, 0xbc,
  0xe5, 0xe4, 0xc0, 0x3b, 0xe5, 0x34, 0x3b, 0xbd, 0x2d, 0x74, 0x19, 0xbd,
  0xd7, 0x98, 0x96, 0x3c, 0xe5, 0x8f, 0xc1, 0x3c, 0x0f, 0x3a, 0xd1, 0x3a,
  0xd4, 0xa8, 0x8e, 0x3c, 0x8d, 0xcd, 0x94, 0x3c, 0xbe, 0x9f, 0x3a, 0x3d,
  0xf2, 0x07, 0x06, 0x3e, 0x82, 0x11, 0x80, 0xbc, 0x03, 0x9b, 0xf0, 0x3b,
  0xeb, 0xdd, 0x89, 0xbc, 0x15, 0xbc, 0xe0, 0x3d, 0x9f, 0xdf, 0x60, 0x3d,
  0x88, 0x96, 0x4c, 0x3b, 0x39, 0x7c, 0x02, 0xbd, 0xc7, 0x2a, 0x0e, 0x3d,
  0x2b, 0x9e, 0x10, 0xbd, 0x15, 0x04, 0xfa, 0x38, 0xa2, 0x39, 0xad, 0x3b,
  0x17, 0x76, 0x9d, 0x3d, 0x2e, 0x06, 0x78, 0x3d, 0x0f, 0xb1, 0x37, 0x3b,
  0xd1, 0xde, 0x04, 0xbd, 0xb9, 0x50, 0xc6, 0x0e, 0xc9, 0x3b, 0x59, 0xbd,
  0xb1, 0xfc, 0x09, 0x3c, 0xf7, 0x3b, 0x93, 0x3b, 0x09, 0xf2, 0x83, 0x3b,
  0x9a, 0x57, 0x83, 0xbc, 0xf4, 0x9e, 0x14, 0x3e, 0x6e, 0xd7, 0x03, 0x3e,
  0x7e, 0x17, 0x32, 0x3e, 0x09, 0x04, 0xf6, 0xbd, 0x4d, 0x0a, 0xec, 0xbd,
  0xc2, 0xdc, 0x3b, 0x3c, 0x0f, 0x89, 0x3e, 0x3e, 0x28, 0xe8, 0x4d, 0x3d,
  0x03, 0x3f, 0x74, 0xbd, 0x2a, 0x77, 0xfe, 0xbc, 0x02, 0xae, 0xe5, 0x3d,
  0x58, 0x77, 0x2d, 0xbc, 0x52, 0xc3, 0x7b, 0xbd, 0x4f, 0x53, 0x60, 0xba,
  0x09, 0x3f, 0xa2, 0x3c, 0xac, 0x7b, 0x14, 0x3e, 0x9e, 0x4e, 0xac, 0xbd,
  0xb5, 0x2a, 0xda, 0x3d, 0x99, 0x44, 0x1a, 0x3e, 0xe4, 0x1d, 0x5a, 0xbc,
  0x78, 0x01, 0x39, 0x3e, 0xa7, 0xab, 0x8c, 0x3c, 0x61, 0x89, 0xc4, 0x3d,
  0x29, 0xa7, 0x12, 0x3e, 0xa3, 0x53, 0x0a, 0x3d, 0xc3, 0xe5, 0x25, 0x3e,
  0x9e, 0x4d, 0xc6, 0x0e, 0x8e, 0x46, 0xce, 0x3d, 0xf1, 0xb8, 0x15, 0x3e,
  0x55, 0x54, 0x16, 0x3d, 0x86, 0xf9, 0x62, 0x3e, 0x6e, 0xf7, 0x62, 0x3c,
  0xd3, 0x83, 0x85, 0x3d, 0xbf, 0x0f, 0x1e, 0x3d, 0xf7, 0x0b, 0x2d, 0xbe,
  0x03, 0x87, 0x10, 0x3e, 0x91, 0x39, 0x98, 0x3d, 0x78, 0x90, 0x93, 0x3d,
  0x6f, 0x24, 0x26, 0xbd, 0x98, 0x3c, 0x27, 0x3e, 0x5e, 0xec, 0x2d, 0x3e,
  0x57, 0x51, 0x94, 0xbd, 0x97, 0x9b, 0x04, 0xbe, 0x9a, 0x8e, 0xbb, 0xbd,
  0x71, 0x21, 0x5f, 0x3e, 0xd3, 0x6d, 0x8b, 0xbc, 0x2e, 0x9a, 0x6a, 0x3d,
  0x1b, 0x4d, 0x53, 0xbd, 0x7f, 0x6a, 0x4b, 0x3e, 0xf3, 0x39, 0x90, 0xbd,
  0xf6, 0x35, 0x10, 0xbe, 0x82, 0xe8, 0x0f, 0x3d, 0x0e, 0x46, 0x8e, 0xbd,
  0xe7, 0xe2, 0x62, 0x3d, 0xcb, 0x60, 0x01, 0x3d, 0x14, 0x5a, 0xf6, 0xbd,
  0x57, 0x00, 0xa4, 0x3b, 0x9c, 0xad, 0x99, 0x3d, 0x07, 0xc8, 0xc5, 0x8e,
  0x43, 0x75, 0x53, 0xbd, 0xe2, 0xc5, 0xe7, 0x3c, 0x29, 0x1b, 0x80, 0x3d,
  0xb0, 0xa9, 0x48, 0x3e, 0x3b, 0x5e, 0x17, 0x3e, 0x79, 0x1d, 0xae, 0xbd,
  0x7f, 0x94, 0xa3, 0x3d, 0xc0, 0x0f, 0x46, 0xbd, 0xc1, 0x9d, 0xc9, 0xbd,
  0xd9, 0x53, 0x58, 0x39, 0x71, 0xb6, 0x0d, 0x3e, 0xa4, 0x23, 0xf1, 0xbc,
  0x3e, 0xe8, 0x2c, 0x3e, 0xac, 0x05, 0x40, 0x3e, 0xd1, 0x07, 0x53, 0x3d,
  0x38, 0x72, 0x91, 0xbd, 0x22, 0x72, 0x9b, 0xbd, 0xd1, 0xd5, 0x6b, 0xbc,
  0x52, 0x2c, 0x3f, 0x3e, 0x9f, 0x4f, 0x04, 0x3d, 0x53, 0xdc, 0x00, 0xbe,
  0x9f, 0x9e, 0x93, 0x3d, 0x3c, 0x3e, 0x3a, 0x3d, 0x3d, 0xe6, 0xf7, 0xbc,
  0x31, 0x58, 0x4c, 0x39, 0x41, 0x98, 0x51, 0x3e, 0x51, 0xa6, 0x2e, 0x3e,
  0xff, 0x7c, 0x06, 0xbe, 0x85, 0x33, 0x1c, 0xbe, 0x30, 0x00, 0xe1, 0xbc,
  0xf0, 0xc7, 0x3e, 0x3e, 0xab, 0xdd, 0xbf, 0x8e, 0x84, 0x9b, 0x27, 0x3e,
  0xe0, 0x01, 0x38, 0xbe, 0x3d, 0x3a, 0x2c, 0x3d, 0x2d, 0xd4, 0x37, 0x3e,
  0xb5, 0x8c, 0x8c, 0xbd, 0x6e, 0xf2, 0x26, 0xbe, 0x4c, 0x17, 0xba, 0xbd,
  0xbb, 0xbd, 0xc3, 0x3d, 0x0e, 0xdf, 0x8b, 0xbc, 0x53, 0x5d, 0xe1, 0xbb,
  0xc1, 0x1d, 0x16, 0x3e, 0xc2, 0xac, 0xa9, 0x3d, 0xc6, 0xc2, 0xb5, 0xbd,
  0x3f, 0x19, 0xd6, 0xbd, 0xf8, 0xb6, 0xdc, 0x3d, 0xc5, 0x79, 0xb1, 0x3c,
  0xcc, 0xe6, 0x10, 0xbe, 0x5a, 0xc3, 0x50, 0xbd, 0x8a, 0x1e, 0x8b, 0xbd,
  0xa5, 0x1a, 0xde, 0xbd, 0x52, 0xfe, 0x7e, 0xbd, 0xa8, 0xca, 0x00, 0x3e,
  0x0d, 0x8b, 0xd1, 0x3d, 0x6e, 0xa6, 0xb9, 0x3d, 0x91, 0x80, 0xab, 0xbd,
  0xb7, 0xf9, 0xcd, 0xbd, 0x20, 0x7f, 0x3b, 0x3e, 0xa7, 0x63, 0x51, 0xbc,
  0x56, 0x8e, 0xe3, 0xbc, 0x1d, 0x58, 0x16, 0xbd, 0xbb, 0x64, 0x4d, 0xbd,
  0xbf, 0x37, 0xc5, 0x8e, 0x59, 0x32, 0x1a, 0x3e, 0x75, 0x4e, 0x1b, 0x3e,
  0xd9, 0x5c, 0xec, 0xbb, 0x30, 0x65, 0x93, 0xbd, 0x6c, 0x32, 0xaa, 0xbb,
  0xbb, 0xb9, 0x8c, 0x3d, 0x0c, 0xbe, 0x89, 0x3d, 0xe5, 0xd2, 0x5c, 0xbd,
  0x98, 0x65, 0xad, 0x3d, 0x84, 0xf8, 0x3c, 0xbd, 0x78, 0x94, 0x0e, 0xbe,
  0x0d, 0x1c, 0x56, 0x3e, 0x20, 0x4b, 0xa5, 0xbd, 0x05, 0x54, 0xbe, 0x3c,
  0xba, 0x4b, 0x65, 0xbd, 0x5a, 0x13, 0x6b, 0xbc, 0x68, 0xe3, 0x72, 0x3d,
  0xb2, 0xab, 0x01, 0x3e, 0x97, 0x7a, 0x09, 0xbb, 0x71, 0xee, 0x27, 0x3d,
  0x12, 0x14, 0xc5, 0xbd, 0x28, 0xce, 0x5e, 0x3d, 0xe8, 0x22, 0x33, 0xbe,
  0xa8, 0x13, 0x21, 0xbe, 0xda, 0x93, 0x84, 0xbd, 0x75, 0x65, 0xdf, 0x3d,
  0xb3, 0x12, 0x15, 0xbd, 0x1e, 0x00, 0x10, 0xbd, 0x40, 0x91, 0xa8, 0xbd,
  0x68, 0xf4, 0x90, 0x3c, 0xbf, 0xc7, 0x24, 0x3d, 0xf9, 0x51, 0xc3, 0x8e,
  0x20, 0xf7, 0xb4, 0xbd, 0x2f, 0x54, 0x82, 0xbd, 0xfc, 0x57, 0x82, 0xbc,
  0xb9, 0xfc, 0x20, 0x3e, 0xda, 0x7c, 0x1b, 0x3d, 0xc9, 0x7e, 0x31, 0xbe,
  0x1a, 0xfc, 0xca, 0x3d, 0x5e, 0xad, 0xa9, 0xbd, 0xe2, 0x49, 0x9b, 0x3a,
  0xce, 0x9a, 0x06, 0x3d, 0x66, 0x57, 0xbf, 0x3d, 0x30, 0xb2, 0x8d, 0xbd,
  0x67, 0xea, 0x23, 0x3d, 0xe9, 0xf0, 0x18, 0x3e, 0x14, 0x7c, 0x00, 0x3e,
  0xe7, 0x85, 0xca, 0xbb, 0x06, 0x12, 0xd7, 0xbd, 0x87, 0xc6, 0x00, 0xbd,
  0xd2, 0x01, 0xcf, 0x3d, 0x99, 0x73, 0x04, 0x3d, 0x54, 0xf1, 0xde, 0xbc,
  0xd9, 0x97, 0x27, 0xbd, 0xf3, 0x9e, 0xb6, 0xbd, 0x37, 0xd6, 0xb9, 0xbd,
  0x24, 0x8e, 0xca, 0xbd, 0x46, 0x1d, 0x2e, 0x3d, 0x1b, 0xfd, 0x02, 0x3e,
  0x40, 0x16, 0x63, 0xbd, 0xfd, 0xcb, 0xcb, 0xbd, 0x4e, 0x6f, 0x0d, 0x3e,
  0x86, 0x06, 0xcd, 0xbd, 0x29, 0x8d, 0xc6, 0x0e, 0xa0, 0x8f, 0x9e, 0x3d,
  0x7f, 0x9d, 0x40, 0x3c, 0xbe, 0x92, 0x38, 0x3d, 0xe8, 0xb4, 0x11, 0x3e,
  0xf0, 0x07, 0xb4, 0xbd, 0x26, 0xc3, 0xa5, 0xbc, 0xbe, 0xac, 0x78, 0x3e,
  0xfc, 0xf2, 0x91, 0xbb, 0x41, 0xba, 0x80, 0xbc, 0x05, 0x04, 0x42, 0x3d,
  0x26, 0x30, 0x82, 0x3d, 0xbe, 0x39, 0xaf, 0x3d, 0x85, 0x15, 0x8d, 0x3c,
  0x6a, 0x8c, 0x57, 0x3e, 0xe1, 0xc0, 0x38, 0x3d, 0x59, 0xfc, 0x25, 0xbe,
  0x24, 0x7f, 0x6a, 0xbd, 0x0c, 0x52, 0x2b, 0x3e, 0x18, 0x7d, 0x1e, 0x3e,
  0x7f, 0x27, 0x01, 0x3e, 0xf4, 0x01, 0x16, 0x3d, 0x0e, 0x1b, 0x09, 0x3e,
  0x9e, 0xb8, 0x06, 0xbe, 0x4b, 0xf1, 0x2c, 0x3e, 0xbd, 0x6c, 0x05, 0xbe,
  0x4e, 0x25, 0xfe, 0xbc, 0xc9, 0xed, 0x07, 0x3e, 0x33, 0x88, 0xe0, 0x3d,
  0xe7, 0x4e, 0xf1, 0xbd, 0x27, 0xeb, 0xeb, 0x3d, 0x66, 0x01, 0x1a, 0xbe,
  0x4e, 0x12, 0xc6, 0x8e, 0x1a, 0xeb, 0x8d, 0x3c, 0x3e, 0xb9, 0xb4, 0x3d,
  0x17, 0x3e, 0x5e, 0x3e, 0xf3, 0xc5, 0x69, 0x3e, 0x72, 0x53, 0xd6, 0x3d,
  0x60, 0xf2, 0xa6, 0x3d, 0xef, 0x5c, 0xf0, 0x3d, 0x8a, 0x84, 0xd7, 0xbd,
  0x23, 0xcf, 0xad, 0xbd, 0x66, 0xb0, 0x70, 0xbd, 0x08, 0xc8, 0x28, 0x3e,
  0xdf, 0xac, 0xaf, 0x3d, 0xc7, 0x18, 0xb5, 0xbc, 0xf6, 0xef, 0xfa, 0x3d,
  0x49, 0x7f, 0x2e, 0x3d, 0x72, 0x3e, 0xed, 0x3c, 0x47, 0xba, 0x9b, 0x3d,
  0x3d, 0xea, 0x58, 0x3d, 0x3e, 0x07, 0x41, 0x3e, 0xb0, 0xf6, 0x2f, 0x3d,
  0xac, 0x24, 0xc3, 0x3d, 0x8c, 0xf5, 0x13, 0x3d, 0x26, 0xa4, 0x9b, 0xbd,
  0x2a, 0x87, 0x8a, 0xbd, 0xc8, 0x2a, 0xb6, 0xbd, 0x3c, 0x12, 0xb1, 0x3d,
  0x5d, 0xc5, 0x0a, 0x3c, 0x45, 0xc2, 0xe6, 0x3d, 0xdd, 0x7f, 0xdf, 0xbd,
  0x33, 0x7d, 0xfd, 0x3c, 0x4e, 0x2f, 0xd6, 0xba, 0x74, 0xe7, 0xc4, 0x0e,
  0x10, 0xfb, 0x02, 0x3e, 0xe9, 0x8a, 0x19, 0x3e, 0x9a, 0xf0, 0xe2, 0x3d,
  0xfa, 0x35, 0x3a, 0x3d, 0x95, 0xb3, 0x81, 0x3d, 0x65, 0x90, 0x48, 0x3d,
  0x23, 0x38, 0x1e, 0x3e, 0xc3, 0x2b, 0xc6, 0x3d, 0x78, 0x47, 0x35, 0xbe,
  0x5e, 0xca, 0x55, 0xbd, 0x8b, 0x60, 0x42, 0x3c, 0xef, 0x27, 0x9e, 0x3d,
  0x89, 0x52, 0x4d, 0x3e, 0xeb, 0x0a, 0x5a, 0x3d, 0x86, 0x99, 0x24, 0x3e,
  0xa6, 0x4b, 0xac, 0x3c, 0x6c, 0xb1, 0x1a, 0xbd, 0xde, 0xe4, 0xca, 0x3c,
  0x68, 0x31, 0xc7, 0x3d, 0x70, 0x9e, 0x8e, 0x3b, 0x19, 0x86, 0x03, 0xbe,
  0x0a, 0x32, 0x43, 0x3e, 0xd2, 0x90, 0x05, 0xbc, 0x05, 0x49, 0x5d, 0xbc,
  0x26, 0xef, 0x51, 0xbd, 0x3c, 0x8c, 0x26, 0xbd, 0x2e, 0x13, 0x51, 0x3d,
  0x7e, 0xf4, 0x46, 0x3d, 0x7c, 0x02, 0x30, 0x3d, 0x7a, 0x85, 0x22, 0xbc,
  0x65, 0x1d, 0x07, 0xbe, 0x5a, 0xd6, 0xc5, 0x0e, 0xb6, 0xa8, 0x88, 0x3e,
  0x8e, 0x61, 0xb7, 0x3b, 0x98, 0x42, 0x86, 0xbd, 0xb4, 0xd4, 0xef, 0x3d,
  0x54, 0x3b, 0xbe, 0x3d, 0xfc, 0x8a, 0xc3, 0x3d, 0x03, 0x7e, 0x82, 0x3d,
  0xf4, 0x15, 0xa2, 0xbd, 0x58, 0x4d, 0xe1, 0xbd, 0x86, 0xbf, 0x31, 0xbc,
  0xf7, 0x36, 0x5a, 0xbc, 0xeb, 0x9f, 0xa4, 0x3d, 0xa0, 0x9d, 0x7b, 0x3d,
  0x20, 0xeb, 0x53, 0x3b, 0x1a, 0xc6, 0x01, 0x3e, 0x28, 0x49, 0x8b, 0xbd,
  0x89, 0xda, 0x09, 0x3d, 0x11, 0x77, 0xbb, 0x3d, 0xa8, 0xd5, 0x74, 0x3c,
  0xbd, 0x34, 0x28, 0x3e, 0xc3, 0x16, 0x7f, 0x3c, 0xba, 0x12, 0xb6, 0x3d,
  0x86, 0x65, 0x92, 0x3c, 0x1a, 0xb2, 0x92, 0xbd, 0x26, 0x42, 0x46, 0xbd,
  0x8d, 0x4c, 0x63, 0xbd, 0x8c, 0x95, 0xd2, 0x3c, 0xc0, 0x48, 0x4b, 0x3e,
  0xe8, 0xf1, 0x2e, 0xbd, 0x9c, 0x53, 0x24, 0x3e, 0x13, 0x08, 0xa0, 0x3d,
  0x32, 0x14, 0xc5, 0x0e, 0x43, 0x6f, 0x40, 0x3e, 0x96, 0xd2, 0x04, 0x3e,
  0xdf, 0xba, 0x6a, 0x3d, 0x7c, 0x7a, 0xa6, 0xbc, 0xff, 0x91, 0xd1, 0x3c,
  0xf0, 0xd4, 0x0c, 0x3e, 0x8b, 0xc1, 0x12, 0x3e, 0x0b, 0x8d, 0xbb, 0xbc,
  0xf3, 0xa0, 0x3b, 0xbd, 0x0e, 0x23, 0xce, 0x3d, 0x0c, 0x86, 0x0d, 0xbd,
  0x87, 0x84, 0x50, 0x3d, 0xc7, 0xab, 0x3f, 0x3d, 0x57, 0xa4, 0x6b, 0xbc,
  0xf8, 0xb1, 0x14, 0x3e, 0x17, 0x6b, 0x79, 0x3c, 0x44, 0x66, 0x68, 0xbd,
  0x60, 0x42, 0x1c, 0x3e, 0xfa, 0xc2, 0x18, 0x3e, 0x74, 0x56, 0x67, 0x3d,
  0x53, 0x76, 0x6d, 0xbd, 0x55, 0x11, 0xcb, 0x3d, 0x0a, 0x53, 0x09, 0xbe,
  0x02, 0x9b, 0xa4, 0xbd, 0x1e, 0x91, 0xb2, 0xbd, 0xb7, 0xd9, 0x3c, 0x3e,
  0xdf, 0x64, 0x76, 0x3d, 0x3c, 0xcb, 0x29, 0x3e, 0x9e, 0x44, 0xda, 0xbd,
  0x91, 0x52, 0xf7, 0x3c, 0xc4, 0xcd, 0x0b, 0xbd, 0xbc, 0x97, 0xc4, 0x0e,
  0x2a, 0xc9, 0x84, 0x3d, 0xfc, 0x9f, 0xb2, 0x3d, 0x1e, 0x02, 0xa7, 0x3d,
  0x3f, 0x0c, 0xf3, 0xbc, 0xe0, 0x69, 0xd4, 0xba, 0xe9, 0x78, 0x05, 0xbe,
  0x29, 0xc5, 0x25, 0x3d, 0x74, 0x20, 0x2f, 0x3e, 0x68, 0xaf, 0xe6, 0xbc,
  0xa1, 0x55, 0xd1, 0xbc, 0x47, 0x34, 0xd9, 0x3d, 0x72, 0x1e, 0xa3, 0x3d,
  0x9b, 0x8e, 0x31, 0x3e, 0xad, 0x3d, 0x0f, 0x3d, 0x06, 0xab, 0x3c, 0x3e,
  0x28, 0xd3, 0xff, 0xbc, 0x3f, 0xd7, 0xbb, 0x3d, 0x05, 0x00, 0x0d, 0x3e,
  0xbc, 0x41, 0x6b, 0x3e, 0xd0, 0x77, 0x09, 0x3e, 0x14, 0x2c, 0x9d, 0x3d,
  0x06, 0x7f, 0xf3, 0x3d, 0x8a, 0x86, 0x13, 0xbe, 0x58, 0xaf, 0x7e, 0x3d,
  0xc7, 0x8f, 0xe2, 0x3d, 0xe7, 0xba, 0x21, 0x3b, 0xa6, 0x07, 0x20, 0x3e,
  0x5b, 0x3c, 0x74, 0x3e, 0xe4, 0xe6, 0x2f, 0x3d, 0x81, 0x58, 0xe1, 0x3d,
  0xbd, 0xf9, 0x35, 0xbd, 0xb2, 0x7d, 0xc4, 0x8e, 0x4c, 0xcb, 0x2e, 0x3e,
  0xce, 0xc7, 0xc6, 0x3c, 0xf7, 0xdd, 0x96, 0x3d, 0xec, 0x4e, 0x75, 0x3e,
  0x1f, 0x9a, 0x08, 0x3d, 0xb9, 0xd9, 0x37, 0x3e, 0xb4, 0x04, 0x2d, 0xbd,
  0x43, 0xab, 0xbf, 0xbd, 0x53, 0x23, 0xb8, 0xbb, 0xb0, 0x1a, 0x81, 0x3d,
  0x8d, 0x6a, 0x6d, 0x3d, 0x0b, 0x37, 0x2e, 0x3e, 0xf4, 0x8d, 0x0c, 0xbc,
  0x4a, 0x2a, 0x50, 0x3d, 0xfd, 0x2d, 0x36, 0x3e, 0xbc, 0x60, 0x13, 0x3e,
  0xb9, 0x45, 0x24, 0xbd, 0x0a, 0x92, 0x8a, 0x3e, 0xd1, 0xa5, 0xcd, 0x3d,
  0x5f, 0x06, 0x22, 0x3e, 0xca, 0x61, 0x08, 0xbd, 0xbf, 0x13, 0x59, 0x3d,
  0x91, 0xba, 0xbf, 0xbd, 0x11, 0x57, 0x3b, 0x3d, 0x2e, 0x76, 0xb8, 0xbd,
  0x26, 0x61, 0x40, 0x3d, 0x72, 0x64, 0x8c, 0x3d, 0x29, 0x59, 0x3c, 0x3e,
  0x01, 0xff, 0xcd, 0x3c, 0xfd, 0xec, 0x2e, 0x3e, 0x0d, 0xb0, 0x88, 0xbd,
  0x16, 0x23, 0xc5, 0x8e, 0xd0, 0xa1, 0x28, 0x3e, 0xdc, 0x1c, 0x5c, 0x3e,
  0xbd, 0xc1, 0x33, 0x3e, 0xff, 0x15, 0xd0, 0x3d, 0x93, 0xfa, 0x2f, 0x3e,
  0x4a, 0x9b, 0x18, 0x3e, 0xbf, 0xda, 0xbc, 0x3d, 0x1e, 0x83, 0xfc, 0x3a,
  0x84, 0xf3, 0x01, 0xbe, 0x79, 0xcd, 0x8e, 0x39, 0xcd, 0xee, 0x03, 0x3d,
  0xae, 0x63, 0x9c, 0x3a, 0x64, 0x41, 0x50, 0xbd, 0x71, 0x11, 0xc0, 0x3c,
  0xd2, 0x8a, 0x24, 0xbc, 0x8b, 0xf8, 0x85, 0x3d, 0xcc, 0x46, 0x00, 0x3e,
  0x78, 0xbb, 0x68, 0xbd, 0x2b, 0xa6, 0xa7, 0xbc, 0x69, 0xaf, 0xb5, 0x3c,
  0x57, 0x25, 0xa0, 0xbd, 0x9d, 0x9d, 0x40, 0xbd, 0x79, 0xdf, 0xbb, 0x3b,
  0x61, 0xf4, 0x46, 0x3e, 0x17, 0x0b, 0x96, 0x3c, 0x27, 0x5d, 0x19, 0x3d,
  0xc7, 0xbd, 0xda, 0x3d, 0x2c, 0xeb, 0xd0, 0x3c, 0x30, 0xa0, 0x83, 0x3d,
  0x1a, 0xd4, 0xb4, 0x3d, 0x3b, 0x7e, 0x81, 0xbd, 0x62, 0x96, 0xc4, 0x8e,
  0x34, 0x61, 0xae, 0x3c, 0x57, 0x0d, 0x8d, 0xbb, 0x11, 0x83, 0x07, 0x3e,
  0x95, 0x71, 0x3f, 0x3e, 0x11, 0x0d, 0xc4, 0x3d, 0x38, 0x16, 0x65, 0x3d,
  0xff, 0x17, 0x59, 0x3c, 0x35, 0x78, 0xdf, 0x3a, 0x66, 0xe7, 0x62, 0x3b,
  0xa0, 0x9b, 0x5f, 0x3d, 0x2f, 0x6f, 0x38, 0x3d, 0x82, 0xac, 0x32, 0x3e,
  0x32, 0x38, 0x06, 0xbd, 0xfe, 0x47, 0xd8, 0x3d, 0x49, 0x2b, 0xfd, 0x3d,
  0xe0, 0x6e, 0xf4, 0x3c, 0xb1, 0xda, 0x5f, 0x3d, 0x74, 0xac, 0xc4, 0xbd,
  0x45, 0x7f, 0x32, 0xbd, 0x92, 0x57, 0x8e, 0xbd, 0x8c, 0xb5, 0x0c, 0x3e,
  0x95, 0x7b, 0xc5, 0x3c, 0x29, 0x0f, 0x11, 0xbe, 0x1e, 0xc4, 0xa6, 0x3d,
  0x25, 0xb8, 0x44, 0xbd, 0x68, 0xe1, 0x1a, 0xbd, 0x11, 0x7d, 0x18, 0x3e,
  0x7c, 0x77, 0x3a, 0x3d, 0x3b, 0x37, 0xc2, 0xbd, 0xb4, 0xac, 0x83, 0x3c,
  0x94, 0x0f, 0x85, 0x3c, 0x74, 0x12, 0xc4, 0x0e, 0x2e, 0xb6, 0x91, 0xbc,
  0xd2, 0xa2, 0x9b, 0xbd, 0x9c, 0xd1, 0x89, 0x3d, 0x9f, 0xf2, 0x32, 0x3d,
  0x07, 0x16, 0x1c, 0x3e, 0x24, 0x25, 0xa8, 0x3c, 0x9f, 0x63, 0x28, 0x3d,
  0xe3, 0x54, 0xa1, 0x3d, 0x45, 0x50, 0xa1, 0xbc, 0x3d, 0xee, 0x30, 0x3d,
  0x93, 0xc2, 0x3c, 0x3e, 0xe0, 0xaf, 0x9f, 0xbc, 0x73, 0x1f, 0x52, 0x3e,
  0x39, 0x6f, 0xae, 0x3d, 0x02, 0xb8, 0x9d, 0xbd, 0x5e, 0xaa, 0x52, 0xbe,
  0x7d, 0x83, 0x0a, 0xbd, 0x3f, 0x5a, 0xfc, 0x3b, 0x6a, 0x69, 0x64, 0x3e,
  0x71, 0x79, 0x54, 0x3b, 0xd4, 0x21, 0x54, 0x3e, 0x30, 0xeb, 0x74, 0x3d,
  0x3e, 0x8e, 0x66, 0xbe, 0x50, 0x9f, 0x37, 0x3d, 0xb9, 0x43, 0x4b, 0xbe,
  0x62, 0xcd, 0x9a, 0xbc, 0xae, 0xc5, 0x49, 0xbd, 0xcd, 0x56, 0x37, 0x3e,
  0x00, 0xfc, 0xf3, 0xbd, 0x11, 0xdd, 0x4a, 0x3e, 0x81, 0x00, 0x86, 0x3c,
  0xbb, 0x20, 0xc4, 0x0e, 0x60, 0xa4, 0xb2, 0x3d, 0x62, 0xe2, 0xf6, 0xbc,
  0x24, 0xb9, 0x37, 0xbc, 0x09, 0x63, 0x9c, 0x3d, 0x57, 0x0a, 0x31, 0x3e,
  0xc0, 0x96, 0x43, 0xbd, 0x87, 0x71, 0x5e, 0x3d, 0x02, 0xa2, 0xa4, 0xbd,
  0x54, 0xb3, 0x1e, 0xbe, 0x5e, 0xaf, 0x6c, 0x3d, 0xdf, 0x17, 0x27, 0x3e,
  0x74, 0xed, 0xc3, 0x3d, 0xc8, 0x87, 0x9c, 0x3c, 0x41, 0x8c, 0x68, 0xbd,
