unsigned char model_tflite[] = {
  0x1c, 0x00, 0x00, 0x00, 0x54, 0x46, 0x4c, 0x33, 0x14, 0x00, 0x20, 0x00,
  0x1c, 0x00, 0x18, 0x00, 0x14, 0x00, 0x10, 0x00, 0x0c, 0x00, 0x00, 0x00,
  0x08, 0x00, 0x04, 0x00, 0x14, 0x00, 0x00, 0x00, 0x1c, 0x00, 0x00, 0x00,
  0x84, 0x00, 0x00, 0x00, 0xdc, 0x00, 0x00, 0x00, 0x28, 0x42, 0x00, 0x00,
  0x38, 0x42, 0x00, 0x00, 0x28, 0x4c, 0x00, 0x00, 0x03, 0x00, 0x00, 0x00,
  0x01, 0x00, 0x00, 0x00, 0x04, 0x00, 0x00, 0x00, 0xce, 0xbc, 0xff, 0xff,
  0x0c, 0x00, 0x00, 0x00, 0x1c, 0x00, 0x00, 0x00, 0x3c, 0x00, 0x00, 0x00,
  0x0f, 0x00, 0x00, 0x00, 0x73, 0x65, 0x72, 0x76, 0x69, 0x6e, 0x67, 0x5f,
  0x64, 0x65, 0x66, 0x61, 0x75, 0x6c, 0x74, 0x00, 0x01, 0x00, 0x00, 0x00,
  0x04, 0x00, 0x00, 0x00, 0x98, 0xff, 0xff, 0xff, 0x13, 0x00, 0x00, 0x00,
  0x04, 0x00, 0x00, 0x00, 0x08, 0x00, 0x00, 0x00, 0x6f, 0x75, 0x74, 0x70,
  0x75, 0x74, 0x5f, 0x31, 0x00, 0x00, 0x00, 0x00, 0x01, 0x00, 0x00, 0x00,
  0x04, 0x00, 0x00, 0x00, 0xb2, 0xbd, 0xff, 0xff, 0x04, 0x00, 0x00, 0x00,
  0x07, 0x00, 0x00, 0x00, 0x69, 0x6e, 0x70, 0x75, 0x74, 0x5f, 0x31, 0x00,
  0x02, 0x00, 0x00, 0x00, 0x34, 0x00, 0x00, 0x00, 0x04, 0x00, 0x00, 0x00,
  0xdc, 0xff, 0xff, 0xff, 0x16, 0x00, 0x00, 0x00, 0x04, 0x00, 0x00, 0x00,
  0x13, 0x00, 0x00, 0x00, 0x43, 0x4f, 0x4e, 0x56, 0x45, 0x52, 0x53, 0x49,
  0x4f, 0x4e, 0x5f, 0x4d, 0x45, 0x54, 0x41, 0x44, 0x41, 0x54, 0x41, 0x00,
  0x08, 0x00, 0x0c, 0x00, 0x08, 0x00, 0x04, 0x00, 0x08, 0x00, 0x00, 0x00,
  0x15, 0x00, 0x00, 0x00, 0x04, 0x00, 0x00, 0x00, 0x13, 0x00, 0x00, 0x00,
  0x6d, 0x69, 0x6e, 0x5f, 0x72, 0x75, 0x6e, 0x74, 0x69, 0x6d, 0x65, 0x5f,
  0x76, 0x65, 0x72, 0x73, 0x69, 0x6f, 0x6e, 0x00, 0x17, 0x00, 0x00, 0x00,
  0x48, 0x41, 0x00, 0x00, 0x40, 0x41, 0x00, 0x00, 0x10, 0x41, 0x00, 0x00,
  0xc0, 0x40, 0x00, 0x00, 0xb0, 0x10, 0x00, 0x00, 0xa0, 0x0a, 0x00, 0x00,
  0x50, 0x0a, 0x00, 0x00, 0x30, 0x0a, 0x00, 0x00, 0x1c, 0x0a, 0x00, 0x00,
  0x04, 0x0a, 0x00, 0x00, 0xe8, 0x09, 0x00, 0x00, 0xd8, 0x01, 0x00, 0x00,
  0xc8, 0x00, 0x00, 0x00, 0xc0, 0x00, 0x00, 0x00, 0xb8, 0x00, 0x00, 0x00,
  0xb0, 0x00, 0x00, 0x00, 0xa8, 0x00, 0x00, 0x00, 0xa0, 0x00, 0x00, 0x00,
  0x98, 0x00, 0x00, 0x00, 0x90, 0x00, 0x00, 0x00, 0x88, 0x00, 0x00, 0x00,
  0x68, 0x00, 0x00, 0x00, 0x04, 0x00, 0x00, 0x00, 0x82, 0xbe, 0xff, 0xff,
  0x04, 0x00, 0x00, 0x00, 0x54, 0x00, 0x00, 0x00, 0x0c, 0x00, 0x00, 0x00,
  0x08, 0x00, 0x0e, 0x00, 0x08, 0x00, 0x04, 0x00, 0x08, 0x00, 0x00, 0x00,
  0x10, 0x00, 0x00, 0x00, 0x24, 0x00, 0x00, 0x00, 0x00, 0x00, 0x06, 0x00,
  0x08, 0x00, 0x04, 0x00, 0x06, 0x00, 0x00, 0x00, 0x04, 0x00, 0x00, 0x00,
  0x00, 0x00, 0x00, 0x00, 0x00, 0x00, 0x0a, 0x00, 0x10, 0x00, 0x0c, 0x00,
  0x08, 0x00, 0x04, 0x00, 0x0a, 0x00, 0x00, 0x00, 0x02, 0x00, 0x00, 0x00,
  0x02, 0x00, 0x00, 0x00, 0x04, 0x00, 0x00, 0x00, 0x06, 0x00, 0x00, 0x00,
  0x32, 0x2e, 0x31, 0x30, 0x2e, 0x30, 0x00, 0x00, 0xe2, 0xbe, 0xff, 0xff,
  0x04, 0x00, 0x00, 0x00, 0x10, 0x00, 0x00, 0x00, 0x31, 0x2e, 0x31, 0x30,
  0x2e, 0x30, 0x00, 0x00, 0x00, 0x00, 0x00, 0x00, 0x00, 0x00, 0x00, 0x00,
  0xbc, 0xb5, 0xff, 0xff, 0xc0, 0xb5, 0xff, 0xff, 0xc4, 0xb5, 0xff, 0xff,
  0xc8, 0xb5, 0xff, 0xff, 0xcc, 0xb5, 0xff, 0xff, 0xd0, 0xb5, 0xff, 0xff,
  0xd4, 0xb5, 0xff, 0xff, 0xd8, 0xb5, 0xff, 0xff, 0x1e, 0xbf, 0xff, 0xff,
  0x04, 0x00, 0x00, 0x00, 0x00, 0x01, 0x00, 0x00, 0xc2, 0x54, 0x9e, 0xbe,
  0x80, 0x52, 0x13, 0xbf, 0xda, 0xaf, 0x4c, 0xbf, 0x74, 0x4d, 0xdf, 0x3e,
  0x20, 0xc6, 0x17, 0xbf, 0xcb, 0xb4, 0x0f, 0x3f, 0x66, 0x15, 0x9c, 0xbe,
  0xd6, 0xd6, 0xa9, 0xbe, 0x46, 0x02, 0xea, 0x3e, 0x72, 0x10, 0xf3, 0xbe,
  0xdd, 0x0a, 0xce, 0x3e, 0xc5, 0x29, 0xd3, 0xbe, 0x0d, 0x92, 0xc5, 0xbe,
  0xf6, 0x1b, 0xe7, 0xbd, 0x68, 0xf0, 0x79, 0x3e, 0xb4, 0xf2, 0xaf, 0x3e,
  0x7b, 0x1a, 0xd0, 0x3e, 0x31, 0x41, 0xb0, 0xbe, 0x18, 0x53, 0xc6, 0xbe,
  0xdc, 0x5f, 0x76, 0x3e, 0x56, 0x66, 0x11, 0x3e, 0xa3, 0x5d, 0x90, 0xbd,
  0xc9, 0x5f, 0xae, 0x3e, 0x56, 0xf7, 0x92, 0xbe, 0x61, 0x64, 0x07, 0x3e,
  0xf2, 0x42, 0x05, 0xbe, 0xc2, 0x1a, 0x1c, 0x3e, 0x0d, 0xe1, 0x63, 0xbe,
  0x93, 0x15, 0x2c, 0x3f, 0x6c, 0x2e, 0x90, 0x3e, 0xbe, 0xa1, 0x1f, 0xbf,
  0x10, 0x90, 0x00, 0xbd, 0xb0, 0xac, 0xdc, 0xbe, 0x88, 0xe1, 0x23, 0x3e,
  0x57, 0x7c, 0xf3, 0x3c, 0x32, 0xab, 0x16, 0x3f, 0x0d, 0x28, 0x66, 0xbe,
  0x2c, 0x42, 0xec, 0x3d, 0xcd, 0xa0, 0xe7, 0xbe, 0x06, 0x88, 0x97, 0xbe,
  0xdb, 0x3f, 0xe2, 0x3e, 0xbd, 0x8e, 0x42, 0x3d, 0xab, 0x88, 0x29, 0x3e,
  0xbb, 0xcf, 0xa4, 0x3c, 0x02, 0xce, 0xc3, 0xbe, 0xe2, 0x3f, 0x02, 0x3f,
  0x8b, 0x2a, 0x52, 0xbf, 0x95, 0x40, 0x9f, 0xbd, 0x6a, 0x70, 0xd7, 0xbe,
  0x34, 0x55, 0x09, 0xbe, 0x53, 0xfc, 0x5f, 0x3e, 0x82, 0xc4, 0x01, 0xbf,
  0x18, 0xe7, 0x9d, 0xbe, 0x45, 0xa0, 0x45, 0xbf, 0x5d, 0x46, 0x88, 0x3e,
  0xc8, 0x74, 0xe5, 0x3d, 0x06, 0x25, 0x1b, 0x3e, 0xb4, 0x8c, 0x8f, 0xbe,
  0x7f, 0x1c, 0x81, 0xbe, 0x70, 0xc3, 0xe2, 0xbe, 0xc9, 0xee, 0x0f, 0xbf,
  0x35, 0x4e, 0xf4, 0xbd, 0x55, 0x80, 0xd4, 0x3e, 0xd5, 0xf8, 0x1a, 0x3e,
  0x2a, 0xc0, 0xff, 0xff, 0x04, 0x00, 0x00, 0x00, 0x00, 0x08, 0x00, 0x00,
  0x12, 0x0f, 0x50, 0xbe, 0xf5, 0x8b, 0x6c, 0xbc, 0x6d, 0x1c, 0x89, 0x3e,
  0x88, 0x10, 0x3e, 0x3e, 0xc8, 0xe9, 0x0f, 0x3d, 0x6d, 0xda, 0xce, 0x3d,
  0x95, 0xaf, 0x07, 0xbe, 0xe5, 0x1b, 0x68, 0xbe, 0x96, 0x3f, 0x47, 0xbe,
  0x9e, 0x4e, 0x6b, 0x3d, 0x65, 0xe4, 0x9b, 0xbd, 0x4e, 0xe7, 0xfb, 0x3d,
  0x80, 0x3e, 0x18, 0xbb, 0x66, 0x34, 0x24, 0xbe, 0x40, 0xa0, 0xce, 0x3e,
  0x2e, 0xf0, 0x7a, 0x3e, 0xdf, 0x99, 0x83, 0x3e, 0x93, 0x84, 0x8f, 0x3e,
  0xb4, 0x0b, 0xcc, 0xbd, 0x6e, 0xfc, 0x5a, 0x3d, 0x7b, 0x99, 0x5e, 0x3e,
  0x8b, 0x82, 0x1d, 0x3e, 0xd2, 0xcc, 0x6f, 0x3d, 0xe4, 0x79, 0x1d, 0x3d,
  0xbb, 0x2e, 0xa2, 0x3e, 0x29, 0x3b, 0x4e, 0xbe, 0xba, 0xee, 0x33, 0x3d,
  0xec, 0x80, 0x8a, 0xbe, 0xf8, 0xc1, 0x8d, 0xbe, 0x6f, 0xad, 0xa5, 0xbe,
  0xcd, 0x4c, 0xd9, 0xbe, 0xcf, 0xe1, 0xa9, 0x3d, 0x8f, 0x86, 0x89, 0x3e,
  0x39, 0x3d, 0xb4, 0xbd, 0x1b, 0xfb, 0x09, 0x3e, 0x9f, 0x14, 0xc0, 0x3e,
  0x8c, 0xa3, 0x27, 0xbe, 0x15, 0xd5, 0x41, 0x3d, 0x09, 0x10, 0xf2, 0xbe,
  0xe1, 0xf8, 0xf2, 0xbe, 0xb2, 0x6f, 0xc4, 0x3e, 0xd9, 0xda, 0xa9, 0xbe,
  0x0f, 0x79, 0xfc, 0x3d, 0x3a, 0xaa, 0x89, 0xbe, 0xd7, 0xf4, 0x41, 0xbe,
  0xce, 0x4a, 0xd7, 0xbd, 0xe6, 0x2b, 0x3d, 0xbd, 0x0a, 0xd4, 0xde, 0x3d,
  0x4a, 0xde, 0x3a, 0x3e, 0x27, 0xf3, 0x2d, 0x3d, 0x0e, 0x88, 0xd4, 0x3e,
  0x9f, 0x24, 0xe9, 0xbd, 0xc5, 0xb8, 0xaf, 0xbd, 0x96, 0x12, 0x6f, 0xbd,
  0x70, 0x13, 0x8b, 0xbd, 0x11, 0xf6, 0x92, 0x3e, 0x44, 0xc3, 0x5b, 0x3e,
  0x7c, 0xda, 0x6c, 0xbd, 0x1e, 0xf3, 0x6a, 0x3e, 0x3d, 0xeb, 0xde, 0xbe,
  0xd2, 0x3a, 0xd7, 0xbd, 0x7b, 0xaf, 0x89, 0xbd, 0x4a, 0xd6, 0x3e, 0x3e,
  0x99, 0x1b, 0x6a, 0x3e, 0x9b, 0x75, 0x0a, 0x3f, 0xf9, 0xa2, 0xb9, 0xbd,
  0x63, 0xdc, 0x77, 0x3e, 0xf4, 0xf5, 0xad, 0x3c, 0xe8, 0x12, 0xe8, 0x3d,
  0xe3, 0x21, 0xa1, 0x3e, 0x49, 0xfe, 0x7f, 0xbd, 0x8c, 0xcf, 0xea, 0xbe,
  0x38, 0x96, 0xc5, 0x3e, 0xb1, 0xce, 0xf0, 0xbd, 0x5f, 0x38, 0x0d, 0x3f,
  0x6c, 0x62, 0x94, 0xbc, 0xa0, 0x51, 0x9c, 0x3c, 0xda, 0x7a, 0x2d, 0xbe,
  0xe9, 0x18, 0x97, 0xbe, 0x88, 0x14, 0xa2, 0xbe, 0x18, 0x10, 0x89, 0x3e,
  0x0f, 0x3a, 0xb5, 0x3e, 0xb6, 0xaf, 0x81, 0xbe, 0x8e, 0xdb, 0x8d, 0x3e,
  0x0d, 0x5c, 0x03, 0x3d, 0x00, 0x60, 0x11, 0xbe, 0x18, 0x8a, 0xe2, 0x3e,
  0xdd, 0x97, 0xcd, 0x3e, 0x84, 0x42, 0x90, 0xbd, 0xc3, 0x98, 0xf8, 0x3c,
  0xe0, 0x55, 0x6f, 0x3e, 0x18, 0x36, 0x03, 0xbf, 0xbc, 0x82, 0xc5, 0x3d,
  0x8f, 0x7d, 0x0e, 0xbe, 0xa7, 0x29, 0x8a, 0xbd, 0xf2, 0xc5, 0x85, 0x3d,
  0x9a, 0x72, 0x81, 0xbe, 0x02, 0x5f, 0x69, 0x3e, 0xa4, 0x45, 0x54, 0xbe,
  0xc0, 0x28, 0x66, 0x3d, 0x52, 0x01, 0x88, 0xbe, 0xe9, 0xc4, 0xe6, 0x3d,
  0x3d, 0xc9, 0x02, 0x3e, 0x76, 0x31, 0xa1, 0xbe, 0x5b, 0x83, 0x1b, 0xbe,
  0xd7, 0x67, 0x2a, 0x3d, 0xad, 0xf3, 0xc8, 0x3e, 0xd5, 0x3c, 0x00, 0x3f,
  0x19, 0x9c, 0x17, 0xbe, 0xfe, 0x45, 0xaf, 0x3d, 0x3f, 0xac, 0x96, 0x3e,
  0xa6, 0x6a, 0x8b, 0x3e, 0x96, 0x3f, 0x43, 0x3d, 0x3c, 0x0c, 0xc5, 0x3e,
  0x98, 0x25, 0x41, 0x3e, 0x68, 0xe6, 0x03, 0x3f, 0x61, 0x4a, 0xd0, 0x3d,
  0x8a, 0x79, 0x5b, 0xbe, 0xa7, 0xe4, 0xbb, 0x3c, 0xa8, 0x37, 0xa7, 0x3e,
  0x5d, 0x99, 0x45, 0xbe, 0xb1, 0x1d, 0xf9, 0x3e, 0xf7, 0x10, 0x9e, 0x3e,
  0xeb, 0x40, 0x84, 0x3c, 0xc4, 0xfe, 0x8d, 0xbe, 0xb4, 0x39, 0x97, 0xbe,
  0x97, 0xc4, 0xee, 0x3e, 0xb8, 0xa7, 0xeb, 0xbe, 0xc4, 0xf6, 0xa3, 0x3e,
  0xd6, 0x66, 0x26, 0xbe, 0x44, 0x5b, 0x97, 0xbd, 0xfe, 0x09, 0xd7, 0x3e,
  0x1a, 0xd4, 0x72, 0x3d, 0xf1, 0x3d, 0x6d, 0xbd, 0xb3, 0x89, 0xe0, 0xbc,
  0xe7, 0x13, 0xa2, 0x3e, 0x96, 0xf4, 0x81, 0x3e, 0x47, 0x45, 0xa5, 0x3e,
  0x2c, 0xc0, 0x22, 0xbd, 0x75, 0x78, 0xfb, 0x3e, 0xdb, 0xdf, 0x8b, 0x3e,
  0xe8, 0x4b, 0xb1, 0xba, 0x4d, 0xc8, 0x4a, 0xbc, 0x2d, 0xb1, 0x52, 0xbe,
  0xf4, 0xab, 0xbc, 0xbc, 0x9c, 0x99, 0x18, 0x3e, 0x41, 0x78, 0x2b, 0xbe,
  0x9c, 0xf8, 0x23, 0x3d, 0xb0, 0x2b, 0xd3, 0x3d, 0x82, 0xff, 0xe3, 0xbd,
  0x3b, 0x14, 0x6a, 0xbe, 0x55, 0x34, 0x80, 0xbe, 0x97, 0x50, 0xee, 0x3e,
  0x93, 0xfd, 0x13, 0x3d, 0x04, 0xd4, 0xdd, 0x3e, 0xdd, 0x02, 0x38, 0x3d,
  0x41, 0x7d, 0x87, 0x3e, 0x68, 0x21, 0xf0, 0xbe, 0xf4, 0xeb, 0x4b, 0xbe,
  0x26, 0x63, 0xa7, 0xbd, 0xfd, 0x04, 0xa7, 0x3d, 0x05, 0x7f, 0x9b, 0x3d,
  0x59, 0x2a, 0x96, 0x3e, 0x05, 0x76, 0x4d, 0xbd, 0xb7, 0x16, 0xbd, 0xbd,
  0x80, 0xc8, 0x8b, 0xbe, 0x38, 0x4b, 0x90, 0x3d, 0x90, 0xc0, 0xc0, 0x3d,
  0x8d, 0x69, 0x3a, 0xbe, 0x64, 0xd4, 0x9f, 0x3e, 0x2e, 0xf5, 0xcf, 0xbd,
  0xd4, 0xfb, 0xfa, 0x3e, 0xf0, 0xdb, 0xac, 0xbd, 0x8d, 0xa7, 0xd9, 0x3e,
  0xfb, 0xf9, 0xb2, 0x3e, 0x0f, 0x5d, 0x3c, 0x3e, 0x62, 0x00, 0x33, 0xbe,
  0xd0, 0xdc, 0x78, 0xbe, 0xc0, 0x8d, 0x11, 0x3f, 0x79, 0x97, 0x0d, 0x3f,
  0x9b, 0x21, 0x72, 0xbd, 0xf4, 0x27, 0x19, 0xbe, 0xa6, 0xca, 0x8d, 0xbe,
  0xdb, 0xef, 0x21, 0x3f, 0x5c, 0x84, 0x10, 0xbe, 0x5e, 0xac, 0xb8, 0x3e,
  0xe9, 0x2f, 0x64, 0x3e, 0xb7, 0x72, 0xe7, 0x3e, 0xe8, 0x8d, 0x00, 0x3d,
  0x9d, 0xcb, 0x52, 0xbd, 0x41, 0x89, 0x8f, 0x3e, 0x2e, 0x65, 0x3a, 0xbe,
  0x2d, 0x6f, 0x2a, 0x3e, 0x77, 0xb5, 0xbf, 0x3e, 0xdd, 0x41, 0xf9, 0xbd,
  0xe5, 0xd3, 0x16, 0xbe, 0x74, 0xc4, 0x60, 0x3e, 0x7e, 0x05, 0x67, 0x3e,
  0xd9, 0x18, 0x97, 0x3e, 0x88, 0x19, 0xde, 0x3e, 0xcf, 0xd3, 0x6b, 0xbe,
  0x8f, 0xc9, 0xfa, 0xbb, 0x0f, 0x8f, 0xe3, 0xbb, 0x1c, 0x62, 0xa0, 0x3d,
  0xa0, 0xdc, 0x14, 0xbd, 0xb6, 0x04, 0x95, 0xbe, 0xfc, 0x84, 0x24, 0x3d,
  0x44, 0x50, 0xb4, 0xbc, 0xd7, 0x38, 0x89, 0x3e, 0x51, 0x10, 0x14, 0x3e,
  0xc9, 0x5b, 0xaf, 0xbe, 0x57, 0xbc, 0x87, 0x3e, 0x16, 0xcb, 0x4c, 0x3e,
  0x22, 0xe5, 0x35, 0xbe, 0x5b, 0x1e, 0x45, 0xbe, 0x23, 0xb9, 0x85, 0xbe,
  0x5c, 0xd0, 0x85, 0xbc, 0x32, 0xbc, 0x63, 0x3e, 0x98, 0x96, 0xa3, 0x3c,
  0x7b, 0x03, 0x87, 0xbc, 0xa0, 0xc4, 0x46, 0xbd, 0xd8, 0xb0, 0xd1, 0x3c,
  0x78, 0xb5, 0x96, 0xbe, 0x1c, 0xac, 0xb1, 0xbd, 0xa6, 0xe1, 0x79, 0xbe,
  0x28, 0xfd, 0x37, 0xbe, 0xa1, 0x09, 0x97, 0x3e, 0xd4, 0xc0, 0x8b, 0xbe,
  0x26, 0xbb, 0x12, 0x3e, 0x39, 0xd0, 0xa8, 0xbe, 0x0c, 0x29, 0xbf, 0xbd,
  0xe6, 0xf4, 0x70, 0x3e, 0x24, 0x2e, 0xc2, 0x3d, 0x61, 0x39, 0x08, 0xbe,
  0xa9, 0x32, 0x65, 0xbe, 0x4c, 0xc5, 0xb0, 0xbe, 0x50, 0xa9, 0xad, 0x3d,
  0xc0, 0x05, 0xe1, 0x3b, 0x00, 0x38, 0xb4, 0xbe, 0xec, 0x9a, 0x98, 0xbe,
  0x00, 0x10, 0x04, 0xbb, 0x20, 0xb2, 0xeb, 0xbc, 0x38, 0xab, 0x11, 0xbe,
  0xbe, 0x84, 0x9b, 0xbe, 0xfe, 0x71, 0xe5, 0xbd, 0x3b, 0xa2, 0x9f, 0x3e,
  0xa8, 0x3e, 0x02, 0xbd, 0xd8, 0x37, 0x69, 0xbd, 0x7e, 0x85, 0x8a, 0xbe,
  0xfe, 0x4b, 0x41, 0x3e, 0x76, 0xac, 0x2d, 0x3e, 0x01, 0xef, 0x95, 0xbe,
  0x91, 0xd8, 0x08, 0xbe, 0xa9, 0x4f, 0x99, 0x3e, 0xd0, 0x6d, 0xbc, 0xbd,
  0xc3, 0x7e, 0x9f, 0x3e, 0x2a, 0xbd, 0x5a, 0x3e, 0x58, 0x45, 0x49, 0xbe,
  0x78, 0xa7, 0xd4, 0x3c, 0xfb, 0xba, 0x1a, 0xbc, 0x36, 0x63, 0xbc, 0xbc,
  0x7e, 0x41, 0x02, 0x3e, 0x36, 0x83, 0x9e, 0x3e, 0x95, 0x1c, 0xd7, 0x3e,
  0x00, 0x9b, 0xb3, 0x3c, 0xeb, 0xb1, 0x75, 0xbc, 0x70, 0x94, 0x71, 0x3e,
  0x84, 0x64, 0xb6, 0x3e, 0x1c, 0x5f, 0xa3, 0xbe, 0x64, 0x3d, 0x42, 0x3e,
  0x5e, 0xd2, 0x95, 0x3e, 0x3e, 0xc7, 0xae, 0x3e, 0x19, 0x1e, 0xfd, 0xbe,
  0x8f, 0x77, 0x4a, 0x3d, 0xfc, 0x69, 0x6b, 0x3e, 0x20, 0xed, 0xb1, 0x3e,
  0x00, 0x90, 0x8a, 0xbe, 0x6d, 0x65, 0x13, 0x3e, 0xc4, 0x09, 0x02, 0xbf,
  0xc6, 0xf2, 0x1d, 0x3e, 0x99, 0x12, 0xdb, 0x3d, 0x1d, 0x6f, 0xb9, 0x3e,
  0x57, 0x0a, 0x7f, 0x3e, 0xc6, 0x0f, 0x8a, 0xbb, 0xb2, 0x48, 0x3e, 0x3e,
  0x14, 0x53, 0x89, 0x3e, 0x97, 0x16, 0x57, 0x3e, 0xa5, 0xc0, 0xe3, 0xbd,
  0xbb, 0x2e, 0x9d, 0xbc, 0xbe, 0x73, 0x72, 0xbe, 0xff, 0xa2, 0xa6, 0xbe,
  0x97, 0x3c, 0x06, 0x3e, 0x71, 0x7e, 0xa2, 0x3e, 0x8c, 0xa6, 0x4c, 0xbe,
  0x8e, 0x32, 0x41, 0x3e, 0x06, 0xd1, 0x8c, 0x3e, 0x0c, 0xe5, 0x28, 0x3e,
  0xe3, 0x67, 0x81, 0x3e, 0xab, 0x7e, 0x27, 0xbd, 0x46, 0xe4, 0x4f, 0xbe,
  0xc0, 0xc6, 0x25, 0x3c, 0x7e, 0xd8, 0x39, 0x3e, 0xe4, 0xcc, 0x29, 0x3e,
  0xa2, 0x88, 0xa3, 0xbe, 0x4a, 0xb4, 0xdc, 0x3d, 0x0f, 0xea, 0x9e, 0xbe,
  0x28, 0x4d, 0xb8, 0x3d, 0x9c, 0x9a, 0x30, 0x3e, 0x21, 0x2a, 0x09, 0x3d,
  0x52, 0x03, 0xb0, 0x3d, 0xa1, 0x13, 0x23, 0x3d, 0x71, 0x0b, 0x8a, 0xbe,
  0xa7, 0x56, 0x4d, 0xbe, 0xc8, 0x1f, 0x16, 0x39, 0x7b, 0xfd, 0x66, 0xbe,
  0x61, 0x6c, 0x64, 0x3e, 0xb2, 0x5a, 0x19, 0x3e, 0x6d, 0x2e, 0xb6, 0xbe,
  0x64, 0xb4, 0x99, 0xbe, 0xc5, 0xab, 0x1a, 0xbe, 0x99, 0x04, 0xcd, 0xbd,
  0x3d, 0x89, 0x5e, 0x3e, 0xad, 0x7b, 0x97, 0x3d, 0x98, 0x40, 0x0d, 0x3e,
  0xa2, 0x56, 0x17, 0xbd, 0x69, 0x20, 0xd0, 0xbe, 0x78, 0xf2, 0xb4, 0x3e,
  0xf4, 0xd9, 0x61, 0x3e, 0x9e, 0x91, 0xb8, 0xbe, 0xf6, 0xa7, 0x88, 0xbc,
  0x16, 0xd9, 0x24, 0x3e, 0xe5, 0xdf, 0xe1, 0x3d, 0x17, 0x84, 0x10, 0xbe,
  0xd4, 0x5a, 0xc0, 0x3e, 0x4d, 0x4a, 0x4a, 0xbe, 0x3a, 0x0b, 0x01, 0x3f,
  0x85, 0x32, 0x04, 0xbd, 0x1d, 0xd0, 0x8f, 0x3e, 0x89, 0xcd, 0x25, 0x3f,
  0x09, 0x3a, 0x07, 0x3f, 0x5d, 0x5e, 0x17, 0xbe, 0x12, 0xa7, 0xc5, 0x3e,
  0x6d, 0xf1, 0x5f, 0xbe, 0x2d, 0x48, 0x09, 0x3e, 0x13, 0xdb, 0xc7, 0xbd,
  0x20, 0x2d, 0xa6, 0x3e, 0x2b, 0x8c, 0x92, 0x3e, 0x17, 0x27, 0x17, 0x3f,
  0xf0, 0x30, 0xb0, 0xbe, 0xd7, 0xef, 0x4e, 0x3e, 0xb3, 0xfd, 0x19, 0xbe,
  0x5d, 0x64, 0xf3, 0x3d, 0x2b, 0x50, 0x23, 0x3e, 0xe4, 0x28, 0xf0, 0x3d,
  0xd1, 0xe8, 0x8c, 0x3e, 0x75, 0x58, 0xd6, 0x3e, 0x60, 0xeb, 0x1e, 0x3c,
  0xc8, 0x62, 0x03, 0x3e, 0xd3, 0x1f, 0x6c, 0xbe, 0x3d, 0xdb, 0x2c, 0xbe,
  0x35, 0x8d, 0x93, 0x3e, 0x62, 0xc9, 0xa4, 0xbe, 0x5c, 0xd5, 0x09, 0xbe,
  0x3d, 0x2d, 0xc6, 0x3e, 0x31, 0x53, 0x53, 0xbe, 0xd4, 0x7c, 0xb9, 0xbe,
  0x7a, 0x54, 0x15, 0x3e, 0xa2, 0x38, 0x42, 0x3e, 0x37, 0x85, 0xa5, 0xbe,
  0xc7, 0xff, 0xbf, 0x3e, 0xda, 0x6e, 0x05, 0x3e, 0x16, 0x0b, 0xd7, 0x3d,
  0x23, 0x67, 0xa3, 0xbe, 0x91, 0xb5, 0x2a, 0xbd, 0xdf, 0xb7, 0x15, 0xbe,
  0x52, 0x4a, 0x0d, 0xbe, 0x79, 0x0c, 0x97, 0xbe, 0x96, 0x44, 0x14, 0x3e,
  0x57, 0x3b, 0x5b, 0xbd, 0x98, 0x25, 0x8c, 0x3d, 0xfe, 0xab, 0x7a, 0x3e,
  0xc2, 0xb1, 0xf0, 0xba, 0x7a, 0x08, 0x92, 0x3d, 0x12, 0xf8, 0xb3, 0xbe,
  0xfc, 0x9b, 0x85, 0xbe, 0x3d, 0x5e, 0xa6, 0x3a, 0x19, 0x16, 0x8e, 0xbe,
  0xdc, 0x83, 0xbd, 0x3e, 0x55, 0x5a, 0x63, 0x3e, 0x00, 0x5a, 0xbc, 0x3e,
  0x9a, 0xb2, 0xb7, 0xbd, 0x53, 0x2e, 0x45, 0x3e, 0x7e, 0xcc, 0x22, 0xbe,
  0x5a, 0x10, 0x3e, 0x3e, 0x2d, 0x09, 0x0a, 0x3e, 0x2d, 0xdc, 0x97, 0x3e,
  0x70, 0xce, 0xa8, 0x3d, 0x18, 0xf1, 0x99, 0x3e, 0x33, 0xf5, 0x03, 0x3e,
  0xeb, 0x82, 0xe5, 0xbd, 0x79, 0x17, 0x77, 0x3e, 0x35, 0x4d, 0xef, 0xbd,
  0x1e, 0x67, 0xa0, 0xbe, 0xaf, 0x72, 0x33, 0x3e, 0xff, 0x41, 0x6f, 0x3e,
  0xb0, 0x31, 0x40, 0x3e, 0xab, 0x03, 0x3c, 0xbd, 0x63, 0x0c, 0xb9, 0xbe,
  0xc5, 0x7f, 0x99, 0x3e, 0x71, 0x90, 0x3d, 0x3d, 0x44, 0xd8, 0x3a, 0x3e,
  0xb1, 0x2b, 0x99, 0xbe, 0x20, 0x25, 0x2e, 0xbd, 0x95, 0x95, 0x76, 0xbe,
  0x96, 0xd2, 0x1c, 0xbe, 0x24, 0x01, 0x7e, 0xbe, 0x15, 0x84, 0x60, 0x3d,
  0x6e, 0xa4, 0x50, 0x3e, 0xdd, 0xec, 0x07, 0xbd, 0xd7, 0x99, 0x4e, 0x3e,
  0xa7, 0xc3, 0x88, 0x3e, 0x16, 0xbd, 0xde, 0x3d, 0x2b, 0xee, 0x5f, 0x3d,
  0x81, 0x08, 0xfd, 0x3d, 0x57, 0xa2, 0x31, 0xbe, 0x11, 0xad, 0xa6, 0xbe,
  0x84, 0xf5, 0xac, 0x3e, 0xa6, 0xb8, 0x69, 0x3e, 0x34, 0xbb, 0xf1, 0xbd,
  0x7b, 0x9a, 0x68, 0xbc, 0x14, 0xbb, 0xb1, 0x3d, 0xc2, 0x6d, 0x22, 0xbe,
  0x29, 0x4b, 0x5c, 0xbe, 0x16, 0x0e, 0x57, 0x3e, 0x2c, 0x0c, 0x82, 0xbe,
  0x41, 0xfe, 0xba, 0x3e, 0x19, 0x36, 0x3a, 0x3e, 0x82, 0xb2, 0x67, 0x3e,
  0x11, 0x37, 0xb8, 0xbe, 0x38, 0x61, 0xe2, 0x3e, 0x36, 0xaa, 0x8a, 0xbe,
  0x3e, 0x27, 0xe0, 0xbe, 0x95, 0x2a, 0x07, 0xbe, 0x08, 0x07, 0xcf, 0x3c,
  0xaa, 0xbb, 0x32, 0x3e, 0x7f, 0xae, 0xf6, 0x3d, 0x4c, 0x86, 0x45, 0x3e,
  0xcf, 0xb4, 0x57, 0xbe, 0x01, 0x27, 0x52, 0x3e, 0x0a, 0xce, 0xd7, 0x3e,
  0x2b, 0x19, 0xf3, 0x3d, 0xa6, 0x30, 0x54, 0x3e, 0x88, 0xaa, 0x24, 0x3e,
  0xf5, 0x8e, 0x54, 0xbe, 0x31, 0x2b, 0x07, 0x3f, 0xb4, 0xaa, 0x7f, 0x3e,
  0xc1, 0x95, 0xc9, 0x3e, 0xe4, 0x38, 0x3b, 0x3d, 0x3e, 0xa6, 0x17, 0x3e,
  0xba, 0x2c, 0x45, 0xbb, 0x70, 0xf5, 0xde, 0x3d, 0x5d, 0xc9, 0x08, 0x3f,
  0x1f, 0x9f, 0xd3, 0x3d, 0x07, 0x6e, 0xdf, 0x3e, 0xc1, 0x75, 0xdf, 0x3e,
  0x49, 0x54, 0xd3, 0xbe, 0x00, 0x1c, 0x2e, 0x3e, 0x70, 0x6f, 0x35, 0xbd,
  0xa6, 0x70, 0x86, 0x3e, 0xc6, 0x69, 0xe1, 0x3d, 0x5b, 0xe9, 0x27, 0x3f,
  0x97, 0xd6, 0x8f, 0x3e, 0xc3, 0x66, 0xbb, 0xbe, 0x80, 0xf5, 0x0b, 0x3f,
  0x9a, 0xe1, 0x6c, 0xbe, 0x4f, 0x0b, 0xd2, 0x3e, 0x93, 0xb4, 0x85, 0x3e,
  0xff, 0xb1, 0x2e, 0x3f, 0xb1, 0xa2, 0x57, 0xbe, 0xdb, 0x02, 0x24, 0x3f,
  0x09, 0xbd, 0x22, 0xbd, 0x0b, 0xd6, 0x6e, 0x3e, 0xda, 0x7f, 0xc4, 0xbe,
  0x12, 0x32, 0x02, 0xbe, 0x11, 0x00, 0x43, 0xbe, 0xc7, 0xf5, 0x81, 0xbe,
  0xee, 0xb5, 0x3e, 0xbe, 0x8b, 0x22, 0x99, 0xbd, 0xb4, 0x2e, 0xb2, 0xbd,
  0xad, 0xe9, 0x1f, 0xbe, 0xdd, 0x80, 0x92, 0x3e, 0x64, 0x37, 0x91, 0xbe,
  0xd0, 0x6b, 0x13, 0xbe, 0x18, 0xc1, 0x71, 0xbd, 0xa5, 0xb6, 0xa2, 0xbe,
  0x2f, 0x05, 0x36, 0xbe, 0x5e, 0x12, 0xa8, 0x3d, 0x0e, 0x8e, 0x0d, 0x3e,
  0xd0, 0x2d, 0x99, 0xbe, 0xc4, 0x32, 0x93, 0xbb, 0x95, 0x22, 0xab, 0x3e,
  0xb7, 0x6f, 0x4d, 0xbe, 0xe1, 0x1b, 0xf1, 0xbd, 0x6f, 0x92, 0x0a, 0xbe,
  0x5a, 0xa5, 0x6e, 0x3b, 0x1d, 0x7e, 0xac, 0x3e, 0xd4, 0x98, 0xca, 0x3d,
  0x40, 0x2c, 0x84, 0xbd, 0x42, 0xcb, 0x1f, 0x3e, 0x61, 0x89, 0x57, 0xbe,
  0xf2, 0x48, 0xa6, 0xbc, 0x70, 0xa1, 0x94, 0xbd, 0x36, 0xc8, 0xff, 0xff,
  0x04, 0x00, 0x00, 0x00, 0x0c, 0x00, 0x00, 0x00, 0x00, 0x00, 0x00, 0x00,
  0x02, 0x00, 0x00, 0x00, 0x01, 0x00, 0x00, 0x00, 0x4e, 0xc8, 0xff, 0xff,
  0x04, 0x00, 0x00, 0x00, 0x08, 0x00, 0x00, 0x00, 0xff, 0xff, 0xff, 0xff,
  0x20, 0x00, 0x00, 0x00, 0x62, 0xc8, 0xff, 0xff, 0x04, 0x00, 0x00, 0x00,
  0x04, 0x00, 0x00, 0x00, 0x02, 0x00, 0x00, 0x00, 0x72, 0xc8, 0xff, 0xff,
  0x04, 0x00, 0x00, 0x00, 0x10, 0x00, 0x00, 0x00, 0xab, 0xa1, 0xe7, 0x3d,
  0x81, 0x85, 0xe3, 0xbd, 0xed, 0xdc, 0x05, 0xbe, 0xcf, 0x0e, 0x2c, 0x3d,
  0x8e, 0xc8, 0xff, 0xff, 0x04, 0x00, 0x00, 0x00, 0x40, 0x00, 0x00, 0x00,
  0x34, 0xbb, 0x34, 0xbb, 0xb6, 0xb6, 0x58, 0xbd, 0x17, 0x39, 0x29, 0xbb,
  0x26, 0x06, 0xe1, 0x3c, 0xb9, 0x00, 0x81, 0x3c, 0x7e, 0x20, 0x59, 0x3e,
  0x93, 0x7f, 0x33, 0x3d, 0x00, 0x00, 0x00, 0x00, 0x2c, 0x8d, 0x88, 0x3c,
  0x29, 0xc9, 0x35, 0xba, 0x85, 0x33, 0x13, 0x3d, 0xf5, 0xc5, 0x0a, 0xbd,
  0x20, 0x3c, 0xb3, 0x3c, 0x85, 0x5d, 0x89, 0xbd, 0x83, 0xbc, 0x53, 0x3e,
  0x44, 0xac, 0xd4, 0xbc, 0xda, 0xc8, 0xff, 0xff, 0x04, 0x00, 0x00, 0x00,
  0x00, 0x06, 0x00, 0x00, 0xde, 0xc7, 0x90, 0x3e, 0xe4, 0x7c, 0x1a, 0x3e,
  0x40, 0x0b, 0xef, 0xbc, 0x78, 0xc7, 0xad, 0x3d, 0x85, 0xc7, 0x3d, 0xbe,
  0x20, 0xd6, 0x89, 0x3d, 0x18, 0xd1, 0x6a, 0xbe, 0x40, 0x4b, 0xc4, 0x3c,
  0x53, 0x3f, 0x12, 0x3e, 0xd7, 0x48, 0x15, 0x3f, 0x75, 0xc5, 0x15, 0x3f,
  0x01, 0xf8, 0x1f, 0x3d, 0xed, 0x97, 0x77, 0xbe, 0x21, 0xc4, 0x05, 0x3e,
  0xb0, 0x9f, 0x82, 0x3d, 0xaa, 0xb5, 0x7c, 0x3d, 0x48, 0x2f, 0x32, 0x3d,
  0x04, 0x76, 0x89, 0x3e, 0x72, 0xeb, 0xd9, 0xbd, 0x00, 0xa4, 0x79, 0x3c,
  0xee, 0xa4, 0x88, 0xbe, 0x68, 0xe4, 0xd5, 0xbd, 0x0e, 0xd0, 0xf6, 0xbd,
  0xd0, 0xc3, 0xfe, 0x3c, 0x10, 0xb5, 0x41, 0xbe, 0x04, 0xfe, 0x97, 0x3d,
  0x84, 0x64, 0x82, 0x3e, 0x3e, 0x7f, 0xa2, 0xbd, 0xe8, 0xa9, 0x93, 0x3d,
  0x54, 0x1b, 0xbd, 0x3d, 0x50, 0x13, 0xfa, 0xbc, 0xd7, 0xd9, 0x88, 0xbe,
  0x75, 0xd2, 0xb6, 0x3e, 0x7a, 0xb7, 0xa4, 0xbe, 0xb7, 0x3f, 0xec, 0xbd,
  0xf9, 0xc6, 0x8c, 0x3e, 0x5d, 0xc7, 0xcc, 0x3e, 0xea, 0x07, 0x42, 0xbe,
  0xdd, 0xcb, 0x60, 0x3e, 0x2f, 0x61, 0x0a, 0xbe, 0x28, 0x08, 0x59, 0x3d,
  0x30, 0x7a, 0x76, 0x3e, 0xda, 0x62, 0xf7, 0xbd, 0x06, 0x9d, 0x1a, 0xbe,
  0x50, 0x14, 0x18, 0x3d, 0x94, 0x77, 0x12, 0x3e, 0x94, 0x1e, 0x80, 0x3d,
  0x87, 0x47, 0x71, 0xbe, 0x64, 0xff, 0x38, 0xbd, 0x86, 0xc4, 0xb9, 0xbd,
  0x90, 0x63, 0xfa, 0x3c, 0x0a, 0xb2, 0x8a, 0x3e, 0x5e, 0x7e, 0x8b, 0x3e,
  0x20, 0xed, 0x93, 0xbd, 0xb6, 0xf7, 0xd3, 0xbd, 0xa2, 0x92, 0xd3, 0xbd,
  0x25, 0x28, 0x19, 0xbe, 0x5f, 0x87, 0x18, 0xbd, 0x87, 0xee, 0x0d, 0xbe,
  0x3f, 0xa3, 0xc4, 0x3e, 0xf0, 0x51, 0x78, 0x3e, 0xc9, 0xb1, 0xe7, 0x3e,
  0x38, 0xc4, 0x07, 0x3e, 0xcf, 0xb9, 0x25, 0xbc, 0xba, 0x8e, 0x25, 0x3e,
  0x34, 0x2f, 0x3f, 0xbd, 0x0c, 0x54, 0x7b, 0x3e, 0xc0, 0x6f, 0x0f, 0x3c,
  0x22, 0x88, 0x37, 0xbe, 0x98, 0x1a, 0x8c, 0xbe, 0x30, 0x29, 0xdb, 0x3c,
  0xe8, 0x42, 0x22, 0xbe, 0xbc, 0xd8, 0x3f, 0xbe, 0x40, 0xc0, 0xd5, 0xbd,
  0x4c, 0x6d, 0xfc, 0xbd, 0x7b, 0x3a, 0x88, 0xbe, 0x40, 0xf8, 0xfa, 0xbc,
  0xd0, 0x16, 0x63, 0x3e, 0x18, 0x59, 0x81, 0x3e, 0x80, 0x4e, 0x80, 0x3b,
  0xb6, 0x03, 0x94, 0x3d, 0xee, 0x5d, 0xd3, 0xbc, 0xe6, 0x72, 0xdf, 0x3c,
  0x84, 0xb2, 0xd4, 0x3e, 0xb2, 0x6a, 0xba, 0x3e, 0x77, 0xf9, 0x63, 0x3e,
  0x9e, 0x74, 0xc8, 0x3e, 0xde, 0xd3, 0xc5, 0x3e, 0x5b, 0x72, 0x1f, 0xbe,
  0xda, 0x5f, 0x2a, 0xbe, 0x1e, 0xe2, 0x81, 0x3e, 0x50, 0x93, 0x91, 0x3e,
  0x94, 0xae, 0x33, 0x3e, 0xac, 0xb7, 0xe7, 0x3d, 0x46, 0x75, 0x65, 0xbe,
  0x88, 0xad, 0x31, 0x3d, 0x95, 0xc3, 0x50, 0xbe, 0xdc, 0x9f, 0x71, 0xbd,
  0x98, 0xe3, 0xb9, 0xbd, 0x6f, 0xac, 0x06, 0xbe, 0x84, 0x12, 0x1f, 0x3e,
  0x8d, 0x36, 0x3d, 0xbe, 0xb0, 0x2d, 0x1e, 0xbd, 0xf0, 0x55, 0xb4, 0x3c,
  0xab, 0xe0, 0x73, 0xbe, 0xb0, 0xec, 0x4f, 0xbe, 0xce, 0xdd, 0x21, 0x3d,
  0x03, 0xc2, 0xda, 0x3c, 0x02, 0x71, 0x64, 0x3d, 0xc9, 0x55, 0xfa, 0xbd,
  0xa0, 0xcd, 0x1d, 0x3c, 0xcc, 0x2f, 0x93, 0xbe, 0x9e, 0x2a, 0x35, 0xbe,
  0xfc, 0x61, 0xc1, 0x3d, 0xb7, 0xed, 0x3d, 0xbe, 0x32, 0x0a, 0x8b, 0x3e,
  0x90, 0x1a, 0x3c, 0x3e, 0xe8, 0x76, 0x53, 0xbe, 0xaa, 0x12, 0x58, 0xbe,
  0x68, 0x35, 0x6c, 0x3e, 0xb2, 0x92, 0x45, 0xbe, 0xa6, 0xfa, 0x57, 0x3e,
  0x62, 0xd4, 0x0c, 0x3e, 0x24, 0x74, 0x66, 0xbe, 0x60, 0xc0, 0x07, 0x3d,
  0xde, 0xe4, 0x38, 0x3e, 0x60, 0x6c, 0xb8, 0x3c, 0x9c, 0x31, 0xee, 0x3d,
  0x84, 0xf2, 0x3a, 0xbe, 0x0a, 0x44, 0x85, 0xb8, 0xd6, 0x90, 0x50, 0x3e,
  0x28, 0x1f, 0x25, 0x3e, 0x75, 0x2c, 0xd1, 0xbc, 0x0b, 0xaa, 0x0a, 0x3e,
  0xa8, 0x12, 0x43, 0xbd, 0x86, 0xc8, 0xba, 0x3e, 0x3c, 0x07, 0x32, 0x3e,
  0x0c, 0xe3, 0x6c, 0xbe, 0x30, 0x6c, 0x5d, 0x3d, 0x9a, 0x1c, 0x85, 0xbe,
  0x8e, 0x59, 0x57, 0x3e, 0x48, 0x51, 0x08, 0xbd, 0xb6, 0x62, 0x82, 0xbd,
  0x58, 0x2a, 0x01, 0x3e, 0x6b, 0xd2, 0x3e, 0xbe, 0xbc, 0xe9, 0x49, 0xbe,
  0x62, 0x75, 0x1c, 0x3e, 0x3d, 0xf3, 0x82, 0xbe, 0x88, 0x77, 0x57, 0x3d,
  0x40, 0xf9, 0x89, 0x3b, 0xe4, 0xf9, 0x06, 0xbe, 0x38, 0x1b, 0x8c, 0x3e,
  0xbb, 0x77, 0xe0, 0x3d, 0x40, 0xc7, 0xa7, 0x3e, 0x30, 0x73, 0x76, 0xbe,
  0x2b, 0x66, 0x0b, 0xbd, 0xc9, 0x52, 0x64, 0xbe, 0x73, 0x7b, 0xdb, 0x3d,
  0x01, 0xb9, 0x16, 0xbe, 0x71, 0xa2, 0x10, 0x3e, 0xc2, 0xf6, 0x2b, 0xbe,
  0xa8, 0x56, 0x34, 0xbd, 0xc2, 0x72, 0x0c, 0x3e, 0x64, 0x84, 0xfa, 0x3d,
  0x14, 0x90, 0xd3, 0x3d, 0xa8, 0xb8, 0x0a, 0x3d, 0xe0, 0x02, 0x68, 0x3e,
  0x10, 0xfa, 0x7c, 0xbe, 0xcf, 0x5e, 0x14, 0xbe, 0xfe, 0xf6, 0x72, 0xbe,
  0x7c, 0xf5, 0x6f, 0xbd, 0x0c, 0xb0, 0x27, 0xbe, 0x0c, 0xb5, 0x5e, 0xbd,
  0x4e, 0x24, 0x1b, 0x3e, 0xde, 0x98, 0x29, 0xbe, 0xd4, 0x6e, 0x43, 0xbe,
  0x1b, 0x81, 0xd3, 0x3e, 0xd0, 0xa1, 0x9c, 0x3e, 0x08, 0x70, 0x98, 0xbe,
  0x26, 0x3e, 0xd2, 0xbc, 0x50, 0x65, 0x24, 0x3e, 0x2d, 0x00, 0x02, 0x3f,
  0xf4, 0x1f, 0x3c, 0x3e, 0x48, 0x8b, 0x10, 0xbe, 0x8a, 0x24, 0x05, 0xbe,
  0x84, 0xac, 0xdf, 0x3d, 0xea, 0x09, 0x21, 0x3e, 0xc0, 0x57, 0x9d, 0x3d,
  0x60, 0xe7, 0x05, 0x3d, 0xe8, 0xd2, 0x70, 0xbd, 0xb0, 0x10, 0x2e, 0xbe,
  0xf7, 0x29, 0x8b, 0xbe, 0x6c, 0x73, 0x73, 0x3e, 0xa4, 0x7e, 0x84, 0xbe,
  0xaa, 0xdf, 0xaa, 0xbd, 0xd8, 0xa4, 0x26, 0xbe, 0x00, 0x50, 0xa3, 0xb9,
  0x7c, 0x6c, 0x75, 0xbd, 0xd0, 0x85, 0x80, 0x3e, 0x24, 0x7b, 0x4a, 0xbe,
  0x30, 0x64, 0xf6, 0xbd, 0x53, 0xb4, 0xce, 0x3c, 0x87, 0x44, 0xb6, 0x3e,
  0x29, 0x29, 0x84, 0x3d, 0xc3, 0xde, 0x09, 0xbe, 0xfa, 0xa6, 0xeb, 0xbd,
  0x48, 0x9a, 0xbe, 0x3e, 0xb2, 0x0e, 0xf1, 0x3e, 0x11, 0xb6, 0x36, 0xbe,
  0x62, 0x99, 0xec, 0xbd, 0x08, 0x46, 0x25, 0x3e, 0x80, 0xf8, 0x06, 0xbe,
  0x84, 0xaa, 0xda, 0x3d, 0x84, 0x2c, 0xb6, 0x3d, 0x3e, 0xab, 0x83, 0x3e,
  0xa8, 0x6f, 0x69, 0x3d, 0x9a, 0x71, 0xbb, 0xbd, 0x3c, 0xaa, 0x55, 0x3e,
  0xb8, 0x45, 0x06, 0xbe, 0x39, 0xdd, 0x21, 0xbe, 0xc4, 0x85, 0xb1, 0x3d,
  0x90, 0x22, 0x40, 0xbe, 0x14, 0xce, 0x16, 0xbe, 0xe6, 0x06, 0x36, 0x3e,
  0x36, 0x69, 0x90, 0xbe, 0xd4, 0xdc, 0x05, 0x3e, 0x62, 0x7c, 0xc1, 0xbe,
  0xaf, 0x96, 0x23, 0x3e, 0x78, 0x22, 0x5f, 0xba, 0x50, 0x22, 0xec, 0x3e,
  0x53, 0x5d, 0x87, 0x3e, 0x41, 0x22, 0x85, 0xbe, 0x70, 0x64, 0x69, 0x3e,
  0xc8, 0x37, 0xce, 0x3d, 0xc0, 0x15, 0x01, 0xbc, 0x70, 0x5d, 0xf3, 0x3d,
  0x38, 0x3e, 0x72, 0x3e, 0xb2, 0x25, 0x06, 0xbe, 0x30, 0x07, 0x74, 0x3e,
  0x84, 0x23, 0x6b, 0x3e, 0xf4, 0xab, 0x41, 0xbe, 0xe8, 0x6c, 0x31, 0x3e,
  0x8a, 0x22, 0xeb, 0xbd, 0x20, 0x14, 0x67, 0x3e, 0x3c, 0xa7, 0x2a, 0xbd,
  0x18, 0x4d, 0x7f, 0xbe, 0xff, 0xa9, 0x82, 0xbe, 0x88, 0xd5, 0x95, 0x3d,
  0x18, 0x3f, 0x72, 0x3e, 0x05, 0xb8, 0x65, 0xbc, 0x43, 0x3b, 0xfe, 0x3e,
  0x80, 0xa9, 0xd0, 0xbd, 0x03, 0x55, 0xbc, 0xbd, 0x4e, 0x84, 0xae, 0x3e,
  0xa6, 0x1c, 0x07, 0x3e, 0xf1, 0xe2, 0x31, 0x3e, 0x40, 0x21, 0x9d, 0x3b,
  0x00, 0x51, 0xb6, 0x3c, 0x14, 0xce, 0x61, 0x3e, 0x14, 0x8e, 0xbf, 0x3d,
  0x9c, 0xb6, 0x85, 0xbe, 0x3e, 0x16, 0x61, 0xbe, 0x70, 0x15, 0x6b, 0x3e,
  0x84, 0x34, 0xf1, 0xbd, 0xbc, 0x4c, 0x47, 0xbd, 0x12, 0xcf, 0x80, 0x3e,
  0x20, 0x57, 0x5f, 0xbe, 0xd8, 0x77, 0x03, 0x3d, 0x3c, 0x1c, 0x13, 0x3e,
  0xf0, 0x64, 0xb9, 0x3c, 0x14, 0xf2, 0x88, 0xbd, 0xa8, 0xa7, 0x7a, 0x3e,
  0x1a, 0xc9, 0xd3, 0xbe, 0xfe, 0x0c, 0x3d, 0x3d, 0x38, 0x7b, 0x87, 0xbe,
  0x51, 0x44, 0x69, 0x3e, 0x06, 0x0c, 0xfc, 0x3c, 0x83, 0x74, 0xd5, 0x3e,
  0xf9, 0x14, 0x39, 0x3e, 0x44, 0xd6, 0x25, 0xbe, 0xca, 0x16, 0xe6, 0xbd,
  0x23, 0x84, 0x5e, 0xbe, 0xfa, 0xe4, 0x04, 0x3e, 0x4c, 0xfd, 0x81, 0x3e,
  0xf0, 0xf8, 0x8c, 0xbe, 0x76, 0xa8, 0x68, 0xbe, 0xe8, 0x19, 0x0a, 0x3d,
  0x1e, 0xc1, 0x11, 0xbe, 0x44, 0x38, 0x71, 0x3e, 0x3c, 0x20, 0x2c, 0xbd,
  0xc2, 0x0b, 0xc6, 0xbd, 0xde, 0x92, 0x35, 0x3e, 0xbc, 0xd3, 0x8a, 0x3e,
  0xb8, 0x1f, 0x8a, 0x3e, 0xfe, 0x28, 0x66, 0xbe, 0x98, 0x36, 0x98, 0x3d,
  0x68, 0x87, 0x46, 0xbe, 0x5d, 0x54, 0x79, 0xbe, 0x06, 0x70, 0x00, 0xbe,
  0x84, 0xcc, 0x0b, 0xbe, 0x2c, 0x40, 0x99, 0x3d, 0x50, 0x80, 0xc5, 0xbc,
  0x38, 0x5c, 0x51, 0xbd, 0x82, 0xc1, 0x86, 0xbd, 0xf4, 0x91, 0xa3, 0xbd,
  0x3c, 0xf1, 0x92, 0x3e, 0x04, 0x7a, 0x84, 0xbe, 0x8a, 0xef, 0x8e, 0xbe,
  0x40, 0x2d, 0x80, 0xbe, 0x30, 0xc3, 0x88, 0xbe, 0x80, 0x78, 0xaa, 0x3d,
  0x3c, 0xd2, 0x3f, 0x3e, 0x39, 0xa5, 0x80, 0xbe, 0x68, 0x32, 0x0e, 0x3e,
  0x24, 0x2c, 0x0e, 0xbe, 0x48, 0x7a, 0x8c, 0x3e, 0x28, 0x45, 0x14, 0x3e,
  0x32, 0x38, 0x81, 0xbe, 0x80, 0x4c, 0x62, 0xbc, 0x0c, 0x4b, 0x81, 0x3e,
  0x6a, 0x62, 0x38, 0xbe, 0x3d, 0xb3, 0x9f, 0x3e, 0xfd, 0x48, 0x1d, 0xbe,
  0xb5, 0x4f, 0x85, 0xbc, 0x6d, 0x34, 0x25, 0xbe, 0xf1, 0x5d, 0xe3, 0x3e,
  0x34, 0xff, 0x5b, 0xbe, 0x4d, 0x85, 0xe5, 0xbd, 0xce, 0xd8, 0x71, 0xbe,
  0x99, 0xe0, 0x22, 0xbe, 0xa8, 0x4f, 0xb0, 0xbd, 0xac, 0x3b, 0x22, 0x3e,
  0x60, 0x9e, 0xd6, 0xbc, 0x40, 0xf2, 0xda, 0xbb, 0x20, 0xff, 0x8c, 0x3e,
  0x10, 0x8c, 0x8a, 0x3c, 0xeb, 0x67, 0x74, 0xbe, 0xa4, 0xb6, 0x33, 0x3e,
  0x1a, 0x51, 0x80, 0xbe, 0x34, 0x3d, 0x83, 0x3d, 0xca, 0x23, 0x23, 0x3e,
  0xfc, 0x79, 0x82, 0x3e, 0x16, 0x0b, 0x8b, 0x3e, 0x12, 0xec, 0x1e, 0xbe,
  0xa0, 0xfa, 0x9c, 0x3e, 0x73, 0xfe, 0x9a, 0xbd, 0xd7, 0x4a, 0x89, 0xbe,
  0x1b, 0x8f, 0x09, 0x3e, 0x51, 0xca, 0xab, 0x3e, 0xf2, 0xc1, 0x3b, 0x3d,
  0x7b, 0xea, 0x22, 0xbd, 0xd8, 0xe5, 0x97, 0x3e, 0x8e, 0xf2, 0x84, 0x3e,
  0xf1, 0x7a, 0x7e, 0xbe, 0x3a, 0xd5, 0xed, 0xbd, 0x94, 0xb0, 0x6a, 0x3e,
  0x20, 0x0f, 0x10, 0xbd, 0xa0, 0xca, 0x81, 0x3e, 0xac, 0x81, 0xb8, 0xbd,
  0x2a, 0x88, 0x2d, 0x3e, 0x64, 0x4d, 0xb2, 0x3d, 0x91, 0x05, 0x3d, 0xbe,
  0xa8, 0x4c, 0x7a, 0x3d, 0xb0, 0x35, 0xdd, 0xbc, 0x99, 0x2d, 0x39, 0xbe,
  0x96, 0xdd, 0x0b, 0xbe, 0x21, 0x77, 0x11, 0xbe, 0xb4, 0x73, 0x71, 0xbd,
  0xda, 0x2b, 0xe2, 0xbc, 0x4a, 0xbd, 0x9b, 0x3e, 0x92, 0x02, 0xe8, 0xbd,
  0xc3, 0x41, 0x05, 0x3d, 0x7e, 0xb6, 0xfa, 0x3d, 0x97, 0xbd, 0x16, 0xbd,
  0xcf, 0xf4, 0xa0, 0xbd, 0xe5, 0x3d, 0xcb, 0xbd, 0xd8, 0x1c, 0xa6, 0x3d,
  0x78, 0x1b, 0xa0, 0xbd, 0x04, 0x97, 0xf6, 0x3d, 0x6a, 0xf4, 0x5c, 0xbe,
  0x40, 0x1e, 0xf3, 0xbb, 0x66, 0x55, 0x50, 0x3e, 0x04, 0x3f, 0xdc, 0x3d,
  0x1a, 0x24, 0x88, 0x3e, 0xe6, 0xce, 0xff, 0xff, 0x04, 0x00, 0x00, 0x00,
  0x00, 0x30, 0x00, 0x00, 0xf0, 0x4a, 0x1f, 0xbd, 0x78, 0x9c, 0x0e, 0x3d,
  0x00, 0x18, 0x0c, 0xba, 0x3c, 0x79, 0x86, 0xbd, 0xde, 0x45, 0x08, 0xbd,
  0x30, 0xbe, 0xf6, 0x3d, 0x34, 0x46, 0xe0, 0x3d, 0x02, 0xf0, 0xdb, 0xbd,
  0x40, 0xb7, 0xe5, 0x3a, 0xd4, 0x16, 0x35, 0x3d, 0xc7, 0x11, 0xa7, 0xbd,
  0xb8, 0x12, 0x10, 0x3d, 0xaa, 0x31, 0xd6, 0x3d, 0x97, 0x13, 0xe3, 0xbd,
  0x70, 0x04, 0x25, 0x3d, 0xc8, 0xd3, 0x29, 0x3d, 0x98, 0xc4, 0xbe, 0x3c,
  0xbc, 0x43, 0x5f, 0xbd, 0x44, 0x9e, 0x02, 0x3d, 0x88, 0x6a, 0x38, 0xbd,
  0x00, 0x93, 0xac, 0x3d, 0xe4, 0x09, 0xe2, 0x3d, 0xf0, 0x23, 0x00, 0x3d,
  0xe0, 0x96, 0xa7, 0x3b, 0x40, 0x2e, 0xce, 0x3b, 0x00, 0x4f, 0xd3, 0x39,
  0xe0, 0xe8, 0xfd, 0xbc, 0x0c, 0xc7, 0x3a, 0xbd, 0x06, 0x4e, 0xae, 0xbd,
  0xe8, 0xc8, 0xf2, 0x3d, 0xa6, 0xeb, 0xee, 0xbd, 0x50, 0x9b, 0x2e, 0xbd,
  0xa4, 0x6e, 0x76, 0x3d, 0x7a, 0x98, 0x82, 0x3d, 0xf0, 0xfe, 0x37, 0x3c,
  0x86, 0xc7, 0xde, 0x3d, 0x66, 0x84, 0x47, 0xbd, 0x34, 0xe9, 0xd7, 0xbc,
  0x34, 0xa5, 0xac, 0xbc, 0x4e, 0x09, 0xd0, 0xbd, 0x88, 0x39, 0xe3, 0x3d,
  0x20, 0x9a, 0x03, 0xbc, 0xf0, 0x4f, 0xad, 0xbd, 0x20, 0x85, 0xba, 0x3c,
  0xd7, 0xd1, 0xec, 0xbd, 0xbe, 0x03, 0xaf, 0xbd, 0xb0, 0xd4, 0xb3, 0x3d,
  0x58, 0xf8, 0xa5, 0xbd, 0x76, 0x25, 0x84, 0x3d, 0xf0, 0x77, 0xc8, 0xbc,
  0x50, 0x4b, 0xc4, 0x3c, 0x58, 0x82, 0x27, 0xbc, 0x38, 0x12, 0x30, 0x3d,
  0x30, 0xa6, 0xa9, 0x3d, 0x38, 0x6a, 0x09, 0xbc, 0xbe, 0xfc, 0x80, 0xbd,
  0x60, 0x6f, 0x9d, 0x3d, 0xc9, 0x31, 0x78, 0xbd, 0xd8, 0x8c, 0xc8, 0xbc,
  0x82, 0x83, 0xe6, 0x3d, 0xe2, 0x91, 0xc0, 0xbd, 0xb5, 0x33, 0xaa, 0xbd,
  0x8b, 0xab, 0xd1, 0xbd, 0x8a, 0x20, 0xda, 0xbd, 0xd4, 0x64, 0xbd, 0xbd,
  0x78, 0x9a, 0x99, 0xbd, 0x0b, 0x20, 0xc4, 0xbd, 0x00, 0x0d, 0x8c, 0xb9,
  0xb9, 0x90, 0xe7, 0xbd, 0x80, 0x98, 0x96, 0xbb, 0x20, 0xae, 0xed, 0xbb,
  0x44, 0x1c, 0x3c, 0xbd, 0xd4, 0x2b, 0x1a, 0x3d, 0x11, 0xdb, 0xa7, 0xbd,
  0x48, 0x39, 0xae, 0x3c, 0xeb, 0xd9, 0x81, 0xbd, 0xce, 0xb3, 0x38, 0xbd,
  0xa0, 0x1f, 0x68, 0x3c, 0xd8, 0x3f, 0xe6, 0x3c, 0xba, 0x38, 0x3d, 0xbd,
  0x78, 0x8a, 0xee, 0xbc, 0x6c, 0xd9, 0x6a, 0x3d, 0x04, 0x35, 0x9c, 0xbd,
  0xec, 0xeb, 0x2e, 0x3d, 0x48, 0x84, 0x3c, 0x3d, 0x64, 0x51, 0xeb, 0xbd,
  0xf7, 0x6e, 0xf4, 0xbd, 0x08, 0x16, 0x3b, 0x3d, 0x98, 0x5a, 0x60, 0x3d,
  0x34, 0x0e, 0xf5, 0xbc, 0x9e, 0xa6, 0xc0, 0xbd, 0xdc, 0xf2, 0xe8, 0x3d,
  0xe0, 0x1a, 0xf5, 0xbb, 0x44, 0x4b, 0xe4, 0xbc, 0x78, 0x30, 0x10, 0x3d,
  0xae, 0x6a, 0xcc, 0x3d, 0x32, 0x21, 0xe9, 0xbd, 0x08, 0xa1, 0xdb, 0xbc,
  0x40, 0xa9, 0xb7, 0x3b, 0x74, 0x94, 0xbe, 0x3d, 0xc0, 0x5e, 0x68, 0xbb,
  0xdc, 0x0a, 0x1c, 0xbd, 0xb8, 0x24, 0x0f, 0xbc, 0xe0, 0xe1, 0x86, 0xbd,
  0x80, 0xc3, 0x74, 0xba, 0xc0, 0x02, 0xd4, 0x3c, 0x57, 0x99, 0xed, 0xbd,
  0x90, 0x64, 0x5c, 0x3c, 0x2c, 0xbb, 0x29, 0x3d, 0x06, 0x0a, 0x10, 0xbd,
  0x40, 0x32, 0x7f, 0xbc, 0x14, 0x63, 0x67, 0xbd, 0x18, 0xcc, 0x8d, 0x3d,
  0x68, 0x15, 0x1c, 0x3d, 0x20, 0x5b, 0x14, 0xbb, 0xd2, 0xc2, 0x87, 0x3d,
  0x20, 0xcb, 0xb7, 0x3b, 0x92, 0x53, 0x8d, 0x3d, 0xbc, 0x97, 0xd0, 0xbd,
  0xae, 0x19, 0xc7, 0xbd, 0x36, 0x56, 0xae, 0x3d, 0xef, 0x18, 0xe5, 0xbd,
  0x70, 0x9b, 0x58, 0x3d, 0x20, 0x49, 0xae, 0xbb, 0xd0, 0xa2, 0x11, 0xbc,
  0xd0, 0x6f, 0xc6, 0x3c, 0x7e, 0x20, 0xef, 0xbd, 0xd4, 0xea, 0x83, 0xbd,
  0xb2, 0xa5, 0x30, 0x3c, 0x73, 0xe5, 0x59, 0x3b, 0x4b, 0x55, 0x8b, 0x3d,
  0xfb, 0x99, 0x58, 0x3e, 0xec, 0xf1, 0x3b, 0x3e, 0x96, 0xdd, 0xf9, 0x3d,
  0x69, 0x34, 0x89, 0x3e, 0x58, 0xd5, 0x88, 0x3e, 0x73, 0xe9, 0x61, 0x3e,
  0xbe, 0xe9, 0x6c, 0x3d, 0xfb, 0x08, 0x8e, 0x3e, 0x66, 0xa2, 0x3c, 0x3e,
  0x6d, 0x32, 0x0f, 0x3e, 0x5c, 0x7b, 0x23, 0x3d, 0xb9, 0xcf, 0x3d, 0x3d,
  0x0f, 0x79, 0xbe, 0x3c, 0x03, 0x4e, 0x6c, 0x3d, 0xf4, 0x21, 0x41, 0xbe,
  0x53, 0xb9, 0x38, 0xbe, 0xb0, 0x63, 0x65, 0xbe, 0x20, 0x81, 0x89, 0xbe,
  0xa4, 0x41, 0x35, 0xbe, 0x83, 0xee, 0x5f, 0xbd, 0xeb, 0xd7, 0x87, 0xbe,
  0xd8, 0x84, 0x4c, 0xbe, 0xa0, 0x0d, 0x49, 0xbe, 0x8e, 0x1b, 0x82, 0xbd,
  0x90, 0x8c, 0x66, 0xbe, 0x5e, 0xc2, 0xab, 0xbd, 0x42, 0x8a, 0x18, 0xbe,
  0x83, 0xf9, 0x99, 0xbd, 0xa4, 0xde, 0x1d, 0xbe, 0xbf, 0x9e, 0xaf, 0x3d,
  0x23, 0x65, 0x7a, 0x3d, 0x89, 0x27, 0xe5, 0x3c, 0x8f, 0xdc, 0xb1, 0x3c,
  0xdb, 0x29, 0x32, 0x3e, 0xee, 0xf0, 0xe7, 0x3c, 0x3a, 0x40, 0x1c, 0x3e,
  0xd6, 0x46, 0x9f, 0x3d, 0xe7, 0xbb, 0x10, 0x3e, 0xa2, 0x3b, 0x37, 0x3e,
  0xf3, 0x4b, 0x13, 0x3e, 0x0f, 0x54, 0xdb, 0xbb, 0x70, 0xc6, 0xeb, 0xbd,
  0xe2, 0x62, 0x1e, 0xbe, 0x31, 0x7c, 0xb9, 0xbd, 0x5e, 0x58, 0x4e, 0xbd,
  0x0a, 0x87, 0x5e, 0xbe, 0xbd, 0x1d, 0xc2, 0xbd, 0x7d, 0x34, 0x6b, 0xbe,
  0x39, 0xbe, 0xea, 0xbc, 0x51, 0x66, 0xaa, 0xbd, 0xeb, 0xf2, 0x4c, 0xbe,
  0xc4, 0xcf, 0x5f, 0xbe, 0xe2, 0x12, 0x69, 0xbe, 0x3b, 0xa6, 0x04, 0xbe,
  0xe6, 0x82, 0x9c, 0x3c, 0xb0, 0x16, 0x0f, 0xbe, 0xcc, 0x18, 0x85, 0xbc,
  0xf7, 0x28, 0x2b, 0x3d, 0x1a, 0xfd, 0xfe, 0xbb, 0x14, 0xb4, 0xbf, 0x3d,
  0x8f, 0x39, 0x2d, 0x3d, 0xdd, 0x9a, 0xa3, 0xbc, 0x41, 0xb2, 0x4b, 0x3e,
  0x1f, 0xa3, 0x42, 0x3e, 0x9f, 0x13, 0x0e, 0x3c, 0xf7, 0x04, 0xbe, 0x3d,
  0x5e, 0xd2, 0xeb, 0x3c, 0xb1, 0x1e, 0xc8, 0x3d, 0xbf, 0xe7, 0xb4, 0x3d,
  0x25, 0x5b, 0x00, 0x3e, 0x0e, 0x40, 0x27, 0xbb, 0x9a, 0x9c, 0x19, 0x3c,
  0x58, 0x40, 0xc8, 0x3d, 0x95, 0x70, 0xdb, 0xbc, 0x3b, 0xd1, 0x1b, 0xbd,
  0xd2, 0xc9, 0xc9, 0xbb, 0x72, 0xa4, 0x06, 0x3e, 0x32, 0xfd, 0x00, 0x3e,
  0x1b, 0xcf, 0x53, 0x3d, 0xa8, 0x19, 0x82, 0xbd, 0xf1, 0x21, 0x46, 0x3e,
  0x70, 0x2f, 0x00, 0xbe, 0x27, 0xbf, 0x07, 0xbd, 0x0e, 0x00, 0xe5, 0xbd,
  0x6e, 0xa5, 0x64, 0xbc, 0x40, 0xa8, 0x82, 0xbd, 0xee, 0xa3, 0xbf, 0xbd,
  0x1d, 0x29, 0x68, 0xbb, 0x1b, 0x64, 0x84, 0x3d, 0xca, 0x56, 0x8e, 0xbd,
  0xf4, 0xc3, 0x0e, 0xbe, 0x48, 0xf4, 0x82, 0xba, 0x9b, 0x22, 0xc5, 0xbd,
  0xb6, 0x0e, 0xce, 0xbd, 0x66, 0x30, 0xea, 0xbd, 0xf4, 0x6b, 0x26, 0x3d,
  0xec, 0x46, 0x33, 0xbd, 0x9c, 0xcc, 0xb8, 0x3d, 0x8a, 0x62, 0x1a, 0x3d,
  0x38, 0xda, 0x8d, 0x3c, 0xa2, 0x9d, 0xed, 0x3d, 0x03, 0xbe, 0xe0, 0xbd,
  0x60, 0x4c, 0x47, 0xbd, 0xf1, 0x9d, 0x60, 0x3d, 0xbb, 0xd2, 0xb9, 0x3b,
  0x8d, 0x3e, 0xc2, 0xbd, 0x2c, 0x8e, 0xb1, 0xbd, 0x47, 0x1e, 0x87, 0xbd,
  0xb1, 0x85, 0xf5, 0xbd, 0xf8, 0x13, 0xf2, 0xbd, 0x3d, 0xa0, 0x02, 0x3d,
  0xc9, 0x75, 0xbe, 0x3c, 0x2b, 0xc4, 0xb9, 0xbd, 0x0c, 0x2e, 0xc2, 0xbd,
  0x80, 0xe3, 0x9c, 0xbd, 0xb6, 0xc9, 0x0d, 0xbe, 0xcb, 0xf1, 0xd2, 0x3d,
  0xa1, 0xd7, 0xb4, 0xbc, 0x23, 0x69, 0xf2, 0xbd, 0x67, 0x24, 0x37, 0xbd,
  0x0c, 0x28, 0xa3, 0xbd, 0x1f, 0xbf, 0x6c, 0x3c, 0x4a, 0xaf, 0x11, 0x3d,
  0x44, 0x17, 0x32, 0xbb, 0xc0, 0x36, 0x8b, 0xbc, 0x6e, 0x82, 0xbd, 0xbd,
  0x3a, 0x84, 0xe9, 0xbd, 0x18, 0x9b, 0x6a, 0x3d, 0xc0, 0x74, 0x59, 0x3d,
  0x04, 0x94, 0xbc, 0xbd, 0xe0, 0x97, 0x64, 0x3d, 0xf8, 0xab, 0xc1, 0x3d,
  0x58, 0x98, 0x05, 0xbd, 0xec, 0x6d, 0xac, 0xbd, 0xad, 0x0a, 0xf4, 0xbd,
  0xde, 0x98, 0xe5, 0x3d, 0xe3, 0xca, 0xeb, 0xbd, 0xd0, 0x13, 0xb5, 0xbb,
  0xfc, 0x80, 0x12, 0xbd, 0x82, 0x4e, 0xdc, 0x3d, 0x86, 0x96, 0xe9, 0xbd,
  0xe0, 0x93, 0xec, 0x3d, 0x9c, 0x94, 0xa4, 0x3d, 0x6c, 0x40, 0xdd, 0xbd,
  0x46, 0xc1, 0xbf, 0x3d, 0xf4, 0x4c, 0x86, 0x3d, 0x90, 0x7a, 0x8f, 0xbb,
  0xa8, 0xc8, 0xd7, 0xbd, 0xbc, 0xfc, 0xa2, 0xbd, 0xa2, 0x70, 0xe3, 0xbd,
  0x12, 0x7e, 0x9f, 0xbd, 0xa2, 0xb7, 0xf0, 0x3d, 0xb0, 0x82, 0xe2, 0x3c,
  0xae, 0x23, 0x9b, 0x3d, 0x10, 0x49, 0xb0, 0xbb, 0xb8, 0x8d, 0xbe, 0xbd,
  0xf6, 0x26, 0xd7, 0xbd, 0xa2, 0xb4, 0x78, 0xbd, 0xa0, 0x99, 0x2a, 0x3c,
  0x70, 0x08, 0x6f, 0x3d, 0x94, 0x85, 0x84, 0xbc, 0x56, 0x64, 0x9e, 0x3d,
  0xd8, 0x8a, 0x7b, 0xbd, 0x50, 0x9b, 0x2c, 0xbc, 0x9f, 0x10, 0x87, 0xbd,
  0x5c, 0xea, 0x5d, 0x3d, 0xc4, 0x12, 0x2e, 0x3d, 0x56, 0x25, 0x33, 0xbd,
  0xb8, 0xcf, 0x4a, 0x3d, 0xe0, 0xd7, 0x46, 0x3c, 0xb0, 0x1f, 0xdc, 0xbb,
  0x80, 0xef, 0x9c, 0x3a, 0x90, 0xc8, 0xe0, 0x3d, 0x6c, 0x1e, 0x88, 0xbc,
  0x04, 0xd0, 0xf2, 0xbd, 0x28, 0xbf, 0x9a, 0xbc, 0xf8, 0x6d, 0x9f, 0x3c,
  0x70, 0x14, 0x76, 0xbc, 0x17, 0x3a, 0x84, 0xbd, 0x46, 0x21, 0x5c, 0xbd,
  0xd8, 0xd8, 0x01, 0x3d, 0x10, 0x22, 0x2b, 0x3d, 0xfa, 0x45, 0x4e, 0xbd,
  0x18, 0x9b, 0x9c, 0x3d, 0xac, 0x69, 0xeb, 0xbc, 0xac, 0xfa, 0xb4, 0x3d,
  0x0a, 0xfe, 0xb2, 0x3d, 0x4a, 0xf4, 0xd1, 0xbd, 0xd6, 0x8f, 0x1a, 0xbd,
  0xd2, 0xbd, 0x84, 0xbd, 0x3e, 0xbd, 0xce, 0xbd, 0xf0, 0x24, 0x55, 0xbc,
  0xda, 0x99, 0x27, 0xbd, 0x92, 0x08, 0x87, 0xbd, 0x3e, 0x85, 0xd0, 0x3d,
  0xa8, 0xa4, 0x6e, 0xbc, 0x29, 0x44, 0xc1, 0xbd, 0x94, 0xec, 0x88, 0xbc,
  0x14, 0xef, 0xf6, 0x3d, 0x4e, 0xd1, 0xc4, 0xbd, 0x00, 0x04, 0x58, 0xba,
  0x04, 0x34, 0xa4, 0x3d, 0x5d, 0xc6, 0x85, 0xbd, 0x4e, 0xd0, 0xb7, 0xbd,
  0xa5, 0x5c, 0x86, 0xbd, 0x50, 0x00, 0x8b, 0x3d, 0x2c, 0x83, 0xa8, 0xbd,
  0x1e, 0x17, 0xf1, 0x3d, 0xcc, 0xdc, 0xa3, 0xbd, 0xac, 0xbb, 0xab, 0xbd,
  0x00, 0xd0, 0xeb, 0x3a, 0x2c, 0xc6, 0x64, 0x3d, 0xfe, 0x2d, 0x84, 0x3d,
  0xc0, 0x85, 0x08, 0xbc, 0xa0, 0x27, 0x8e, 0xbc, 0x1c, 0x3d, 0xbd, 0xbd,
  0x94, 0x8c, 0x85, 0x3d, 0x14, 0xbd, 0xa0, 0xbc, 0x40, 0x8c, 0x99, 0x3a,
  0x58, 0xa6, 0x6a, 0xbd, 0xe2, 0x8d, 0x2e, 0xbd, 0xb1, 0x79, 0x9e, 0xbd,
  0x3a, 0x20, 0xb6, 0x3d, 0xa0, 0x91, 0x33, 0xbd, 0xd4, 0x52, 0x46, 0x3d,
  0xe8, 0xdc, 0x17, 0x3d, 0x7c, 0x24, 0x11, 0x3d, 0xc0, 0xbb, 0xe1, 0x3c,
  0x90, 0xe8, 0x2e, 0xbd, 0x5a, 0x2e, 0xed, 0x3d, 0x61, 0x56, 0xb1, 0xbd,
  0x96, 0x16, 0x88, 0x3d, 0xe2, 0xa2, 0xb9, 0xbd, 0xea, 0xa2, 0xc5, 0x3d,
  0x5c, 0x29, 0xb4, 0xbd, 0x31, 0x24, 0xe6, 0xbd, 0x48, 0xb4, 0x43, 0xbd,
  0x60, 0x85, 0x0d, 0x3c, 0x60, 0xdb, 0x1c, 0x3d, 0x0e, 0x72, 0xb1, 0x3d,
  0x7a, 0xc8, 0x10, 0xbd, 0x0a, 0x81, 0x0a, 0xbd, 0xe6, 0x79, 0xa0, 0x3d,
  0xc0, 0x6d, 0x68, 0x3c, 0xc8, 0x32, 0x96, 0xbd, 0xfe, 0xeb, 0xd6, 0x3d,
  0x8b, 0x7b, 0x79, 0xbd, 0x18, 0x3d, 0xee, 0x3c, 0x52, 0x94, 0xab, 0x3d,
  0xde, 0x21, 0x91, 0x3d, 0x68, 0x72, 0x74, 0x3d, 0x6c, 0x26, 0xf6, 0x3d,
  0xb4, 0x9d, 0x72, 0x3d, 0xac, 0x6a, 0x19, 0xbd, 0x38, 0x6d, 0xaa, 0xbd,
  0xd0, 0x1d, 0x93, 0xbd, 0x88, 0x65, 0x04, 0x3d, 0xfa, 0xbe, 0x8a, 0x3d,
  0x74, 0x14, 0x63, 0x3d, 0x1c, 0x64, 0xe4, 0xbd, 0xee, 0x4b, 0xcf, 0xbd,
  0x04, 0xdb, 0x2c, 0x3d, 0x6c, 0x8e, 0xa7, 0xbc, 0xd4, 0xcb, 0x1c, 0xbd,
  0xc0, 0x96, 0x42, 0x3d, 0x9c, 0x15, 0xe0, 0xbc, 0xe8, 0x8f, 0x62, 0x3d,
  0x6a, 0xbe, 0x48, 0xbd, 0xc0, 0x35, 0x71, 0x3d, 0xe4, 0x96, 0x2c, 0x3d,
  0x85, 0x5a, 0xac, 0xbd, 0x44, 0x2a, 0x77, 0x3d, 0x80, 0x94, 0x2c, 0x3a,
  0x0c, 0x38, 0x21, 0xbd, 0xa6, 0x81, 0xb8, 0x3d, 0xca, 0x94, 0x8f, 0x3d,
  0x50, 0xf0, 0x56, 0xbc, 0x40, 0xa2, 0x28, 0x3c, 0x66, 0x10, 0x62, 0xbd,
  0x08, 0xf4, 0x8c, 0x3c, 0xfc, 0xc6, 0x42, 0x3d, 0x5a, 0x91, 0xab, 0x3d,
  0x80, 0x1b, 0x59, 0xba, 0x00, 0x97, 0xa0, 0xbd, 0x4c, 0x77, 0x27, 0x3d,
  0x82, 0x41, 0x94, 0xbd, 0x7e, 0x63, 0xda, 0xbd, 0x32, 0x51, 0xb1, 0x3d,
  0x14, 0xa8, 0xb7, 0x3d, 0x52, 0xbd, 0x94, 0x3d, 0x00, 0x59, 0x07, 0x3d,
  0xb4, 0x69, 0x23, 0x3d, 0x18, 0xdd, 0xda, 0x3d, 0x01, 0xfa, 0xe1, 0xbd,
  0x7a, 0xec, 0x9d, 0xbd, 0xd0, 0xe1, 0xd8, 0x3d, 0xba, 0x4f, 0xc1, 0x3d,
  0x6c, 0xc8, 0x72, 0xbd, 0xf4, 0xb1, 0x10, 0xbd, 0xda, 0x8f, 0xb3, 0x3d,
  0x48, 0xb1, 0x9c, 0x3c, 0x90, 0xd9, 0xe9, 0xbb, 0x64, 0xfc, 0x3f, 0x3d,
  0x0c, 0xa4, 0x8c, 0x3d, 0xc3, 0x63, 0xe3, 0xbd, 0x78, 0xf6, 0xa8, 0x3d,
  0xbe, 0x53, 0xf3, 0xbd, 0x01, 0x68, 0xc7, 0xbd, 0x08, 0x7d, 0xde, 0x3d,
  0x45, 0x0f, 0xca, 0xbd, 0xa8, 0x82, 0xe7, 0xbd, 0xac, 0x4d, 0x8d, 0xbd,
  0x0d, 0xe3, 0x77, 0xbd, 0xe0, 0xe8, 0x77, 0x3c, 0x6c, 0x8e, 0x86, 0xbc,
  0xd8, 0xf2, 0x58, 0x3d, 0x3c, 0xd3, 0xbe, 0x3d, 0x60, 0x22, 0x57, 0x3c,
  0x18, 0x02, 0x51, 0x3d, 0x30, 0xe9, 0x28, 0xbc, 0x9a, 0x48, 0x28, 0xbd,
  0xce, 0x87, 0xd8, 0x3d, 0x90, 0xc6, 0xc6, 0x3d, 0x48, 0xf4, 0x31, 0x3d,
  0x7a, 0x31, 0xb2, 0xbd, 0x58, 0xc9, 0x65, 0xbd, 0xdc, 0xe6, 0x70, 0x3d,
  0x58, 0xe0, 0xae, 0xbd, 0xe6, 0x21, 0x5f, 0xbd, 0xfc, 0x01, 0xcb, 0xbc,
  0x88, 0x6f, 0xf6, 0xbd, 0x74, 0x01, 0x96, 0xbc, 0x88, 0xe0, 0xf9, 0x3c,
  0x33, 0xa6, 0xba, 0xbd, 0x60, 0x18, 0x09, 0xbb, 0xe0, 0x85, 0x61, 0x3d,
  0x58, 0x0d, 0x87, 0x3c, 0x80, 0x88, 0x33, 0x3d, 0x40, 0x1f, 0x08, 0x3d,
  0x94, 0x09, 0xa3, 0x3d, 0x80, 0xd9, 0xaf, 0xbb, 0x4e, 0x56, 0x7b, 0xbd,
  0xd8, 0x6c, 0x88, 0xbd, 0xd8, 0x4c, 0x19, 0xbd, 0x98, 0x7b, 0xe6, 0x3d,
  0x06, 0xa4, 0x9f, 0xbd, 0x79, 0x73, 0xc4, 0xbd, 0x14, 0x32, 0x86, 0xbc,
  0x0a, 0x62, 0xc8, 0x3d, 0x87, 0x7e, 0xdc, 0xbd, 0xde, 0xbe, 0xa5, 0x3d,
  0xfc, 0x31, 0x63, 0xbd, 0x2e, 0x4a, 0x8e, 0xbd, 0x48, 0x9f, 0x17, 0x3d,
  0x17, 0x33, 0x94, 0xbd, 0x5a, 0xd0, 0x85, 0x3d, 0xf4, 0xa1, 0x85, 0x3d,
  0x63, 0xa6, 0xeb, 0xbd, 0xac, 0xd0, 0xce, 0xbc, 0xd2, 0x6b, 0x9e, 0x3d,
  0x16, 0x8c, 0x4a, 0xbd, 0xc4, 0x6f, 0xd5, 0xbc, 0x20, 0x7a, 0xe2, 0x3c,
  0x00, 0x68, 0xe4, 0xb8, 0xd4, 0xbc, 0xd0, 0x3d, 0x20, 0x38, 0xa3, 0xbd,
  0xdc, 0xd3, 0xd8, 0xbc, 0xb8, 0xa4, 0xa9, 0x3d, 0x1a, 0xdc, 0x84, 0xbd,
  0xf8, 0x0c, 0xac, 0x3d, 0x04, 0x9b, 0x65, 0x3d, 0xe0, 0x71, 0xd8, 0x3c,
  0xa8, 0xa9, 0xb6, 0xbc, 0x40, 0xb0, 0xa2, 0x3b, 0x72, 0x72, 0xc8, 0x3d,
  0x08, 0xcd, 0xe1, 0x3d, 0xca, 0xdf, 0x5b, 0xbd, 0xc8, 0x20, 0xa3, 0xbd,
  0x9e, 0x37, 0x22, 0xbd, 0x9a, 0xa6, 0xe6, 0xbd, 0x60, 0xd4, 0xaf, 0x3c,
  0x46, 0x92, 0xf5, 0x3d, 0xe7, 0xde, 0x94, 0xbd, 0x41, 0x74, 0x8b, 0xbd,
  0xdd, 0xfa, 0x5c, 0xbe, 0xe2, 0x82, 0x8e, 0xbe, 0x3f, 0xb0, 0x45, 0xbe,
  0xf9, 0x47, 0x4a, 0xbe, 0x73, 0x1c, 0x2f, 0xbe, 0xc5, 0xa7, 0xab, 0xbd,
  0x58, 0x4a, 0x98, 0xbe, 0xf9, 0x75, 0x0a, 0xbe, 0xa5, 0xf5, 0x0f, 0xbe,
  0xb7, 0xbe, 0x4f, 0xbe, 0x76, 0x93, 0xb7, 0xbd, 0x2d, 0x74, 0xad, 0xbd,
  0xd3, 0xaf, 0x08, 0xbe, 0xd3, 0x52, 0xc4, 0x3d, 0xa0, 0x23, 0x23, 0x3e,
  0xf3, 0x4c, 0x06, 0x3e, 0xfd, 0x28, 0x97, 0x3e, 0x87, 0x02, 0xa3, 0x3e,
  0x1a, 0xb5, 0x82, 0x3e, 0xb0, 0x79, 0x97, 0x3e, 0x0e, 0x43, 0x8a, 0x3e,
  0x9f, 0x8e, 0xa0, 0x3e, 0x10, 0xca, 0x90, 0x3e, 0x06, 0xf3, 0x56, 0x3e,
  0x72, 0x8c, 0x95, 0x3e, 0x6f, 0xfb, 0x81, 0x3e, 0x76, 0x7c, 0x60, 0x3e,
  0x8d, 0xd0, 0x1a, 0x3d, 0xda, 0x87, 0xbf, 0x3b, 0x5b, 0x26, 0x04, 0x3e,
  0x80, 0x65, 0xed, 0x3d, 0x9c, 0x34, 0x31, 0x3e, 0xfa, 0xe1, 0x30, 0x3d,
  0xbc, 0xc6, 0x4d, 0xbd, 0xeb, 0xd4, 0x28, 0xbd, 0xe8, 0x6b, 0x2d, 0x3d,
  0x4d, 0x15, 0xc2, 0x3d, 0xcc, 0xd8, 0xd2, 0xbd, 0xf8, 0x62, 0xd2, 0x3d,
  0x18, 0xd2, 0x2a, 0xbe, 0xb5, 0x6c, 0xe2, 0xbd, 0x5a, 0x51, 0xb4, 0xbd,
  0x3f, 0x5d, 0x66, 0xbd, 0x89, 0xab, 0x16, 0xbe, 0x43, 0x6f, 0x13, 0xbe,
  0xc9, 0x5a, 0x58, 0xbd, 0x53, 0x95, 0x7c, 0xbb, 0xb5, 0x14, 0x98, 0xbd,
  0xb7, 0xa4, 0xd9, 0xbd, 0x5b, 0xb3, 0x91, 0x3c, 0xcc, 0x34, 0x2a, 0xbe,
  0xad, 0x51, 0x00, 0x3b, 0xc5, 0x9e, 0xdb, 0xbd, 0xe1, 0x8a, 0xc3, 0xbd,
  0x23, 0x0a, 0x9b, 0x3d, 0x7a, 0x32, 0xb1, 0xbd, 0xea, 0x51, 0x91, 0xbd,
  0x2e, 0x21, 0xad, 0x3d, 0x04, 0x11, 0xa7, 0xbc, 0x27, 0xca, 0x28, 0x3d,
  0x86, 0x54, 0xc7, 0x3d, 0x05, 0xf1, 0x1f, 0x3e, 0x1e, 0x16, 0x1b, 0x3e,
  0xb3, 0xe8, 0x4b, 0x3e, 0xbb, 0x9d, 0x64, 0x3e, 0x07, 0xeb, 0x65, 0x3d,
  0x08, 0xc4, 0x49, 0x3d, 0x7c, 0xd4, 0x11, 0x3e, 0xaa, 0xbb, 0xb4, 0x3c,
  0xf2, 0x9a, 0xdf, 0x3d, 0xc5, 0x99, 0x23, 0x3e, 0xd7, 0x6d, 0xa3, 0x3d,
  0x95, 0xf9, 0x05, 0x3e, 0xff, 0x63, 0x31, 0x3e, 0xe5, 0xba, 0x7c, 0x3d,
  0x13, 0xe5, 0x60, 0x3e, 0x6e, 0x59, 0x1d, 0x3e, 0xf4, 0x02, 0xaa, 0x3d,
  0x3e, 0xac, 0x7d, 0x3e, 0x3b, 0xae, 0x67, 0x3d, 0xca, 0xc4, 0x41, 0x3e,
  0x08, 0x68, 0x84, 0x3e, 0x9e, 0x50, 0x38, 0x3e, 0xa0, 0xf4, 0xe7, 0x3d,
  0x0d, 0x41, 0x7b, 0x3d, 0x70, 0xe5, 0xc5, 0x3d, 0x65, 0x51, 0x41, 0x3e,
  0x16, 0x15, 0x92, 0x3e, 0xbc, 0x06, 0x9c, 0x3e, 0xda, 0xd8, 0x89, 0x3e,
  0xdf, 0x45, 0x88, 0x3e, 0xc0, 0xc6, 0x9a, 0x3e, 0x30, 0x13, 0x82, 0x3e,
  0xa1, 0x54, 0xe6, 0x3d, 0x00, 0xba, 0x2f, 0x3e, 0x43, 0x32, 0x1c, 0x3e,
  0x4d, 0xa4, 0x6c, 0x3e, 0x0f, 0x79, 0xeb, 0x3d, 0xd8, 0xce, 0x78, 0x3e,
  0x02, 0xb7, 0x28, 0x3e, 0x7b, 0xe1, 0xae, 0x3e, 0x06, 0x6a, 0xa1, 0x3e,
  0xa1, 0x42, 0x6f, 0x3e, 0x42, 0x7d, 0x3d, 0x3e, 0x60, 0x0a, 0xa4, 0x3e,
  0x93, 0x7a, 0x9a, 0x3e, 0x10, 0x11, 0xb1, 0x3e, 0x08, 0xa3, 0x23, 0x3e,
  0x55, 0x96, 0x82, 0x3e, 0x88, 0xd2, 0x77, 0x3e, 0xbe, 0x34, 0x6e, 0x3e,
  0x0f, 0x8a, 0x83, 0x3e, 0xde, 0xd7, 0x6c, 0x3e, 0x1f, 0x77, 0x6c, 0x3e,
  0xd2, 0x19, 0x4a, 0x3e, 0x7c, 0xd9, 0xa0, 0x3e, 0x85, 0xbe, 0xb7, 0x3e,
  0x23, 0x22, 0xbb, 0x3e, 0x39, 0x5f, 0x98, 0x3e, 0xa2, 0xb4, 0x23, 0x3e,
  0x3f, 0x7a, 0xb6, 0x3e, 0x00, 0xc1, 0x11, 0x3e, 0x04, 0x76, 0x8b, 0x3e,
  0x2a, 0x4c, 0x91, 0x3e, 0xd8, 0xdc, 0xb4, 0x3e, 0xde, 0x76, 0xd5, 0x3d,
  0xe0, 0xdc, 0xcd, 0x3c, 0x80, 0x31, 0x15, 0x3b, 0x3f, 0xa3, 0xa9, 0xbd,
  0xe0, 0xa0, 0x8a, 0xbd, 0xfe, 0x18, 0xee, 0xbd, 0x76, 0xce, 0xe8, 0xbd,
  0xa0, 0x45, 0xe6, 0x3c, 0x42, 0x82, 0x8d, 0xbd, 0xa4, 0xba, 0xbc, 0xbd,
  0xa8, 0x5c, 0x8b, 0xbd, 0x1c, 0x38, 0x50, 0x3d, 0xd8, 0xa3, 0x74, 0x3d,
  0x7b, 0x68, 0xac, 0xbd, 0xb8, 0x8f, 0xd7, 0x3d, 0xcb, 0xee, 0xf4, 0xbd,
  0x52, 0x62, 0x94, 0xbd, 0x36, 0x74, 0xad, 0xbd, 0x20, 0xd4, 0x89, 0xbd,
  0xbc, 0x62, 0xe6, 0x3d, 0xbc, 0xb8, 0x74, 0x3d, 0x10, 0x1b, 0x3b, 0x3c,
  0xf0, 0x60, 0x5a, 0xbc, 0xb4, 0x66, 0x7c, 0x3d, 0x9f, 0xa7, 0xa2, 0xbd,
  0x2b, 0x97, 0x8f, 0xbd, 0x70, 0x15, 0xed, 0x3c, 0xba, 0x07, 0xa7, 0x3d,
  0xf0, 0x7a, 0xcb, 0x3c, 0x40, 0xf8, 0x1a, 0x3d, 0xa8, 0xd2, 0x81, 0x3c,
  0x70, 0x2a, 0x7b, 0x3d, 0xe4, 0xc2, 0xc0, 0x3d, 0x65, 0xd3, 0x97, 0xbd,
  0xe4, 0x02, 0xb0, 0x3d, 0xe0, 0x43, 0xd2, 0x3b, 0xb0, 0x82, 0x10, 0xbd,
  0xa0, 0x18, 0x21, 0xbc, 0xf2, 0xf0, 0x32, 0xbd, 0x4a, 0x7d, 0x10, 0xbd,
  0x10, 0x5b, 0x39, 0x3d, 0x28, 0x20, 0x9d, 0x3c, 0x4c, 0xa1, 0x46, 0x3d,
  0x20, 0x99, 0xd4, 0x3c, 0x0e, 0x81, 0xc9, 0xbd, 0xc2, 0x2c, 0x86, 0xbd,
  0x0f, 0x2f, 0x9c, 0xbd, 0x62, 0xa7, 0xa5, 0xbd, 0x04, 0x68, 0xd0, 0xbc,
  0x00, 0x73, 0x0a, 0xbd, 0xd0, 0x2e, 0x05, 0xbc, 0x64, 0x9c, 0x00, 0xbd,
  0xb0, 0xfd, 0x29, 0x3c, 0xca, 0x70, 0x8b, 0xbd, 0x58, 0x74, 0x85, 0x3c,
  0xb4, 0x19, 0x79, 0x3d, 0xd8, 0x5a, 0xc4, 0xbc, 0xc0, 0x2f, 0x99, 0xbd,
  0x6c, 0x85, 0x73, 0x3d, 0x50, 0x7b, 0xae, 0x3d, 0x76, 0x64, 0xca, 0xbd,
  0xd4, 0xcc, 0x77, 0xbd, 0x70, 0xe4, 0x4e, 0x3d, 0x7e, 0x8d, 0x15, 0xbd,
  0x40, 0x71, 0xf4, 0x3d, 0x48, 0xe4, 0x17, 0xbc, 0x40, 0x72, 0xba, 0x3d,
  0x50, 0xee, 0x7c, 0x3d, 0x27, 0xb5, 0xc1, 0xbd, 0x34, 0xd1, 0xdf, 0x3d,
  0x34, 0xc0, 0x6a, 0xbd, 0x8d, 0x53, 0x71, 0xbd, 0xde, 0x3d, 0x9c, 0x3d,
  0x48, 0x08, 0xf0, 0x3d, 0xec, 0xd9, 0xc6, 0xbd, 0x0b, 0x66, 0xea, 0xbd,
  0xfc, 0x33, 0x18, 0x3d, 0x30, 0x90, 0xc3, 0x3d, 0xea, 0xb1, 0xa6, 0xbd,
  0xa4, 0xa8, 0xd3, 0xbd, 0xa2, 0xbe, 0x95, 0x3d, 0xe2, 0x82, 0x5f, 0xbd,
  0xa8, 0xe8, 0x58, 0x3d, 0x60, 0x18, 0x46, 0xbc, 0x9c, 0xc3, 0x45, 0xbd,
  0x15, 0x1a, 0xee, 0xbd, 0x1c, 0x7a, 0x07, 0x3d, 0x18, 0xa2, 0xf4, 0x3c,
  0x84, 0x3d, 0xa6, 0x3d, 0x54, 0xe6, 0x0a, 0xbd, 0xc0, 0x5e, 0xea, 0x3c,
  0x10, 0x3d, 0x72, 0x3c, 0x70, 0xa6, 0xe1, 0xbb, 0x70, 0x4e, 0x2d, 0xbd,
  0x88, 0xe9, 0xc7, 0xbd, 0x6e, 0x3c, 0x67, 0xbd, 0x67, 0x30, 0xec, 0xbd,
  0x5c, 0xbb, 0xf7, 0xbc, 0xf0, 0x26, 0xa0, 0x3d, 0x58, 0xb1, 0x7c, 0xbc,
  0x40, 0xc0, 0xdc, 0x3b, 0xe4, 0x18, 0xbf, 0x3d, 0x9c, 0x0c, 0xa7, 0x3d,
  0x28, 0xda, 0xea, 0xbc, 0x49, 0x5c, 0xbf, 0xbd, 0x04, 0xb7, 0xef, 0x3d,
  0x28, 0x22, 0xe5, 0xbc, 0x68, 0x59, 0xf1, 0x3c, 0x7a, 0x82, 0xac, 0xbd,
  0x10, 0x50, 0x50, 0x3d, 0x7c, 0x77, 0x36, 0xbd, 0x98, 0xed, 0x37, 0x3d,
  0x84, 0xa7, 0x11, 0x3d, 0xa0, 0xca, 0x88, 0xbc, 0x90, 0xe2, 0xcd, 0x3c,
  0x0c, 0x11, 0x9f, 0x3d, 0x54, 0x18, 0x9f, 0x3d, 0x70, 0x9e, 0x84, 0xbc,
  0xd0, 0xf8, 0xc7, 0x3d, 0xcc, 0xc0, 0x9b, 0xbc, 0xf0, 0x7b, 0x4f, 0x3c,
  0x00, 0xda, 0x98, 0x3d, 0x1c, 0x93, 0x23, 0xbd, 0xcc, 0xa5, 0xd1, 0xbd,
  0xa0, 0x69, 0x03, 0xbb, 0xb6, 0x8e, 0x44, 0xbd, 0xe0, 0xdf, 0x67, 0x3c,
  0x30, 0x92, 0x95, 0xbd, 0xfa, 0x5c, 0xf3, 0x3d, 0xdc, 0x23, 0xe5, 0x3d,
  0x64, 0xa2, 0xcc, 0x3d, 0x78, 0x25, 0xdd, 0xbd, 0xf3, 0x14, 0xc3, 0xbd,
  0xc0, 0x99, 0xce, 0x3b, 0xb8, 0x14, 0xce, 0x3c, 0x7a, 0x8d, 0x54, 0xbd,
  0x20, 0xb6, 0xf7, 0x3d, 0x73, 0x92, 0x9d, 0xbd, 0xe9, 0xb9, 0xef, 0xbd,
  0x60, 0xc6, 0x77, 0xbb, 0x6c, 0xd2, 0x52, 0xbd, 0xa0, 0x82, 0xe4, 0x3b,
  0x02, 0xf5, 0xb6, 0xbd, 0x0c, 0x19, 0x84, 0xbd, 0xfe, 0xfa, 0xcc, 0xbd,
  0xcc, 0x51, 0x58, 0x3d, 0x4c, 0xf7, 0x27, 0x3d, 0xc0, 0x77, 0xbb, 0x3c,
  0x5f, 0x20, 0x73, 0xbd, 0x01, 0x45, 0xdb, 0xbd, 0x49, 0x6e, 0xeb, 0xbd,
  0x82, 0x96, 0xe5, 0xbd, 0x68, 0x71, 0xe1, 0xbc, 0x90, 0x57, 0x47, 0x3d,
  0x1c, 0x93, 0x78, 0x3d, 0x1c, 0x2b, 0x4e, 0x3d, 0xb7, 0x65, 0xe8, 0xbd,
  0xe2, 0xe7, 0xb6, 0x3d, 0xba, 0x99, 0xcf, 0x3d, 0x00, 0x86, 0xf5, 0xb9,
  0x88, 0xb9, 0x5a, 0x3d, 0x34, 0x36, 0x40, 0xbd, 0xd4, 0x3c, 0xc3, 0x3d,
  0x68, 0x6d, 0xa0, 0xbc, 0x0d, 0x3f, 0xa0, 0xbd, 0xc4, 0x3c, 0x2c, 0xbd,
  0x2e, 0x42, 0x1e, 0xbd, 0xb8, 0x1f, 0xb6, 0xbc, 0x08, 0x1a, 0xb3, 0xbc,
  0x90, 0x3b, 0x10, 0x3d, 0x4f, 0x69, 0xe8, 0xbd, 0x68, 0x59, 0x03, 0x3d,
  0xc6, 0xfb, 0x94, 0x3d, 0x0b, 0x27, 0xe6, 0xbd, 0x38, 0x6f, 0xc7, 0xbd,
  0xb2, 0x00, 0xc8, 0x3d, 0xc0, 0x56, 0xa3, 0xbd, 0x68, 0xdc, 0xd4, 0x3c,
  0x76, 0x34, 0xb3, 0x3d, 0x58, 0x5c, 0x59, 0xbc, 0x18, 0xa8, 0xaf, 0x3d,
  0x4c, 0xba, 0x86, 0x3d, 0x00, 0xa6, 0xc7, 0x3b, 0x08, 0xb3, 0xb0, 0xbd,
  0x42, 0x55, 0xef, 0x3d, 0x80, 0x88, 0x1c, 0x3a, 0xf4, 0x78, 0x4c, 0x3d,
  0x30, 0x0e, 0xdb, 0x3c, 0xab, 0x54, 0x7b, 0xbd, 0xa0, 0x8b, 0xb3, 0x3d,
  0xe8, 0x99, 0x94, 0x3d, 0x50, 0xfb, 0xe8, 0x3d, 0x10, 0x99, 0x9b, 0xbb,
  0x93, 0x6e, 0x8f, 0xbd, 0x90, 0x7c, 0x65, 0xbc, 0x6c, 0xe7, 0xce, 0xbc,
  0x5c, 0x81, 0x17, 0xbd, 0xee, 0x82, 0x8c, 0x3d, 0xb0, 0xbb, 0xbd, 0x3d,
  0x5a, 0xeb, 0x1d, 0xbd, 0x88, 0xc6, 0x8e, 0x3c, 0xa0, 0xc7, 0x49, 0x3d,
  0xcc, 0x23, 0x8b, 0xbd, 0xec, 0x6c, 0x4b, 0x3d, 0xac, 0x7f, 0xeb, 0x3d,
  0x70, 0x42, 0xa5, 0xbb, 0xfc, 0xd0, 0x96, 0x3d, 0xa0, 0x6e, 0x91, 0x3c,
  0xc0, 0x0d, 0x1a, 0xbb, 0x1d, 0x13, 0xb7, 0xbd, 0x9b, 0x99, 0x8c, 0xbd,
  0xa0, 0xb1, 0x30, 0x3c, 0x10, 0x7d, 0xfe, 0xbc, 0x5a, 0x59, 0x8f, 0xbd,
  0xc0, 0x1c, 0x79, 0xbb, 0x2c, 0x91, 0xab, 0x3d, 0x00, 0xa4, 0x1b, 0x3d,
  0x0a, 0x8f, 0x9c, 0x3d, 0xe6, 0x02, 0x2a, 0xbd, 0xd1, 0x00, 0xf1, 0xbd,
  0xd4, 0x04, 0x97, 0x3d, 0xf0, 0xab, 0xed, 0x3c, 0xea, 0xe8, 0x4a, 0xbd,
  0x9a, 0x70, 0xd3, 0xbd, 0xf2, 0xb9, 0x8e, 0x3d, 0xf7, 0x85, 0x9b, 0xbd,
  0x78, 0xdc, 0x86, 0x3c, 0x1e, 0x04, 0x48, 0xbd, 0xb8, 0x4c, 0x80, 0x3d,
  0x00, 0x66, 0x90, 0xbc, 0xe2, 0xc3, 0xe2, 0x3d, 0xa4, 0x80, 0x44, 0x3d,
  0x13, 0xa0, 0xf1, 0xbd, 0x60, 0x40, 0x33, 0xbd, 0x1b, 0xc4, 0xdc, 0xbd,
  0x30, 0xe9, 0x63, 0x3d, 0x82, 0xba, 0x6a, 0xbd, 0x00, 0xe1, 0x62, 0xbb,
  0xca, 0xa4, 0x3a, 0xbd, 0xae, 0xb8, 0xdb, 0xbd, 0x8a, 0xf9, 0x91, 0xbd,
  0x78, 0xa2, 0x2b, 0xbc, 0xa2, 0xa2, 0xb3, 0xbd, 0xe2, 0x67, 0x5b, 0xbd,
  0xde, 0x07, 0xab, 0x3d, 0x21, 0xa8, 0x9c, 0xbd, 0xe0, 0x6a, 0x77, 0xbd,
  0x2c, 0x9e, 0x15, 0x3d, 0x70, 0x21, 0xb7, 0x3d, 0x8d, 0xc4, 0xda, 0xbd,
  0xa8, 0x08, 0x85, 0x3d, 0xf4, 0x72, 0xf7, 0xbd, 0xd8, 0x58, 0xb0, 0x3c,
  0xc8, 0x06, 0x88, 0xbd, 0xb2, 0xba, 0x80, 0xbd, 0x72, 0x35, 0xb3, 0x3d,
  0x46, 0xb5, 0x17, 0xbd, 0x6c, 0xe8, 0xd1, 0xbc, 0x68, 0xeb, 0x66, 0x3d,
  0x86, 0x31, 0x52, 0x3b, 0x39, 0x55, 0x13, 0xbe, 0x05, 0xfe, 0xf5, 0xbd,
  0xd9, 0x72, 0x83, 0xbe, 0x75, 0x71, 0x5b, 0xbe, 0x67, 0x6a, 0x3b, 0xbd,
  0x8b, 0xe8, 0xa1, 0xbc, 0x42, 0x6b, 0xbb, 0xbd, 0x33, 0x04, 0xaa, 0xbd,
  0x5d, 0xef, 0xc7, 0x3d, 0x4e, 0x71, 0x11, 0xbd, 0xa9, 0xf5, 0x07, 0x3e,
  0xab, 0x72, 0x74, 0x3e, 0x1a, 0x41, 0xc6, 0x3d, 0x7b, 0xe4, 0xa0, 0x3e,
  0x0c, 0xbf, 0xdb, 0x3d, 0x55, 0x54, 0x6b, 0x3e, 0x48, 0x10, 0xf1, 0x3d,
  0x92, 0x89, 0xf9, 0x3d, 0xdd, 0x24, 0x82, 0x3e, 0xd7, 0x96, 0x3d, 0x3e,
  0xb6, 0x34, 0xf4, 0x3c, 0x35, 0x84, 0xbd, 0xbc, 0x06, 0xc0, 0xe4, 0xbc,
  0xa4, 0x8e, 0x44, 0xbe, 0x89, 0xd8, 0x3f, 0xbe, 0xd3, 0x27, 0x8b, 0xbe,
  0x51, 0xd4, 0x9c, 0xbe, 0xda, 0x33, 0xf1, 0xbd, 0x10, 0xda, 0x9d, 0xbe,
  0xed, 0xac, 0x9e, 0xbe, 0x46, 0x49, 0x15, 0xbe, 0x05, 0x29, 0x09, 0xbe,
  0xd6, 0x9a, 0xb0, 0xbd, 0x70, 0xe9, 0x97, 0xbd, 0x3d, 0x86, 0x36, 0xbe,
  0xe7, 0x02, 0xb7, 0xbd, 0x87, 0x1d, 0x23, 0xbe, 0x38, 0xb3, 0xd6, 0xbd,
  0x7c, 0x48, 0xb1, 0x3d, 0x17, 0x3b, 0x84, 0x3c, 0x71, 0xf2, 0xec, 0xbc,
  0x5d, 0x86, 0xf1, 0xbb, 0x69, 0xfe, 0x2b, 0x3e, 0x7b, 0xca, 0xaf, 0x3d,
  0xa4, 0x1b, 0x78, 0x3e, 0xac, 0x58, 0x3c, 0x3e, 0x40, 0xa8, 0x57, 0x3e,
  0x68, 0x9a, 0x77, 0x3e, 0x6e, 0xf0, 0x6f, 0x3e, 0xbd, 0x5a, 0x9a, 0x3e,
  0x54, 0x26, 0x87, 0x3e, 0xb8, 0x48, 0xb7, 0x3e, 0x54, 0xa3, 0xa6, 0x3e,
  0x23, 0x07, 0x33, 0x3e, 0x4c, 0x7c, 0xb6, 0x3c, 0x5e, 0x0f, 0x7f, 0x3d,
  0xf5, 0x72, 0x2d, 0xbe, 0xb2, 0x12, 0x25, 0xbe, 0xe8, 0x12, 0x95, 0xbd,
  0x2d, 0x22, 0x43, 0xbe, 0xc4, 0x2a, 0x7a, 0xbe, 0x6f, 0xa2, 0x51, 0xbe,
  0xcb, 0xdd, 0x4e, 0xbe, 0xfd, 0x1d, 0xf5, 0xbd, 0x23, 0xef, 0x98, 0xbe,
  0x21, 0x56, 0x8c, 0xbe, 0x6d, 0x39, 0x83, 0xbe, 0x7c, 0xa7, 0x8a, 0xbe,
  0x75, 0x61, 0x08, 0xbe, 0x9d, 0xfb, 0x9b, 0xbe, 0x14, 0x79, 0x48, 0xbe,
  0xe1, 0x5e, 0x51, 0xbe, 0x91, 0x91, 0x95, 0xbe, 0xd7, 0xf6, 0x5c, 0xbe,
  0x76, 0x84, 0xa5, 0xbd, 0x7a, 0x2d, 0x81, 0xbe, 0x6b, 0xe0, 0x19, 0xbe,
  0xd4, 0xbc, 0x0d, 0xbe, 0xd9, 0x33, 0x71, 0xbd, 0xa4, 0x6a, 0xfa, 0xbd,
  0xf9, 0x90, 0x01, 0xbe, 0x4e, 0x60, 0x28, 0x3d, 0xd3, 0xe0, 0x4a, 0x3d,
  0x4c, 0x80, 0x2e, 0xbe, 0x0b, 0xff, 0x08, 0xbe, 0xa9, 0x98, 0x88, 0xb9,
  0x7e, 0x67, 0x92, 0x3d, 0x76, 0xb9, 0x9b, 0x3d, 0xe7, 0x70, 0x9b, 0xbc,
  0xca, 0x0f, 0xca, 0x3d, 0x95, 0xb6, 0xf0, 0x3d, 0xee, 0xcc, 0xcb, 0xbd,
  0x9d, 0x95, 0x24, 0xbd, 0x1a, 0xbe, 0xc4, 0x3d, 0x93, 0xfa, 0xa4, 0x3d,
  0xe3, 0x81, 0x1b, 0xbb, 0x62, 0x66, 0xfe, 0xbc, 0xc4, 0xdb, 0xa4, 0xbd,
  0x17, 0xd8, 0x0a, 0xbc, 0xb4, 0xe8, 0x14, 0x3d, 0xfb, 0xb6, 0x46, 0xbd,
  0xc4, 0xaa, 0x1e, 0xbe, 0xfa, 0x34, 0x93, 0xbd, 0x57, 0x14, 0x35, 0x3c,
  0x77, 0xb5, 0x09, 0x3d, 0x3c, 0xf9, 0x4b, 0xbd, 0xa9, 0x80, 0xcf, 0x3c,
  0xdd, 0xb5, 0x47, 0xbd, 0x66, 0x7d, 0x0e, 0x3e, 0x76, 0x2c, 0xe2, 0xbd,
  0x1e, 0xed, 0x01, 0x3e, 0xb9, 0x07, 0x93, 0xbd, 0xc4, 0xd5, 0x00, 0xbc,
  0xda, 0x04, 0xce, 0x3d, 0x8b, 0x68, 0x55, 0xbd, 0x1b, 0xa6, 0xd4, 0xbb,
  0xe6, 0x07, 0x11, 0xbc, 0xf1, 0x89, 0xc2, 0xbc, 0x96, 0x22, 0x66, 0x3d,
  0x1b, 0xa0, 0x98, 0xbd, 0x95, 0xa8, 0x3a, 0x39, 0xaa, 0xb6, 0xc2, 0x3d,
  0x54, 0xb3, 0x01, 0x3d, 0xf1, 0x97, 0xe3, 0xbd, 0x6a, 0x77, 0x48, 0xbd,
  0xa8, 0xd4, 0x74, 0xbc, 0x28, 0x14, 0x04, 0x3d, 0x00, 0xab, 0x8e, 0x3a,
  0xfa, 0x05, 0xcf, 0xbd, 0x5e, 0x45, 0x8d, 0xbd, 0xbc, 0x47, 0xd6, 0x3d,
  0x68, 0xfd, 0x50, 0xbc, 0x34, 0xa8, 0xf7, 0xbc, 0xa8, 0x7f, 0x72, 0xbc,
  0x66, 0x58, 0xe6, 0x3d, 0x2e, 0xc4, 0x8d, 0x3d, 0xe6, 0xb3, 0x58, 0xbd,
  0xd0, 0x45, 0xe3, 0x3d, 0x90, 0x07, 0x02, 0x3d, 0x7a, 0x7d, 0xd9, 0xbd,
  0x08, 0x32, 0x7f, 0xbd, 0x76, 0x80, 0xa7, 0x3d, 0xd5, 0xc9, 0xaf, 0xbd,
  0xb0, 0xd5, 0x86, 0xbd, 0x72, 0x36, 0xf6, 0x3d, 0xf0, 0x0d, 0x52, 0x3c,
  0xab, 0x44, 0xaa, 0xbd, 0x6c, 0x59, 0xb7, 0x3d, 0xa3, 0x62, 0xbb, 0xbd,
  0x20, 0x9f, 0x60, 0x3c, 0x4b, 0x81, 0xf3, 0xbd, 0x00, 0x45, 0x06, 0x3d,
  0xcc, 0x0c, 0x6e, 0x3d, 0x4f, 0xd4, 0xb3, 0xbd, 0x96, 0xde, 0xed, 0xbd,
  0x48, 0x3c, 0x5f, 0x3d, 0xa0, 0x9b, 0x09, 0x3d, 0x68, 0xce, 0x1d, 0x3d,
  0x6c, 0xe7, 0x02, 0x3d, 0xc6, 0x62, 0xdf, 0x3d, 0x52, 0x55, 0x98, 0x3d,
  0x90, 0x2c, 0xf1, 0x3d, 0x00, 0x57, 0xf3, 0xbd, 0x6a, 0x1b, 0x97, 0x3d,
  0x1c, 0x7e, 0x29, 0xbd, 0xd8, 0xe2, 0x14, 0x3d, 0x8e, 0x80, 0xbd, 0x3d,
  0x30, 0x53, 0xa1, 0xbb, 0xb2, 0x32, 0x84, 0xbd, 0xc0, 0xf8, 0x31, 0x3b,
  0xcd, 0xd6, 0xef, 0xbd, 0x98, 0xe8, 0xc5, 0x3c, 0x44, 0xdc, 0xbb, 0xbd,
  0x38, 0xda, 0xf9, 0xbc, 0xf4, 0x01, 0xf4, 0xbc, 0x00, 0x4d, 0x6b, 0x3c,
  0x38, 0xab, 0x68, 0xbc, 0xe4, 0x4b, 0xa0, 0x3d, 0xe0, 0x19, 0x9d, 0x3d,
  0xaa, 0x3c, 0x8e, 0x3d, 0x48, 0xfe, 0xc9, 0x3c, 0x50, 0xda, 0x7b, 0x3d,
  0xc4, 0xdb, 0x52, 0x3d, 0xd0, 0x5c, 0xde, 0xbc, 0x18, 0x23, 0xeb, 0xbc,
  0x9e, 0x44, 0xd1, 0x3d, 0x7f, 0x5c, 0x89, 0xbd, 0x4f, 0xcb, 0xc6, 0xbd,
  0x8e, 0xf0, 0xa4, 0x3d, 0x8c, 0xd8, 0xb0, 0x3d, 0xd6, 0x65, 0xf1, 0x3d,
  0x5c, 0xbd, 0xdc, 0xbd, 0xfa, 0xba, 0xcc, 0x3d, 0xb0, 0x1e, 0x3d, 0x3c,
  0x20, 0xe4, 0xe8, 0x3d, 0x58, 0x85, 0x65, 0xbd, 0x90, 0x97, 0xad, 0xbc,
  0x6e, 0xfd, 0x03, 0xbd, 0xb4, 0xec, 0x5c, 0x3d, 0x78, 0x04, 0xaf, 0x3c,
  0xf8, 0x58, 0x38, 0x3d, 0xcd, 0x0b, 0xf3, 0xbd, 0x6c, 0x92, 0x4a, 0x3d,
  0xd6, 0x3d, 0x32, 0xbd, 0x06, 0xbd, 0xa6, 0xbd, 0x48, 0x1c, 0x05, 0x3d,
  0x94, 0x95, 0xf2, 0x3d, 0xa0, 0xce, 0xdf, 0x3c, 0x70, 0x3e, 0x26, 0x3c,
  0x7c, 0xab, 0x9b, 0x3d, 0x50, 0x7c, 0x74, 0x3d, 0xd0, 0xec, 0x5f, 0x3d,
  0xe8, 0x44, 0x8f, 0xbc, 0xdb, 0xa1, 0x8b, 0xbd, 0xfa, 0xff, 0x86, 0xbd,
  0xd2, 0xa2, 0xca, 0xbd, 0xa4, 0x30, 0x97, 0x3d, 0x48, 0x39, 0x2b, 0xbd,
  0xf8, 0x48, 0x28, 0xbd, 0xa8, 0xc6, 0x06, 0x3d, 0xd6, 0x14, 0x03, 0xbd,
  0x6e, 0xc1, 0xac, 0x3d, 0x80, 0xb7, 0xea, 0xbb, 0xf5, 0x9a, 0xc1, 0xbd,
  0x2a, 0xcf, 0x14, 0xbd, 0x5c, 0x13, 0xa5, 0x3d, 0x08, 0xdb, 0x43, 0x3d,
  0x78, 0x7b, 0xd2, 0x3d, 0x04, 0xf2, 0x8f, 0xbc, 0x70, 0xee, 0x9b, 0xbd,
  0xf8, 0x98, 0xc7, 0x3d, 0x60, 0x73, 0x36, 0x3c, 0x77, 0xdb, 0x79, 0xbd,
  0x74, 0x8e, 0xce, 0x3d, 0x86, 0x30, 0xec, 0x3d, 0x0d, 0x49, 0xf0, 0xbd,
  0xaa, 0xfd, 0xe4, 0xbd, 0x8a, 0x2a, 0x95, 0xbd, 0xe0, 0x2b, 0xa8, 0x3d,
  0x80, 0x09, 0x0b, 0x3d, 0x02, 0x54, 0xa2, 0x3d, 0xef, 0xc6, 0xf7, 0xbd,
  0xc2, 0x5e, 0xd4, 0x3d, 0x24, 0xf5, 0x20, 0x3d, 0x74, 0x5b, 0x63, 0x3d,
  0x68, 0x8e, 0x89, 0xbc, 0x0c, 0xc7, 0xa5, 0xbd, 0xba, 0x06, 0xb7, 0xbd,
  0xf0, 0x9f, 0xbc, 0xbc, 0x14, 0x23, 0x79, 0xbd, 0x32, 0x91, 0xad, 0xbd,
  0xa4, 0xec, 0x20, 0x3d, 0xf5, 0x29, 0xe9, 0xbd, 0x20, 0x6e, 0x04, 0x3c,
  0xa0, 0xeb, 0xd9, 0x3c, 0x76, 0x50, 0xab, 0x3d, 0x94, 0xf7, 0xf3, 0x3d,
  0xe4, 0x1c, 0x8f, 0xbc, 0x64, 0x07, 0x61, 0x3d, 0x11, 0x96, 0x71, 0xbd,
  0xd4, 0xb4, 0xf5, 0x3d, 0x1c, 0x77, 0x17, 0x3d, 0xcc, 0xcf, 0xdb, 0xbd,
  0xcc, 0x2d, 0x4a, 0x3d, 0x40, 0xf3, 0xc8, 0xbb, 0x9c, 0xa2, 0x20, 0xbd,
  0x44, 0x98, 0x6d, 0x3d, 0xe6, 0xba, 0x0e, 0xbd, 0x2c, 0x88, 0x20, 0xbd,
  0x84, 0xb9, 0x9b, 0x3d, 0x19, 0xfd, 0xaf, 0xbd, 0xac, 0x3b, 0xe6, 0xbd,
  0x80, 0x6b, 0x6a, 0xbd, 0x2a, 0x98, 0x8c, 0x3d, 0xd8, 0xb0, 0xf1, 0xbc,
  0x12, 0x12, 0xa5, 0xbd, 0x44, 0x61, 0xf7, 0xbc, 0x52, 0x65, 0x4f, 0xbd,
  0xb4, 0x07, 0x66, 0x3d, 0xc8, 0x42, 0xb0, 0xbc, 0xb8, 0x29, 0xe4, 0x3d,
  0x10, 0xa8, 0x8d, 0xbd, 0x02, 0x22, 0xad, 0x3d, 0x4a, 0xe8, 0xb2, 0x3d,
  0x12, 0x3c, 0x34, 0xbd, 0x50, 0xc6, 0x3d, 0xbd, 0xa0, 0x6c, 0x9f, 0x3c,
  0xc0, 0x6e, 0x5c, 0x3c, 0x5e, 0x2b, 0xaa, 0xbd, 0x70, 0x44, 0x9b, 0xbd,
  0xd4, 0x4d, 0xcf, 0x3d, 0x30, 0x57, 0x47, 0xbc, 0x28, 0x87, 0x80, 0xbd,
  0x8f, 0x8e, 0xc5, 0xbd, 0x64, 0xcd, 0xb2, 0xbc, 0x40, 0xa7, 0xf4, 0xbc,
  0x1c, 0xfb, 0xc9, 0xbd, 0xbe, 0xd5, 0xef, 0x3d, 0xa3, 0x9d, 0xa1, 0xbd,
  0xc0, 0x61, 0xcc, 0x3b, 0x70, 0xf9, 0x52, 0x3c, 0x14, 0xe1, 0xc2, 0x3d,
  0xc4, 0xf3, 0xe4, 0x3d, 0x1c, 0x9c, 0x6e, 0x3d, 0x04, 0x88, 0xc7, 0x3d,
  0xb4, 0x55, 0x9a, 0x3d, 0x4c, 0x95, 0x80, 0xbd, 0x82, 0x65, 0xda, 0xbd,
  0xc2, 0x6a, 0xe6, 0x3d, 0xc8, 0x32, 0x84, 0x3d, 0x10, 0x51, 0xfe, 0xbb,
  0xbc, 0xaa, 0xe7, 0x3d, 0x3c, 0x87, 0x6b, 0x3d, 0x44, 0xfd, 0x9a, 0x3d,
  0x9c, 0xe3, 0x95, 0x3d, 0x3e, 0x33, 0x3d, 0xbd, 0xe0, 0x32, 0x84, 0x3b,
  0x92, 0xb3, 0xdb, 0x3d, 0xc5, 0xef, 0xac, 0xbd, 0x11, 0xbd, 0xb8, 0xbd,
  0x4c, 0x14, 0x4c, 0x3d, 0x3e, 0x92, 0xa4, 0x3d, 0x2c, 0x1d, 0xc6, 0xbc,
  0x12, 0xb4, 0xbf, 0x3d, 0x14, 0xdd, 0xa0, 0xbd, 0xd3, 0xe4, 0xda, 0xbd,
  0x55, 0xb5, 0xe3, 0xbd, 0xdc, 0xfe, 0x5c, 0xbd, 0x8c, 0x7a, 0x35, 0xbd,
  0x14, 0x52, 0xde, 0x3d, 0xfc, 0x7b, 0x9d, 0xbd, 0x08, 0xcb, 0xe1, 0x3d,
  0x0a, 0xe6, 0xb5, 0x3d, 0x64, 0x4e, 0xc2, 0xbd, 0x92, 0x0d, 0x07, 0xbd,
  0xdb, 0xbc, 0xc4, 0xbd, 0xf8, 0x04, 0xd5, 0x3d, 0xed, 0xc3, 0xe8, 0xbd,
  0xc0, 0x40, 0xd6, 0x3b, 0xd4, 0x44, 0xf6, 0xbc, 0x20, 0xc1, 0x82, 0xbc,
  0x0a, 0x8f, 0xba, 0x3d, 0x2c, 0x67, 0x95, 0x3d, 0xc0, 0xb7, 0xe4, 0x3d,
  0x30, 0xbe, 0x99, 0xbb, 0xd8, 0x14, 0x5b, 0x3d, 0x64, 0x65, 0xdd, 0x3d,
  0xe0, 0x83, 0x15, 0x3c, 0x04, 0xb2, 0x50, 0xbd, 0xd7, 0xc7, 0xef, 0xbd,
  0x20, 0xd5, 0x6d, 0xbb, 0x8f, 0xd1, 0x7f, 0xbd, 0xde, 0xdc, 0x90, 0x3d,
  0xea, 0xcc, 0xcb, 0xbd, 0x6c, 0xdd, 0x20, 0x3d, 0x66, 0x31, 0x8f, 0x3d,
  0x40, 0x94, 0x70, 0xbd, 0x90, 0x8c, 0x4b, 0x3c, 0xa9, 0xf6, 0x95, 0xbd,
  0xa0, 0xdf, 0x97, 0x3c, 0x12, 0x20, 0x8f, 0x3d, 0x26, 0x25, 0x6e, 0xbd,
  0xd3, 0xc5, 0xe3, 0xbd, 0x5a, 0xbb, 0x8f, 0xbd, 0x0c, 0x96, 0x3e, 0x3d,
  0x00, 0x8c, 0x7b, 0xba, 0x4a, 0x34, 0xf7, 0x3d, 0x70, 0x94, 0xa6, 0x3c,
  0xb8, 0x25, 0xeb, 0x3c, 0xd4, 0x93, 0xd4, 0x3d, 0xfe, 0x7c, 0xd1, 0x3d,
  0x86, 0x80, 0xb4, 0xbd, 0x58, 0x43, 0xcb, 0xbc, 0x40, 0x7c, 0xc2, 0x3c,
  0xde, 0x9f, 0xef, 0x3d, 0xaa, 0xf7, 0x24, 0xbd, 0xd0, 0xb3, 0x9b, 0xbc,
  0xf8, 0x17, 0xaa, 0x3d, 0x7b, 0x61, 0x76, 0xbd, 0x9a, 0x9e, 0xae, 0xbd,
  0x65, 0x99, 0x81, 0x3e, 0x0f, 0x1b, 0x9f, 0x3b, 0xcd, 0xb3, 0xe6, 0x3d,
  0x98, 0xdd, 0xb4, 0xbd, 0x90, 0x72, 0xcc, 0x3a, 0x39, 0xcc, 0x3c, 0x3e,
  0xdc, 0x03, 0xd8, 0x3d, 0xcc, 0x4f, 0x84, 0x3e, 0x3f, 0xda, 0x17, 0x3e,
  0x51, 0xac, 0xcb, 0x3d, 0x37, 0x61, 0x0b, 0x3e, 0xd4, 0xfb, 0x29, 0x3e,
  0xb6, 0x9d, 0x22, 0x3e, 0x87, 0xe7, 0x02, 0x3d, 0xac, 0x5c, 0xaa, 0x3d,
  0xe1, 0x01, 0x8c, 0x3d, 0x5b, 0xdb, 0xcc, 0x3d, 0xf3, 0x62, 0xf3, 0x3d,
  0x55, 0xc0, 0xa5, 0x3d, 0x4f, 0xeb, 0x94, 0x3c, 0x08, 0x84, 0xb5, 0xbb,
  0x23, 0x8c, 0x86, 0x3c, 0x50, 0x55, 0xc5, 0x3d, 0x0d, 0x47, 0xfd, 0x3c,
  0x61, 0x17, 0x8c, 0x3b, 0x2b, 0x1f, 0xc7, 0xbd, 0x2c, 0x8f, 0xde, 0xbd,
  0x7e, 0xdc, 0x80, 0xbd, 0xac, 0x4a, 0x7d, 0xbd, 0x3b, 0x6d, 0x3b, 0xbd,
  0x24, 0x11, 0x67, 0x3d, 0xcf, 0x11, 0xce, 0xbd, 0x20, 0xef, 0x8b, 0xbd,
  0x84, 0xe7, 0x24, 0x3a, 0x93, 0x69, 0xc3, 0xbb, 0x3d, 0xbf, 0x58, 0xbd,
  0xec, 0x6f, 0xf5, 0x3d, 0xeb, 0x75, 0x4a, 0x3d, 0x79, 0x61, 0xdb, 0x3d,
  0xb6, 0x65, 0x36, 0x3e, 0x5c, 0xfa, 0x1d, 0xbd, 0xed, 0xff, 0xdd, 0xbc,
  0x16, 0xda, 0x7a, 0x3d, 0x5e, 0xf6, 0x48, 0x3e, 0x01, 0xff, 0x07, 0x3e,
  0x67, 0xb3, 0xab, 0x3d, 0x7b, 0xcf, 0xd9, 0x3d, 0x35, 0x35, 0x5c, 0x3e,
  0xff, 0x4c, 0x3b, 0x3e, 0x81, 0x36, 0xd5, 0x3d, 0xf9, 0xed, 0xaf, 0x3d,
  0x10, 0x57, 0xe4, 0x3d, 0xe3, 0xed, 0xbe, 0x3d, 0x29, 0x0a, 0x97, 0x3d,
  0x5c, 0x30, 0xe4, 0x3d, 0x17, 0x1e, 0x26, 0x3e, 0x7a, 0x97, 0x0f, 0x3e,
  0x0a, 0x4b, 0x07, 0x3e, 0x83, 0x78, 0xc9, 0xbc, 0x27, 0x57, 0x95, 0x3d,
  0xe6, 0x21, 0xfd, 0xbd, 0xba, 0xcb, 0x8f, 0xbc, 0x27, 0xe7, 0x08, 0xbe,
  0xbb, 0x6e, 0x62, 0x3c, 0x17, 0x76, 0xb9, 0xbd, 0x60, 0x73, 0x6f, 0x3d,
  0x6c, 0xb2, 0x0b, 0x3e, 0x62, 0x1a, 0x3b, 0x3e, 0xbb, 0x18, 0x2b, 0x3e,
  0x3f, 0xff, 0x28, 0x3e, 0x14, 0xf2, 0x2a, 0x3e, 0x2f, 0x7b, 0x5d, 0x3e,
  0xfe, 0x30, 0x91, 0x3d, 0x24, 0x20, 0x9b, 0x3d, 0xe9, 0xd1, 0xbc, 0x3d,
  0xb1, 0xea, 0x7b, 0x3e, 0x51, 0xf0, 0x39, 0x3e, 0xb6, 0x77, 0x59, 0x3e,
  0x98, 0xba, 0x73, 0x3e, 0x84, 0x71, 0x1d, 0x3e, 0x6f, 0xcf, 0x99, 0x3e,
  0xc6, 0xd4, 0x64, 0x3e, 0xa0, 0xf4, 0x68, 0x3e, 0xff, 0xf7, 0x26, 0x3e,
  0x85, 0xd9, 0x44, 0x3e, 0x27, 0x58, 0x96, 0x3e, 0xa5, 0x55, 0x9a, 0x3e,
  0xbd, 0xb5, 0x88, 0x3e, 0xf6, 0x50, 0x9c, 0x3e, 0x9d, 0xe3, 0x9e, 0x3e,
  0xbf, 0x63, 0x9a, 0x3e, 0xce, 0x95, 0x17, 0x3e, 0x5f, 0x3f, 0x42, 0x3e,
  0x8e, 0x2c, 0xeb, 0x3d, 0x69, 0x07, 0x81, 0x3e, 0xf4, 0x32, 0x99, 0x3e,
  0x72, 0x54, 0x0a, 0x3e, 0x88, 0x93, 0x41, 0x3e, 0x4e, 0x50, 0x38, 0x3e,
  0x3b, 0x3d, 0xa1, 0x3e, 0x86, 0x10, 0x87, 0x3e, 0x20, 0xb0, 0xb7, 0x3e,
  0x50, 0x37, 0xbc, 0x3e, 0x29, 0xda, 0x5b, 0x3e, 0x6a, 0x04, 0x03, 0x3e,
  0x25, 0x63, 0x8c, 0x3e, 0x5f, 0x1b, 0x4b, 0x3e, 0xb6, 0x31, 0x5a, 0x3e,
  0x42, 0x0d, 0x3e, 0x3e, 0xa6, 0xd8, 0xb7, 0x3e, 0x54, 0xf0, 0x97, 0x3e,
  0x7b, 0xf1, 0x85, 0x3e, 0xc4, 0x81, 0x1b, 0x3e, 0xcd, 0xeb, 0x5a, 0x3e,
  0xa5, 0xc5, 0x92, 0x3e, 0x00, 0xe0, 0xa4, 0x3e, 0x76, 0x9c, 0xb7, 0x3e,
  0xa0, 0x96, 0xa6, 0x3e, 0x62, 0xd3, 0xb4, 0x3e, 0x82, 0x3a, 0x8c, 0x3e,
  0x6f, 0x6b, 0x86, 0x3e, 0xb9, 0xcf, 0xa8, 0x3e, 0x25, 0x91, 0x80, 0x3e,
  0xce, 0x1f, 0x8a, 0x3e, 0x3d, 0xf4, 0x9c, 0x3e, 0xbd, 0x15, 0xb6, 0x3e,
  0x57, 0xa6, 0x63, 0x3e, 0x0f, 0x24, 0xc1, 0x3e, 0xa0, 0x1b, 0x99, 0x3c,
  0x00, 0xc1, 0x33, 0x3c, 0x5e, 0x82, 0xdb, 0x3d, 0xd6, 0x5d, 0x0c, 0xbd,
  0x28, 0xf3, 0x8d, 0x3d, 0x5c, 0x4f, 0xa4, 0x3d, 0x26, 0xe8, 0xdd, 0x3d,
  0x00, 0xd4, 0xf9, 0xb9, 0xec, 0xd1, 0xa4, 0xbd, 0x30, 0xf3, 0x9b, 0x3c,
  0x8c, 0xd9, 0xb9, 0xbc, 0x95, 0x8d, 0xcb, 0xbd, 0xdf, 0x01, 0xa4, 0xbd,
  0x90, 0xe1, 0x0c, 0x3d, 0x00, 0xfb, 0xca, 0x3c, 0x7c, 0x01, 0x48, 0xbd,
  0xb0, 0xdf, 0xc6, 0xbc, 0xde, 0x21, 0x8d, 0xbd, 0x87, 0xb8, 0x74, 0xbd,
  0x5a, 0xec, 0xf0, 0x3d, 0x80, 0x5e, 0xa9, 0xbd, 0xe0, 0xd8, 0xdb, 0xbd,
  0x67, 0x2d, 0x99, 0xbd, 0x88, 0x0d, 0x1d, 0x3d, 0xb0, 0x8f, 0x84, 0x3d,
  0x8e, 0x09, 0xb9, 0xbd, 0x04, 0xc2, 0xb9, 0xbc, 0x7c, 0xc2, 0x17, 0x3d,
  0x30, 0xed, 0x0f, 0x3d, 0x06, 0xd4, 0xcf, 0x3d, 0x00, 0x08, 0xfc, 0xbc,
  0x00, 0xd8, 0xe6, 0xbb, 0x15, 0x78, 0x7a, 0xbd, 0x68, 0xfd, 0xa2, 0xbc,
  0xc8, 0xbb, 0x97, 0xbc, 0x50, 0xab, 0x0f, 0x3d, 0xf4, 0x5b, 0xae, 0xbd,
  0x50, 0xea, 0x44, 0x3c, 0xce, 0xa4, 0x99, 0x3d, 0xf4, 0xae, 0x82, 0xbd,
  0x20, 0xbe, 0xa9, 0x3c, 0xa0, 0x8f, 0x2a, 0x3d, 0x0e, 0xbc, 0x8d, 0xbd,
  0xc8, 0xbd, 0xbb, 0x3c, 0x7a, 0xeb, 0xbe, 0xbd, 0x88, 0x12, 0x2d, 0x3d,
  0xe0, 0x85, 0x29, 0xbc, 0x70, 0xbf, 0x73, 0xbc, 0xd0, 0x18, 0x0f, 0xbc,
  0x10, 0xd3, 0xa3, 0x3c, 0xcd, 0xa2, 0xd8, 0xbd, 0x62, 0xaa, 0x8d, 0xbd,
  0x53, 0x6f, 0xaa, 0xbd, 0x20, 0xc9, 0x71, 0x3c, 0x54, 0x88, 0xa0, 0xbd,
  0x68, 0xdf, 0x7f, 0xbc, 0x01, 0x83, 0x88, 0xbd, 0x10, 0xb7, 0xaf, 0xbb,
  0x50, 0x6b, 0xa2, 0xbb, 0xfe, 0x88, 0xd2, 0x3d, 0x7c, 0xc9, 0x6a, 0xbd,
  0xa8, 0xaf, 0x6a, 0x3d, 0x56, 0x45, 0x99, 0x3d, 0x34, 0xd5, 0xe5, 0x3d,
  0x30, 0xd4, 0x79, 0x3c, 0x58, 0xe6, 0x3b, 0xbc, 0x06, 0xf1, 0xec, 0x3d,
  0x08, 0xea, 0x6c, 0x3d, 0x9c, 0x66, 0x90, 0xbc, 0x66, 0xff, 0x55, 0xbd,
  0x20, 0x6c, 0x21, 0xbd, 0x26, 0x18, 0x75, 0xbd, 0x60, 0xaa, 0x0f, 0xbd,
  0x8e, 0x5d, 0xa2, 0x3d, 0x0c, 0x7d, 0x95, 0x3d, 0x08, 0x3d, 0x95, 0xbd,
  0xd8, 0xe7, 0xc1, 0xbd, 0xb4, 0xa5, 0x39, 0x3d, 0x5e, 0x40, 0x6f, 0xbd,
  0x67, 0x84, 0xc5, 0xbd, 0x65, 0xc4, 0x70, 0xbd, 0xe0, 0x1b, 0xd4, 0xbd,
  0x44, 0x54, 0x43, 0x3d, 0x90, 0x0f, 0xcd, 0xbd, 0xd0, 0x5f, 0x78, 0x3d,
  0xc0, 0x04, 0xf3, 0x3b, 0x92, 0xe0, 0x43, 0xbd, 0x80, 0x49, 0xe9, 0xbb,
  0xba, 0x59, 0xa9, 0x3d, 0xe0, 0xf2, 0x30, 0x3c, 0x16, 0x0a, 0x83, 0x3d,
  0x34, 0xe8, 0x5d, 0x3d, 0xe8, 0x0d, 0xe3, 0xbc, 0x57, 0x51, 0xa2, 0xbd,
  0x3e, 0x71, 0xbd, 0x3d, 0x54, 0x8b, 0xea, 0xbc, 0x18, 0xea, 0x9e, 0xbd,
  0x36, 0x5b, 0x00, 0xbd, 0xe0, 0xda, 0x64, 0x3d, 0x49, 0xd7, 0xf0, 0xbd,
  0x28, 0x7d, 0x13, 0x3d, 0x10, 0x0c, 0x34, 0xbc, 0x8c, 0x36, 0xbb, 0xbc,
  0x42, 0xbe, 0x74, 0xbd, 0x68, 0x13, 0x5e, 0x3d, 0x70, 0x2d, 0xa8, 0x3d,
  0xb6, 0xd2, 0x97, 0xbd, 0x38, 0xd6, 0x57, 0xbd, 0x7a, 0x02, 0xac, 0xbd,
  0x24, 0xf5, 0x06, 0xbd, 0xb9, 0x07, 0xc5, 0xbd, 0xaa, 0x26, 0xe2, 0xbd,
  0x60, 0x41, 0xa8, 0x3d, 0xc8, 0x18, 0x9a, 0x3d, 0xe8, 0xe4, 0x1b, 0x3d,
  0xc0, 0xff, 0xab, 0xba, 0x48, 0x80, 0xbf, 0x3c, 0x18, 0x34, 0xf7, 0x3c,
  0x9e, 0xb4, 0xba, 0xbd, 0x7c, 0x71, 0x8a, 0x3d, 0x00, 0x8e, 0xea, 0xbc,
  0xe0, 0x45, 0x3a, 0x3b, 0x80, 0x8e, 0x18, 0xbb, 0xc8, 0x90, 0x28, 0x3d,
  0xba, 0x2e, 0x66, 0xbd, 0xa4, 0x6f, 0x74, 0x3d, 0x58, 0x4e, 0xf7, 0xbc,
  0xc0, 0x12, 0x61, 0xbb, 0x1c, 0xb5, 0x6a, 0xbd, 0xe6, 0x9a, 0xd1, 0x3d,
  0xe0, 0x0f, 0x5b, 0xbd, 0xec, 0x54, 0x3e, 0x3d, 0x1a, 0x37, 0xc2, 0x3d,
  0xb4, 0x37, 0xb3, 0x3d, 0x0a, 0xc7, 0x8a, 0x3d, 0x24, 0xb6, 0x3e, 0x3d,
  0xb4, 0x13, 0x96, 0x3d, 0xb6, 0x4d, 0xad, 0x3d, 0x30, 0x30, 0x56, 0x3c,
  0x7c, 0x3f, 0xe4, 0x3d, 0x66, 0x20, 0x0f, 0xbd, 0x60, 0xd3, 0x41, 0xbb,
  0x5a, 0x2e, 0x92, 0xbd, 0x4c, 0xc3, 0x40, 0xbd, 0x3e, 0x7d, 0xaa, 0x3d,
  0x30, 0x89, 0x5c, 0x3c, 0xe2, 0x08, 0x81, 0xbd, 0x65, 0x49, 0xd9, 0xbd,
  0xa0, 0x22, 0xa8, 0x3c, 0xda, 0xe2, 0x93, 0x3d, 0x80, 0xec, 0x58, 0x3d,
  0x10, 0xce, 0x17, 0x3d, 0xc0, 0xb4, 0xcf, 0x3b, 0x08, 0xb7, 0xeb, 0xbd,
  0x40, 0xd9, 0x12, 0x3c, 0xa3, 0x9f, 0x7c, 0xbd, 0x3c, 0x4b, 0x97, 0xbc,
  0xc0, 0xb9, 0xde, 0x3b, 0x34, 0x22, 0x57, 0x3d, 0x6e, 0x44, 0x36, 0xbd,
  0x36, 0x1f, 0x8e, 0xbd, 0x00, 0x21, 0x8e, 0x3d, 0x38, 0x06, 0xcb, 0x3d,
  0xee, 0x95, 0xbb, 0x3d, 0x68, 0xe2, 0x96, 0x3c, 0x20, 0xe1, 0x1c, 0xbc,
  0x84, 0x6e, 0xb3, 0x3d, 0x5c, 0x10, 0xdf, 0xbd, 0xf8, 0x8b, 0x1f, 0x3d,
  0xde, 0x0d, 0x91, 0x3d, 0xbc, 0xc7, 0x3d, 0x3d, 0xa2, 0xcb, 0xda, 0xbd,
  0x04, 0xa3, 0x50, 0x3d, 0x00, 0xb2, 0xd1, 0xbd, 0x98, 0xd6, 0x5c, 0x3d,
  0x6a, 0xed, 0xbe, 0x3d, 0xb6, 0x03, 0x3c, 0xbd, 0xb8, 0x03, 0xe3, 0x3c,
  0x00, 0x90, 0xa4, 0x38, 0x50, 0x54, 0x8e, 0xbc, 0xe4, 0x75, 0x7c, 0x3d,
  0x40, 0xb4, 0x40, 0x3c, 0x78, 0x79, 0x7d, 0x3d, 0x06, 0x76, 0x8e, 0x3d,
  0x04, 0xb3, 0xa0, 0xbd, 0xce, 0x02, 0xe9, 0x3d, 0x9a, 0xc8, 0x39, 0xbd,
  0x82, 0x6f, 0xe0, 0x3d, 0x60, 0x73, 0xc6, 0xbd, 0x4c, 0x43, 0xd2, 0xbd,
  0x07, 0xfd, 0x79, 0xbd, 0x20, 0xbd, 0x92, 0xbb, 0x60, 0x77, 0xcd, 0x3c,
  0xd9, 0x48, 0xd9, 0xbd, 0xfc, 0xbe, 0x02, 0x3d, 0xf4, 0x91, 0x13, 0xbd,
  0x38, 0x9f, 0x6a, 0xbd, 0xca, 0x28, 0xa6, 0x3d, 0xc4, 0x78, 0x66, 0x3d,
  0x70, 0x75, 0x74, 0x3d, 0xf6, 0x03, 0xa9, 0x3d, 0x0c, 0x88, 0x2a, 0x3d,
  0x20, 0xeb, 0x9d, 0xbd, 0xd0, 0xfd, 0xc8, 0xbd, 0xef, 0x86, 0x8b, 0xbd,
  0xdc, 0x97, 0x59, 0x3d, 0x58, 0x35, 0x66, 0x3d, 0x38, 0x25, 0x29, 0xbc,
  0x80, 0x32, 0xe0, 0x3a, 0x18, 0x3e, 0xe4, 0x3d, 0x10, 0xa6, 0xfb, 0xbb,
  0x6c, 0xf8, 0x3d, 0xbd, 0x94, 0x29, 0x33, 0xbd, 0x78, 0x08, 0x11, 0x3d,
  0x80, 0x65, 0x51, 0x3d, 0x7a, 0x8e, 0xa1, 0xbd, 0xe0, 0x5d, 0x12, 0xbb,
  0x72, 0x19, 0x12, 0xbd, 0x1c, 0xd2, 0xd9, 0x3d, 0x20, 0xcf, 0x85, 0xbc,
  0x20, 0xcc, 0x87, 0x3b, 0xaf, 0x60, 0xdb, 0xbd, 0x5c, 0x22, 0x6d, 0x3d,
  0x00, 0x13, 0x71, 0x3d, 0x2a, 0x70, 0x30, 0xbd, 0xc8, 0xa8, 0xcd, 0x3c,
  0x68, 0x32, 0x49, 0x3d, 0x5e, 0x9d, 0xee, 0x3d, 0x0f, 0x04, 0xc4, 0xbd,
  0x10, 0x9c, 0xb9, 0xbc, 0x20, 0x9a, 0x0a, 0x3c, 0x3c, 0x63, 0xd9, 0x3d,
  0x80, 0x4f, 0x78, 0x3a, 0x90, 0x77, 0xa5, 0x3c, 0x67, 0x34, 0xf5, 0xbd,
  0x20, 0x97, 0x0f, 0x3d, 0x4e, 0x17, 0xee, 0x3d, 0x4a, 0x51, 0x97, 0xbd,
  0xb0, 0x63, 0x37, 0x3d, 0xcc, 0xf4, 0xf4, 0x3d, 0x2c, 0xe5, 0x34, 0xbd,
  0x74, 0xde, 0x3b, 0xbd, 0xd4, 0x23, 0xf2, 0xbd, 0x98, 0x3c, 0xb2, 0xbc,
  0x00, 0xcd, 0xf9, 0x3c, 0xb8, 0x81, 0xe6, 0x3c, 0x93, 0x00, 0x9a, 0xbd,
  0xd8, 0xb2, 0xba, 0x3c, 0x0c, 0x71, 0xe3, 0xbc, 0x60, 0xe4, 0x8e, 0x3c,
  0x40, 0x08, 0xe5, 0x3c, 0xf6, 0xf2, 0x9d, 0x3d, 0x41, 0x00, 0x7e, 0xbd,
  0x39, 0x65, 0xb4, 0xbd, 0x90, 0xd9, 0xb5, 0xbc, 0x6e, 0x59, 0x2f, 0xbd,
  0x9e, 0xfe, 0x19, 0x3e, 0x38, 0xfe, 0x57, 0xbd, 0x52, 0x67, 0x00, 0x3e,
  0x94, 0xef, 0xa1, 0xbc, 0xd4, 0x1f, 0xf7, 0x3d, 0x70, 0xc8, 0x9d, 0x3d,
  0x52, 0xba, 0xf3, 0x3d, 0x8c, 0xaf, 0x00, 0x3e, 0x2c, 0xc1, 0x98, 0x3e,
  0x8d, 0x0c, 0x33, 0x3e, 0xb0, 0x3a, 0x09, 0x3d, 0xce, 0x77, 0x53, 0x3e,
  0xbc, 0x6b, 0x19, 0x3e, 0x66, 0x99, 0x7d, 0x3c, 0xd7, 0x78, 0xa2, 0x3d,
  0x8f, 0xa3, 0xba, 0x3d, 0x01, 0x67, 0xdb, 0x3d, 0x09, 0xd4, 0x16, 0xbe,
  0x8b, 0xb0, 0xb4, 0xba, 0x9b, 0x18, 0xa1, 0xbd, 0x46, 0xd3, 0x5e, 0xbe,
  0xb4, 0x62, 0xba, 0xbd, 0xef, 0xe5, 0xb8, 0xbc, 0xb6, 0xd3, 0x30, 0xbe,
  0x0c, 0xab, 0x1f, 0xbe, 0x1f, 0x4d, 0x0e, 0xbe, 0xd3, 0xb0, 0x07, 0xbe,
  0xc4, 0xf0, 0x34, 0xbd, 0xce, 0x3b, 0x7a, 0x3c, 0x9b, 0x1c, 0x40, 0xbd,
  0x79, 0xdb, 0xe4, 0xbd, 0x3c, 0xed, 0xeb, 0xbd, 0x5e, 0x0c, 0xc2, 0xbd,
  0x5d, 0xd4, 0xcc, 0x3d, 0xcf, 0x04, 0xf5, 0x3d, 0xd8, 0xef, 0x95, 0x3c,
  0x0b, 0xd9, 0x29, 0xbd, 0x02, 0x28, 0xb8, 0x3c, 0xba, 0x81, 0xd1, 0x3d,
  0x99, 0x5c, 0xb4, 0x3d, 0xc9, 0x32, 0xf4, 0xbc, 0x63, 0x9d, 0x94, 0x3b,
  0xfd, 0x77, 0x08, 0xbc, 0xec, 0x19, 0x27, 0xbc, 0x99, 0x9a, 0xaa, 0xbd,
  0xdd, 0xd9, 0x9e, 0xbd, 0xbc, 0xc3, 0xe4, 0x3c, 0x68, 0xb6, 0x63, 0xbd,
  0xd9, 0xa7, 0x97, 0x3c, 0xe7, 0xf8, 0xfa, 0xbd, 0x60, 0x59, 0x1e, 0xbe,
  0x7e, 0xa9, 0xac, 0xbd, 0x9d, 0x40, 0x01, 0xbe, 0xa1, 0x95, 0x8d, 0xbc,
  0x51, 0x39, 0x2b, 0xbe, 0x67, 0xdb, 0xa9, 0x3c, 0x11, 0xb5, 0xed, 0xbd,
  0x28, 0x3e, 0x74, 0xbd, 0xe9, 0x27, 0x82, 0x3d, 0x6c, 0x3a, 0x9c, 0x3d,
  0xb9, 0xe2, 0xaa, 0x3d, 0xe8, 0x49, 0x8e, 0x3c, 0xb2, 0xaa, 0x2d, 0x3e,
  0xf4, 0x90, 0xd6, 0x3d, 0x0d, 0x7f, 0x78, 0x3d, 0xe9, 0x9c, 0x86, 0xba,
  0x29, 0x8a, 0x2b, 0x3e, 0x32, 0x24, 0x1b, 0x3e, 0x67, 0xaf, 0x34, 0x3e,
  0xb8, 0x9c, 0xc9, 0x3c, 0xbf, 0x05, 0xab, 0x3d, 0x08, 0x39, 0xeb, 0x3d,
  0xe6, 0xaf, 0xb4, 0x3d, 0x05, 0x66, 0x18, 0x3e, 0x87, 0x5f, 0xa9, 0xbb,
  0xc9, 0x15, 0x00, 0x3e, 0x95, 0x8f, 0x6d, 0x3d, 0xff, 0xb7, 0x8a, 0x3d,
  0x98, 0xf5, 0x50, 0x3e, 0x31, 0x9e, 0x51, 0x3e, 0xd5, 0xcc, 0xdc, 0x3b,
  0x3c, 0x8f, 0xa0, 0x3d, 0x3f, 0x28, 0x3d, 0x3d, 0x07, 0x69, 0x13, 0x3e,
  0xe2, 0x73, 0x05, 0x3e, 0xf7, 0x49, 0xab, 0x3d, 0x1c, 0xc1, 0x5e, 0x3e,
  0x59, 0x70, 0xb3, 0x3d, 0x16, 0xbd, 0xdd, 0x3b, 0xbe, 0xbc, 0x30, 0x3e,
  0x82, 0x3f, 0xb3, 0x3d, 0x51, 0x4f, 0x14, 0x3e, 0xdd, 0x14, 0x0c, 0x3e,
  0x8a, 0x68, 0x0b, 0xbd, 0xdb, 0x61, 0xed, 0x3c, 0xa8, 0x2e, 0xe7, 0x3d,
  0xb7, 0x8e, 0x2c, 0x3e, 0xc9, 0xc0, 0x2a, 0x3e, 0x68, 0xcb, 0x06, 0x3e,
  0x90, 0x6f, 0x94, 0x3d, 0x32, 0xef, 0xf4, 0x3d, 0x9c, 0x6f, 0xd8, 0x3d,
  0x94, 0x6e, 0x1a, 0x3e, 0x53, 0x87, 0xec, 0x3d, 0xa8, 0x67, 0x97, 0x3c,
  0x54, 0xdd, 0x63, 0x3e, 0x3d, 0x06, 0xa0, 0xbb, 0x45, 0x87, 0x2f, 0x3e,
  0xca, 0x01, 0xec, 0x3d, 0x6d, 0xba, 0x5f, 0x3d, 0x51, 0x76, 0xd1, 0x3d,
  0xc8, 0x48, 0x02, 0x3d, 0xae, 0x59, 0xf7, 0x3c, 0xf9, 0x94, 0x2d, 0x3e,
  0x7a, 0x0c, 0xd5, 0x3d, 0x3f, 0x21, 0x49, 0xbc, 0x1a, 0xe9, 0xe5, 0x3d,
  0x86, 0x7f, 0xed, 0x3b, 0x84, 0xa9, 0xd9, 0x3d, 0x2d, 0xa4, 0x1e, 0x3d,
  0xc7, 0xc5, 0x45, 0x3e, 0x22, 0xfb, 0x11, 0x3e, 0x76, 0xaf, 0x4a, 0x3e,
  0x8a, 0xc2, 0x10, 0x3e, 0x9f, 0x7e, 0x5e, 0x3e, 0xcc, 0xe5, 0x69, 0x3e,
  0xd7, 0xbe, 0x0d, 0x3c, 0x2d, 0x79, 0x1a, 0x3d, 0xf8, 0xd1, 0x20, 0x3d,
  0x06, 0x0d, 0xd2, 0x3d, 0xeb, 0xfc, 0xe9, 0xbd, 0x72, 0x18, 0xa7, 0x3d,
  0x80, 0xaa, 0xe8, 0xbc, 0xf0, 0xcd, 0x63, 0xbc, 0x68, 0x8f, 0x15, 0x3d,
  0xf6, 0x7f, 0xe2, 0xbd, 0x40, 0xe5, 0x8f, 0x3a, 0xf0, 0x2b, 0xce, 0x3d,
  0x74, 0x40, 0x07, 0x3d, 0x90, 0xac, 0x94, 0xbc, 0x72, 0xe4, 0x9b, 0x3d,
  0xa7, 0x5d, 0xe3, 0xbd, 0xb8, 0x73, 0xa2, 0xbd, 0xa3, 0x38, 0xca, 0xbd,
  0xa8, 0x08, 0x7b, 0xbc, 0x28, 0x58, 0xd9, 0xbd, 0x41, 0x80, 0xe5, 0xbd,
  0xf4, 0x2c, 0x9f, 0x3d, 0x9e, 0x5b, 0x91, 0x3d, 0xf0, 0x90, 0x06, 0x3d,
  0xa8, 0x64, 0x00, 0xbc, 0xc8, 0xaf, 0xaa, 0x3d, 0x48, 0x77, 0xf3, 0xbc,
  0x00, 0x97, 0x4b, 0x3d, 0xc0, 0x9c, 0xdd, 0x3b, 0xba, 0x53, 0xd6, 0xbd,
  0xbc, 0x29, 0xa1, 0x3d, 0x03, 0x1e, 0xb3, 0xbd, 0x8c, 0x07, 0x60, 0x3d,
  0x34, 0x0f, 0xbb, 0x3d, 0x72, 0x76, 0xb3, 0x3d, 0x00, 0xfa, 0xed, 0x3b,
  0x72, 0x33, 0x27, 0xbd, 0xd0, 0x4e, 0x75, 0x3d, 0x84, 0x09, 0xb7, 0xbc,
  0xc3, 0x17, 0xee, 0xbd, 0x2e, 0x35, 0xdc, 0x3d, 0xa6, 0xf9, 0xae, 0x3d,
  0x60, 0xee, 0xb5, 0xbb, 0x8e, 0x2f, 0xd7, 0xbd, 0x3c, 0x13, 0xe0, 0x3d,
  0x52, 0x7b, 0x17, 0xbd, 0x9b, 0x08, 0x9f, 0xbd, 0x19, 0xb0, 0xae, 0xbd,
  0x8a, 0xcc, 0xca, 0xbd, 0x8a, 0x64, 0x87, 0x3d, 0x70, 0x67, 0x93, 0x3d,
  0x44, 0x16, 0x67, 0x3d, 0xb8, 0x96, 0x07, 0xbc, 0xc4, 0x6a, 0xc6, 0x3d,
  0x14, 0x3c, 0x38, 0x3d, 0xc4, 0xf4, 0x87, 0xbc, 0xfc, 0x7b, 0x31, 0xbd,
  0xdc, 0x25, 0x40, 0x3d, 0x70, 0x14, 0x78, 0x3d, 0xea, 0x2e, 0x80, 0x3d,
  0xd0, 0x72, 0x0b, 0xbc, 0xac, 0x8e, 0x95, 0xbc, 0x20, 0xa6, 0xab, 0x3b,
  0xd0, 0x6e, 0xc6, 0xbb, 0xe4, 0xce, 0x86, 0x3d, 0x58, 0x17, 0xd5, 0x3c,
  0x47, 0xad, 0xcb, 0xbd, 0x74, 0xc4, 0x0f, 0x3d, 0x42, 0x63, 0x84, 0xbd,
  0x86, 0x28, 0x74, 0xbd, 0x90, 0x2e, 0x86, 0x3c, 0xd0, 0x1e, 0x02, 0xbc,
  0x06, 0x01, 0x10, 0xbd, 0xec, 0x40, 0xd0, 0xbd, 0x2c, 0x65, 0x24, 0x3d,
  0x0c, 0xdf, 0x5e, 0x3d, 0x41, 0x5c, 0xd4, 0xbd, 0xf4, 0x86, 0xfd, 0xbc,
  0x40, 0x80, 0x4d, 0x3c, 0x42, 0x30, 0xa3, 0xbd, 0xb8, 0x3e, 0x53, 0x3d,
  0xe4, 0xa9, 0x72, 0x3d, 0x3c, 0xd2, 0xdb, 0xbd, 0xe8, 0x48, 0xe2, 0xbd,
  0x86, 0x4a, 0xba, 0xbd, 0x4b, 0x3b, 0x8f, 0xbd, 0x50, 0x75, 0xa6, 0x3c,
  0x1c, 0xac, 0xd8, 0x3d, 0x48, 0xfa, 0xde, 0x3c, 0x40, 0xb4, 0xda, 0x3c,
  0x46, 0xf9, 0x9b, 0xbd, 0xf8, 0x08, 0xab, 0x3d, 0xe4, 0x94, 0x47, 0xbd,
  0x30, 0xa3, 0x16, 0x3c, 0xb8, 0x3e, 0xa3, 0x3c, 0x06, 0x85, 0xe6, 0x3d,
  0xe3, 0x0d, 0xd3, 0xbd, 0x2c, 0xdd, 0x8f, 0xbd, 0xc4, 0xa1, 0x07, 0xbd,
  0x40, 0x22, 0xdb, 0xbb, 0xe0, 0x6b, 0x37, 0xbc, 0x6c, 0x3f, 0xcf, 0x3d,
  0x78, 0x74, 0xf3, 0xbd, 0xf8, 0xc0, 0x1c, 0x3d, 0xba, 0x42, 0x1f, 0xbd,
  0x62, 0xf4, 0x82, 0xbd, 0x00, 0xa6, 0xf0, 0x3c, 0xd3, 0x0c, 0xe8, 0xbd,
  0xa5, 0x54, 0xed, 0xbd, 0x7c, 0x5e, 0xc3, 0xbd, 0xe0, 0xb1, 0x07, 0xbb,
  0x68, 0xed, 0x9e, 0xbc, 0xe4, 0x20, 0x41, 0x3d, 0xa6, 0xc5, 0xd4, 0x3d,
  0xa0, 0x8e, 0xcf, 0x3d, 0x18, 0x21, 0x97, 0x3c, 0x50, 0x24, 0x48, 0x3d,
  0xa4, 0x16, 0xe6, 0x3d, 0x31, 0x5a, 0xb7, 0xbd, 0xe0, 0x5c, 0x74, 0x3d,
  0xe6, 0xf3, 0x8e, 0x3d, 0x60, 0x66, 0x9b, 0x3b, 0x00, 0x40, 0xd3, 0x37,
  0xec, 0x97, 0x48, 0x3d, 0xcc, 0xe9, 0x93, 0xbd, 0xf6, 0xec, 0xbe, 0x3d,
  0x34, 0x9b, 0xde, 0x3d, 0x1c, 0x8c, 0x8a, 0xbc, 0xc3, 0x6d, 0xa2, 0xbd,
  0xa4, 0x56, 0xb3, 0x3d, 0xca, 0x87, 0xf0, 0x3d, 0x38, 0x3b, 0x64, 0x3d,
  0x02, 0xb8, 0xd0, 0x3d, 0xac, 0x27, 0x39, 0x3d, 0x50, 0x8d, 0xdc, 0xbb,
  0xbf, 0xc1, 0xef, 0xbd, 0x2e, 0x67, 0x6e, 0xbd, 0xcc, 0xa7, 0x63, 0xbd,
  0x74, 0x44, 0x62, 0x3d, 0xd2, 0x39, 0x67, 0xbd, 0xf4, 0xdb, 0xb1, 0xbd,
  0x44, 0x43, 0x43, 0x3d, 0xa5, 0xfd, 0xc8, 0xbd, 0x00, 0x2d, 0xa5, 0x3c,
  0xb8, 0xa8, 0x8b, 0xbd, 0x12, 0x40, 0xaf, 0xbd, 0x10, 0x18, 0xdb, 0x3d,
  0x40, 0x22, 0x55, 0x3b, 0x32, 0xe2, 0x37, 0xbd, 0x80, 0xfc, 0xe3, 0x3c,
  0x46, 0x84, 0xe4, 0x3d, 0x10, 0x74, 0xb0, 0x3c, 0x6a, 0x43, 0xca, 0xbd,
  0x66, 0x34, 0xa7, 0xbd, 0x64, 0x07, 0x18, 0xbd, 0x64, 0xd0, 0xa0, 0x3d,
  0x78, 0xc6, 0xe0, 0x3d, 0x72, 0x8f, 0xb3, 0xbd, 0x00, 0x42, 0xa0, 0x3c,
  0x9c, 0x64, 0xef, 0x3d, 0x24, 0x65, 0x46, 0xbd, 0x1c, 0x3b, 0x2a, 0x3d,
  0xda, 0xa1, 0x9d, 0xbd, 0xd8, 0x10, 0x44, 0x3d, 0xa0, 0xab, 0x2e, 0xbd,
  0x1c, 0x9d, 0xda, 0x3d, 0xe6, 0x99, 0x12, 0xbd, 0xa5, 0xe4, 0x7b, 0xbd,
  0x3e, 0x96, 0x98, 0xbd, 0xcc, 0xe7, 0xd5, 0xbd, 0x9d, 0x33, 0xf5, 0xbd,
  0xcd, 0xd8, 0x70, 0xbd, 0x10, 0xd4, 0x57, 0x3c, 0x14, 0x83, 0x88, 0x3d,
  0xa2, 0x1b, 0x65, 0xbd, 0xc4, 0xb2, 0xcb, 0x3d, 0x28, 0xf6, 0xb7, 0xbd,
  0x1a, 0xd7, 0xbe, 0x3d, 0x3a, 0x1b, 0xed, 0x3d, 0xc4, 0x7f, 0xbc, 0xbd,
  0x2a, 0xb1, 0x42, 0xbd, 0x5a, 0x8d, 0x19, 0xbd, 0x38, 0x90, 0x95, 0xbd,
  0x94, 0x17, 0x1e, 0x3d, 0x04, 0x11, 0x2d, 0x3d, 0x52, 0x22, 0xbb, 0x3d,
  0x20, 0x6f, 0xae, 0x3b, 0x60, 0x10, 0x84, 0xbd, 0xa8, 0x51, 0xb8, 0x3d,
  0x78, 0x9b, 0xae, 0x3d, 0x40, 0x17, 0x06, 0x3d, 0x94, 0xa7, 0x4b, 0x3d,
  0xec, 0x91, 0x2c, 0xbd, 0x24, 0x32, 0x18, 0x3d, 0x80, 0x03, 0x43, 0xba,
  0x8c, 0x29, 0xb3, 0x3d, 0xae, 0xd5, 0xd7, 0x3d, 0x86, 0xd8, 0xae, 0xbd,
  0x9e, 0x67, 0xf7, 0xbd, 0x4d, 0x6d, 0xa8, 0xbd, 0xb2, 0x28, 0xde, 0xbd,
  0xba, 0x9e, 0x84, 0xbd, 0x28, 0x05, 0x61, 0x3d, 0xae, 0xc5, 0x9f, 0xbd,
  0x08, 0x1c, 0x4b, 0x3d, 0xd0, 0xb6, 0xb5, 0xbb, 0x20, 0x94, 0x86, 0xbc,
  0x5e, 0x90, 0xaa, 0x3d, 0x40, 0xfd, 0xef, 0x3c, 0x00, 0xa7, 0x75, 0x3b,
  0xe2, 0x1a, 0x39, 0xbd, 0x44, 0x1c, 0xc9, 0xbd, 0x73, 0x22, 0x97, 0xbd,
  0x68, 0x25, 0xee, 0x3c, 0x50, 0xbb, 0x23, 0xbd, 0x74, 0x72, 0x2c, 0xbd,
  0x88, 0xef, 0x59, 0xbd, 0x40, 0xef, 0xf4, 0xbb, 0x67, 0x87, 0xc5, 0xbd,
  0xe0, 0x52, 0xde, 0x3b, 0x44, 0x51, 0xa6, 0xbd, 0xf4, 0xa6, 0x79, 0x3d,
  0xa6, 0x9a, 0xdb, 0xbd, 0x1c, 0xa2, 0xde, 0x3d, 0x28, 0x34, 0xaf, 0xbd,
  0xa2, 0x89, 0x52, 0xbd, 0x98, 0x2f, 0xd0, 0xbd, 0xcc, 0xbe, 0x11, 0xbd,
  0x8a, 0xa4, 0xc8, 0x3d, 0x94, 0x83, 0x72, 0x3d, 0x62, 0x2b, 0x84, 0x3d,
  0x0c, 0xe8, 0xa6, 0xbc, 0x0e, 0xbf, 0x8d, 0x3d, 0xc9, 0xc7, 0xa7, 0xbd,
  0xe4, 0x5b, 0x36, 0xbd, 0x48, 0x9d, 0x78, 0x3d, 0x78, 0x63, 0x15, 0x3d,
  0x3d, 0x0c, 0xf8, 0xbd, 0xb8, 0x80, 0xfc, 0xbc, 0xc8, 0xcb, 0x21, 0x3d,
  0x2d, 0x01, 0x7b, 0xbd, 0x40, 0xe0, 0xb1, 0x3b, 0xdd, 0x87, 0xe1, 0xbd,
  0x9f, 0x5f, 0xe8, 0xbd, 0x84, 0x6c, 0x46, 0x3d, 0xae, 0x49, 0x33, 0xbd,
  0xd4, 0xad, 0x9c, 0xbd, 0x0c, 0x18, 0x04, 0xbd, 0x66, 0xb0, 0x89, 0x3d,
  0x24, 0x29, 0x69, 0x3d, 0x10, 0x66, 0x99, 0xbd, 0xc8, 0xe3, 0x9a, 0x3d,
  0x60, 0xa1, 0xee, 0x3c, 0x04, 0xd1, 0x45, 0xbd, 0x6a, 0x14, 0xc9, 0x3d,
  0xf0, 0x35, 0xb1, 0x3d, 0xa8, 0xd3, 0x44, 0x3d, 0xca, 0x35, 0xb1, 0x3d,
  0xe2, 0xe9, 0x12, 0x3e, 0xc3, 0x3f, 0x03, 0xbd, 0x89, 0x57, 0x6c, 0x3d,
  0x13, 0x0a, 0x8d, 0x3d, 0xcd, 0x59, 0x4b, 0x3d, 0x30, 0xb2, 0x27, 0x3e,
  0x3e, 0x5c, 0xdc, 0x3d, 0x80, 0x2d, 0x22, 0x3e, 0x6a, 0x08, 0x0e, 0x3e,
  0xf9, 0xd5, 0x91, 0x3e, 0x35, 0x26, 0x85, 0x3d, 0x5b, 0x64, 0x40, 0x3d,
  0x0b, 0x02, 0x05, 0x3e, 0xbe, 0xcc, 0x08, 0x3e, 0x50, 0x44, 0x98, 0x3c,
  0xd7, 0x5e, 0xc9, 0x3d, 0xf8, 0x61, 0x72, 0x3e, 0x2a, 0x9e, 0x21, 0x3e,
  0x54, 0x92, 0xc5, 0x3c, 0x5e, 0x2a, 0x97, 0x3d, 0x98, 0xfc, 0x33, 0x3e,
  0xd2, 0x68, 0x67, 0xbd, 0x97, 0x51, 0x7c, 0x3c, 0x33, 0x24, 0x89, 0x3d,
  0x31, 0xa9, 0x83, 0xbd, 0xaa, 0x8e, 0x2f, 0xbd, 0x44, 0x91, 0xe4, 0xbc,
  0x3a, 0xd6, 0xab, 0x3d, 0x38, 0x52, 0xbb, 0xbd, 0x14, 0x8e, 0x76, 0x3d,
  0x1c, 0x74, 0x03, 0xbe, 0x94, 0x52, 0x2e, 0x3d, 0x5d, 0xc8, 0x0b, 0xbc,
  0xa5, 0xe3, 0x51, 0xbc, 0x97, 0x0d, 0x9b, 0x3d, 0x5a, 0x5e, 0x12, 0x3e,
  0x82, 0x6b, 0xea, 0x3a, 0x74, 0xe1, 0x72, 0xbd, 0x82, 0xb1, 0xc7, 0x3d,
  0x2b, 0xc9, 0x2f, 0x3c, 0x19, 0x3b, 0x1c, 0x3e, 0x29, 0xae, 0x19, 0x3e,
  0x3b, 0xf1, 0x90, 0xbc, 0x53, 0x81, 0x39, 0x3d, 0x51, 0x7e, 0xe4, 0x3c,
  0x13, 0x24, 0x54, 0x3c, 0xfb, 0x53, 0x79, 0x3e, 0x66, 0x54, 0xff, 0x3d,
  0x19, 0x19, 0x8f, 0x3d, 0x03, 0x2f, 0x85, 0x3e, 0xde, 0x04, 0xa4, 0x3d,
  0x88, 0xbd, 0x87, 0x3e, 0x02, 0x5b, 0x83, 0x3e, 0x20, 0x88, 0x19, 0x3e,
  0x52, 0x1c, 0x4c, 0x3e, 0x04, 0x49, 0xd3, 0x3d, 0xd4, 0x5c, 0x3b, 0x3e,
  0xd2, 0x6d, 0x4e, 0x3d, 0xa8, 0x99, 0x57, 0x3e, 0x64, 0x9d, 0x30, 0x3e,
  0xa0, 0x93, 0x99, 0x3d, 0x47, 0x81, 0x83, 0x3e, 0x43, 0xd6, 0xc8, 0x3d,
  0x9b, 0x90, 0x77, 0x3e, 0x19, 0x49, 0x31, 0x3e, 0x87, 0x19, 0xc7, 0x3d,
  0x23, 0x5f, 0x47, 0x3e, 0x04, 0x15, 0xa4, 0x3d, 0x2e, 0x7c, 0x85, 0x3e,
  0x4e, 0x62, 0xbf, 0x3d, 0x38, 0x28, 0x7f, 0x3e, 0x4e, 0xcd, 0x5e, 0x3e,
  0x80, 0x0b, 0x81, 0x3e, 0x63, 0xc0, 0x04, 0x3e, 0x5d, 0x6f, 0x11, 0x3e,
  0xcd, 0xb2, 0x99, 0x3e, 0xff, 0x4b, 0x47, 0x3e, 0xf2, 0x67, 0xc3, 0x3e,
  0x8d, 0x3e, 0x9c, 0x3e, 0x9a, 0x76, 0x66, 0x3e, 0xbb, 0xc2, 0x3d, 0x3e,
  0x07, 0x31, 0x25, 0x3e, 0x81, 0xe9, 0x83, 0x3e, 0xa8, 0xa8, 0x5c, 0x3e,
  0x16, 0x70, 0x8e, 0x3e, 0x41, 0x59, 0xd2, 0x3e, 0x66, 0xb4, 0xd5, 0x3e,
  0x7d, 0xd5, 0x4e, 0x3e, 0x98, 0x50, 0x3a, 0x3e, 0x2f, 0xde, 0xc0, 0x3e,
  0x96, 0x28, 0xa6, 0x3e, 0x32, 0x51, 0x9e, 0x3e, 0xf7, 0xa0, 0xb4, 0x3e,
  0x0f, 0xf4, 0x3c, 0x3e, 0x48, 0xa7, 0xd3, 0x3e, 0x77, 0x57, 0x46, 0x3e,
  0x17, 0xc2, 0xb9, 0x3e, 0xd2, 0xfb, 0xa5, 0x3e, 0x77, 0x87, 0x98, 0x3e,
  0x10, 0x6a, 0x4c, 0x3e, 0x8d, 0xeb, 0xa6, 0x3e, 0x68, 0x46, 0xab, 0x3e,
  0x0d, 0xcd, 0xb7, 0x3e, 0xa9, 0x79, 0xcf, 0x3e, 0x8a, 0x17, 0xb0, 0x3e,
  0xea, 0x68, 0x8b, 0x3e, 0xf3, 0x7e, 0x39, 0x3e, 0xae, 0x6c, 0x50, 0x3e,
  0x7f, 0x0a, 0x9b, 0x3e, 0x59, 0xed, 0xaf, 0x3e, 0xfd, 0x46, 0xda, 0x3e,
  0xe8, 0x2d, 0x9f, 0x3e, 0x93, 0xd8, 0x96, 0x3e, 0x11, 0xd5, 0xaf, 0x3e,
  0x3c, 0x28, 0x84, 0x3e, 0x1a, 0x5d, 0xa0, 0x3e, 0x25, 0x8e, 0xbe, 0x3e,
  0x73, 0xb3, 0xaa, 0x3e, 0xd4, 0x84, 0x90, 0x3e, 0xfb, 0x51, 0x98, 0x3e,
  0x22, 0x1d, 0x83, 0x3e, 0x0f, 0x44, 0x62, 0x3e, 0x9f, 0x36, 0x34, 0x3e,
  0x13, 0xdb, 0xb9, 0x3e, 0x82, 0x35, 0xa7, 0x3e, 0x38, 0xec, 0x35, 0x3e,
  0xb5, 0xd6, 0x83, 0x3e, 0x1d, 0xfe, 0xc5, 0x3e, 0xe2, 0x66, 0x43, 0xbd,
  0x5c, 0x94, 0xcc, 0xbc, 0x8d, 0x39, 0x7f, 0xbd, 0x31, 0x08, 0x83, 0xbd,
  0x48, 0x59, 0x2e, 0xbd, 0x80, 0xc1, 0x7d, 0x3d, 0xfb, 0x32, 0xbe, 0xbd,
  0xec, 0x9d, 0xaf, 0x3d, 0x36, 0x21, 0xe8, 0x3d, 0x10, 0x3c, 0xbd, 0xbb,
  0x68, 0xe1, 0xcf, 0x3d, 0x96, 0xfb, 0x96, 0x3d, 0x7c, 0x46, 0xa3, 0xbd,
  0x3c, 0x6b, 0xb1, 0x3d, 0x99, 0x3b, 0x9f, 0xbd, 0xe2, 0x75, 0x1a, 0xbd,
  0x00, 0xff, 0xf6, 0xbb, 0xec, 0xa7, 0x9f, 0x3d, 0xfe, 0x87, 0xd3, 0x3d,
  0x2a, 0x7c, 0x42, 0xbd, 0x48, 0xce, 0x47, 0xbc, 0xac, 0x8e, 0xf0, 0x3d,
  0xd0, 0x3b, 0x1b, 0xbc, 0x38, 0x43, 0xa1, 0xbd, 0x92, 0xf3, 0xb2, 0xbd,
  0x40, 0x9b, 0xab, 0x3c, 0x60, 0x33, 0x53, 0xbc, 0xb0, 0x3c, 0xa0, 0xbd,
  0x00, 0x69, 0xcb, 0x39, 0x16, 0x83, 0x5a, 0xbd, 0x90, 0x16, 0xb4, 0x3d,
  0xa0, 0x36, 0xaa, 0x3b, 0x30, 0x83, 0x29, 0x3c, 0xf4, 0xb0, 0x93, 0xbd,
  0xda, 0x6f, 0xaf, 0xbd, 0x78, 0xd9, 0x8f, 0x3d, 0x3c, 0xa1, 0xa4, 0xbd,
  0xb0, 0x59, 0xd1, 0x3c, 0x0d, 0xe5, 0xd6, 0xbd, 0x5d, 0x84, 0xbb, 0xbd,
  0xec, 0x59, 0xec, 0x3d, 0x3c, 0xa9, 0x94, 0xbc, 0xf0, 0xcf, 0xce, 0x3c,
  0xe0, 0xc6, 0x0e, 0xbd, 0x40, 0x56, 0x5e, 0x3c, 0xcc, 0x08, 0x85, 0xbc,
  0xd7, 0x77, 0xa7, 0xbd, 0x20, 0x0a, 0x05, 0xbd, 0x75, 0x4c, 0xab, 0xbd,
  0x90, 0x0c, 0xc8, 0x3d, 0xc8, 0x18, 0xee, 0x3d, 0x72, 0xc7, 0x63, 0xbd,
  0x44, 0x1d, 0xc8, 0x3d, 0xd2, 0x8a, 0xb2, 0x3d, 0x3a, 0x33, 0xac, 0x3d,
  0x68, 0xf6, 0x7c, 0x3d, 0x40, 0xa9, 0x6a, 0x3d, 0xc0, 0xd2, 0x80, 0x3d,
  0xa6, 0xec, 0x16, 0xbd, 0x30, 0xbe, 0xf2, 0x3d, 0x80, 0xd6, 0xb2, 0x3b,
  0xe0, 0x1a, 0x71, 0x3b, 0xbc, 0x20, 0x4b, 0x3d, 0x38, 0xc7, 0x3d, 0x3d,
  0x3d, 0xd0, 0xe7, 0xbd, 0x0c, 0xf9, 0x32, 0x3d, 0x2c, 0xd7, 0xc0, 0xbd,
  0xfe, 0x08, 0xb6, 0x3d, 0xc0, 0x55, 0xd2, 0x3a, 0x00, 0x62, 0x84, 0x3d,
  0xdf, 0x94, 0x89, 0xbd, 0x42, 0xbf, 0xec, 0x3d, 0x14, 0x17, 0xbe, 0xbc,
  0x14, 0x17, 0x34, 0x3d, 0x82, 0xb3, 0xba, 0x3d, 0x1c, 0x57, 0xa7, 0x3d,
  0xfc, 0x6f, 0xe7, 0x3d, 0xb8, 0xb7, 0xf5, 0xbd, 0xb8, 0xf1, 0x25, 0xbd,
  0x34, 0x88, 0xb9, 0xbd, 0xbc, 0x68, 0x9d, 0x3d, 0x46, 0x94, 0x0f, 0xbd,
  0x7e, 0x43, 0x93, 0xbd, 0xd0, 0x83, 0x48, 0xbc, 0xec, 0x1b, 0xd4, 0x3d,
  0x90, 0xc6, 0x5d, 0x3c, 0xb8, 0xdf, 0x97, 0xbd, 0x45, 0xed, 0xac, 0xbd,
  0xf0, 0x44, 0x16, 0x3d, 0xc0, 0x20, 0xc0, 0x3b, 0x70, 0xb9, 0xce, 0xbd,
  0xd4, 0xef, 0xe3, 0xbd, 0xb4, 0xd8, 0x92, 0x3d, 0x00, 0xd9, 0x93, 0xbd,
  0xea, 0xb6, 0xf2, 0xbd, 0x0a, 0x4e, 0xce, 0x3d, 0xb8, 0x60, 0x54, 0x3d,
  0xee, 0x11, 0x66, 0xbd, 0x86, 0x21, 0x82, 0xbd, 0x90, 0x04, 0xe5, 0xbc,
  0x80, 0xdd, 0xc9, 0x3b, 0x1c, 0x0d, 0x1b, 0x3d, 0x8a, 0xbd, 0x16, 0xbd,
  0xa0, 0x9c, 0x75, 0x3c, 0xd6, 0x75, 0x51, 0xbd, 0x0e, 0x0e, 0xe7, 0x3d,
  0x90, 0x7a, 0x8f, 0xbb, 0x34, 0x38, 0xf2, 0x3d, 0xee, 0x4a, 0xf8, 0x3d,
  0x50, 0x86, 0xd0, 0xbb, 0x74, 0xc5, 0x38, 0xbd, 0xd0, 0xd6, 0xcf, 0x3d,
  0x88, 0xf7, 0xb2, 0x3c, 0xb6, 0x80, 0xae, 0x3d, 0xb2, 0x93, 0xd6, 0x3d,
  0xb8, 0x01, 0x52, 0xbd, 0x66, 0xb9, 0xda, 0x3d, 0xb8, 0x54, 0x2c, 0x3d,
  0xbe, 0x5a, 0x9c, 0xbd, 0x88, 0x3a, 0x00, 0xbd, 0x48, 0x08, 0xca, 0x3c,
  0x3a, 0x98, 0xb9, 0xbd, 0x4c, 0x22, 0xae, 0xbc, 0x88, 0x6f, 0x6f, 0xbc,
  0x1a, 0x02, 0xc1, 0x3d, 0x98, 0x0c, 0x1a, 0xbd, 0x54, 0x30, 0x70, 0xbd,
  0x48, 0x29, 0x87, 0x3d, 0x20, 0x0e, 0x60, 0x3d, 0x72, 0x38, 0xc4, 0xbd,
  0x40, 0x09, 0x87, 0x3d, 0x14, 0x98, 0x3c, 0x3d, 0x3c, 0x2e, 0x48, 0xbd,
  0xc7, 0x1b, 0xbd, 0xbd, 0xb0, 0xe1, 0xd2, 0x3d, 0xb0, 0x2d, 0xee, 0xbb,
  0x72, 0xee, 0xaa, 0x3d, 0x3a, 0xb8, 0xf7, 0x3d, 0xf0, 0x4d, 0x30, 0xbc,
  0x2c, 0xda, 0x13, 0x3d, 0x40, 0xeb, 0x1f, 0x3d, 0xf6, 0x48, 0xe4, 0x3d,
  0x82, 0x89, 0xda, 0x3d, 0x35, 0xa1, 0xe1, 0xbd, 0xe0, 0x85, 0xda, 0xbc,
  0x20, 0x9f, 0xb1, 0xbc, 0x98, 0xe1, 0x7f, 0xbc, 0x2a, 0xb7, 0xa4, 0x3d,
  0x90, 0x46, 0x34, 0x3d, 0xf0, 0x50, 0x52, 0x3d, 0x6a, 0x10, 0x8e, 0x3d,
  0x16, 0x5b, 0x33, 0xbd, 0x4a, 0x40, 0x1a, 0xbd, 0xb8, 0x19, 0xb4, 0xbd,
  0x9a, 0xdd, 0x3a, 0xbd, 0x1c, 0x4b, 0x3c, 0x3d, 0xf8, 0xd4, 0x61, 0xbc,
  0xc8, 0xb0, 0x68, 0x3d, 0x60, 0x95, 0xa1, 0x3d, 0x3c, 0xb8, 0x16, 0xbd,
  0x13, 0x25, 0xaf, 0xbd, 0x05, 0x7e, 0xc1, 0xbd, 0xf2, 0x20, 0xcd, 0x3d,
  0x34, 0x22, 0x1b, 0x3d, 0x56, 0x6e, 0x9a, 0xbd, 0x22, 0x78, 0xe4, 0x3d,
  0x50, 0x6c, 0xd7, 0xbd, 0x80, 0x09, 0x3c, 0xbb, 0xa8, 0xe5, 0xcc, 0xbc,
  0x78, 0xb2, 0x8b, 0x3c, 0xa0, 0x15, 0x57, 0x3d, 0x9e, 0xbd, 0x1a, 0xbd,
  0x03, 0xf5, 0xeb, 0xbd, 0x28, 0x11, 0xe7, 0x3c, 0x98, 0xd4, 0x8f, 0x3d,
  0x80, 0xfd, 0x93, 0x3b, 0x08, 0x7d, 0x46, 0xbd, 0x60, 0x3f, 0xcd, 0xbb,
  0x40, 0x7a, 0xe5, 0x3b, 0x01, 0x2e, 0xab, 0xbd, 0x34, 0x52, 0xd9, 0x3d,
  0xf0, 0x78, 0xac, 0xbc, 0xa4, 0x91, 0x6a, 0x3d, 0x98, 0xf9, 0xf6, 0x3d,
  0xe0, 0x8f, 0x29, 0x3d, 0xeb, 0xcf, 0xd7, 0xbd, 0x58, 0x8b, 0xc9, 0x3c,
  0x7c, 0x5a, 0xc2, 0xbc, 0x50, 0x96, 0xd4, 0x3c, 0xc4, 0x98, 0x27, 0x3d,
  0x10, 0x8f, 0xaf, 0x3d, 0x90, 0x68, 0x1b, 0xbc, 0xa0, 0x7a, 0x5e, 0xbc,
  0xa0, 0x5a, 0x16, 0x3c, 0x30, 0xd0, 0x26, 0xbd, 0x25, 0xa3, 0xee, 0xbd,
  0x08, 0x4a, 0x92, 0xbd, 0xb4, 0x68, 0x22, 0x3d, 0xd4, 0x62, 0x1e, 0x3d,
  0x84, 0xb6, 0x2c, 0xbd, 0xe9, 0x1e, 0xe8, 0xbd, 0x20, 0x2c, 0x53, 0x3c,
  0x10, 0x0a, 0x9a, 0x3d, 0x9e, 0x8e, 0xb9, 0xbd, 0xb3, 0x86, 0xf5, 0xbd,
  0x68, 0xaa, 0x1e, 0xbc, 0x6e, 0x9a, 0xac, 0xbd, 0x18, 0xba, 0xea, 0x3c,
  0xe0, 0xa4, 0x80, 0xbc, 0x18, 0x44, 0x91, 0xbd, 0x54, 0x72, 0xce, 0xbc,
  0x40, 0xdb, 0xaf, 0xbd, 0xfe, 0xcf, 0xd4, 0x3d, 0x43, 0xa0, 0x77, 0xbd,
  0x3c, 0x24, 0x14, 0x3d, 0xac, 0x01, 0xa0, 0x3d, 0xc4, 0x12, 0xc1, 0xbc,
  0xc8, 0xc6, 0x9b, 0x3d, 0x95, 0xcd, 0xec, 0xbd, 0x02, 0x86, 0x8b, 0x3d,
  0x48, 0x35, 0x98, 0x3c, 0x1e, 0xac, 0xd9, 0x3d, 0xbe, 0x3a, 0xba, 0x3d,
  0x00, 0x31, 0xe3, 0x3a, 0x66, 0xb4, 0x11, 0xbd, 0x64, 0xee, 0x2b, 0xbd,
  0x40, 0x87, 0x71, 0x3d, 0xde, 0x02, 0xb6, 0x3d, 0xe4, 0x60, 0x89, 0xbd,
  0x00, 0xec, 0x19, 0x39, 0xa8, 0x6e, 0xc7, 0x3c, 0xd0, 0xa6, 0x78, 0x3c,
  0xb0, 0x93, 0xbf, 0xbd, 0xa0, 0xfd, 0x1c, 0x3b, 0xb8, 0x08, 0xbc, 0xbc,
  0x44, 0xad, 0xb6, 0xbd, 0x80, 0x2f, 0x18, 0x3b, 0xcc, 0x5d, 0x8a, 0x3d,
  0xc8, 0x39, 0x38, 0x3d, 0x7a, 0x51, 0xd0, 0x3d, 0xa0, 0xf6, 0xab, 0x3c,
  0x4c, 0xb2, 0xec, 0xbd, 0x7a, 0xf4, 0x8e, 0x3d, 0xae, 0x50, 0x77, 0xbd,
  0xf0, 0x10, 0x5a, 0x3c, 0xa8, 0x16, 0xa7, 0xbd, 0xf0, 0xfe, 0xdd, 0xbb,
  0x13, 0xec, 0x82, 0xbd, 0x70, 0x11, 0xa5, 0xbd, 0x84, 0xf1, 0xed, 0x3d,
  0xad, 0xa1, 0x82, 0xbd, 0xc4, 0x12, 0xb2, 0xbd, 0x18, 0x28, 0xa5, 0x3c,
  0x82, 0xce, 0x84, 0x3d, 0x8e, 0xf3, 0x9d, 0xbd, 0x40, 0x35, 0xac, 0x3b,
  0x00, 0xe4, 0x14, 0x3e, 0x9a, 0xe9, 0x4c, 0xbd, 0x2c, 0x90, 0x1a, 0xbd,
  0x21, 0x77, 0x14, 0x3e, 0xd0, 0x0f, 0x99, 0x3d, 0x2e, 0x07, 0x19, 0xbd,
  0x81, 0x13, 0x00, 0x3e, 0x45, 0x4c, 0x04, 0xbd, 0x92, 0x80, 0x44, 0xbd,
  0x25, 0x6d, 0x67, 0x3d, 0x43, 0xd4, 0x1c, 0x3b, 0xe9, 0xb9, 0x7e, 0x3c,
  0xa8, 0x7e, 0xe1, 0xbb, 0x58, 0x85, 0x1d, 0xbd, 0x02, 0x5a, 0xd4, 0xbd,
  0xe5, 0xa6, 0xdb, 0xbd, 0x26, 0xb6, 0xfa, 0x3d, 0xe4, 0xb7, 0x55, 0xbd,
  0x44, 0xd9, 0x0d, 0x3e, 0xa6, 0xc8, 0x89, 0x3d, 0xc8, 0x21, 0x38, 0x3d,
  0xd6, 0xd1, 0x22, 0x3c, 0x8b, 0x5c, 0x13, 0xbd, 0x13, 0x3b, 0xac, 0xbd,
  0x4f, 0x06, 0x2b, 0xbd, 0x7d, 0x94, 0x35, 0xbc, 0x88, 0x73, 0x20, 0xbe,
  0x5b, 0xd4, 0x3e, 0xbe, 0x41, 0xb5, 0x75, 0xbe, 0x38, 0xda, 0x3a, 0xbe,
  0x04, 0xe3, 0x7c, 0xbe, 0x52, 0x6d, 0x25, 0xbe, 0x6b, 0xed, 0x12, 0xbe,
  0x45, 0x2e, 0x04, 0xbe, 0x69, 0x5d, 0xa9, 0xbd, 0xda, 0x73, 0x40, 0xbd,
  0x12, 0xbb, 0x14, 0xbe, 0xcb, 0x16, 0x6c, 0xbd, 0xb6, 0x39, 0xb8, 0x3d,
  0x68, 0x32, 0xb8, 0xbc, 0x67, 0xe4, 0xc3, 0xbd, 0x4b, 0x60, 0x76, 0xbd,
  0x48, 0x48, 0xc2, 0x3d, 0xfa, 0x69, 0xfb, 0x3c, 0x19, 0x64, 0xe9, 0xbd,
  0x6c, 0x1f, 0xcd, 0xbd, 0xf1, 0x9c, 0x05, 0xbe, 0xc6, 0x60, 0x87, 0x3d,
  0x56, 0x83, 0x92, 0xbd, 0xb1, 0x89, 0xc7, 0xbc, 0x5f, 0x43, 0xd3, 0x3c,
  0x34, 0x96, 0x3c, 0x3e, 0xca, 0x36, 0x97, 0x3c, 0xcb, 0xd7, 0x5e, 0x3e,
  0x42, 0x16, 0xf9, 0x3d, 0x1a, 0x9d, 0x67, 0x3e, 0x60, 0x46, 0xb5, 0x3b,
  0x07, 0x26, 0x00, 0x3e, 0x67, 0x4f, 0x0c, 0x3e, 0xa4, 0xa5, 0x25, 0xbc,
  0x8a, 0x96, 0xa0, 0xbd, 0xfd, 0xef, 0xa8, 0xbd, 0x17, 0x47, 0xd6, 0xbd,
  0x45, 0x80, 0x17, 0xbe, 0xda, 0x88, 0x4c, 0xbe, 0xa0, 0xae, 0x29, 0xbe,
  0x42, 0x3d, 0xed, 0x3c, 0x6b, 0x20, 0xe3, 0xbc, 0x28, 0xd7, 0x22, 0xbe,
  0x61, 0x8e, 0x3a, 0xbe, 0x9c, 0x00, 0x03, 0xbd, 0x04, 0xb2, 0xbf, 0x3c,
  0x6c, 0x75, 0x6b, 0xbd, 0xf9, 0x36, 0xdd, 0xbd, 0x9c, 0xea, 0x4b, 0xbd,
  0xdb, 0x4b, 0xb8, 0xbd, 0x99, 0x95, 0x92, 0xbd, 0xf6, 0xff, 0x22, 0x3e,
  0xbd, 0x59, 0x24, 0x3e, 0xfd, 0x84, 0x0f, 0x3e, 0xe4, 0x36, 0x9f, 0xbc,
  0x78, 0x03, 0x0a, 0x3e, 0x3b, 0xd1, 0xbd, 0x3c, 0x3b, 0x22, 0x23, 0x3e,
  0xe5, 0x30, 0x4d, 0xbd, 0x27, 0x24, 0x0c, 0x3d, 0x16, 0xcb, 0xb9, 0x3c,
  0xed, 0x00, 0x40, 0x3e, 0x12, 0x44, 0x2c, 0x3e, 0xfb, 0x4c, 0xac, 0x3d,
  0x85, 0x52, 0x82, 0x3c, 0x4d, 0x64, 0x3c, 0x3e, 0x4f, 0xad, 0x96, 0x3c,
  0x10, 0xe4, 0x00, 0x3e, 0x2c, 0x1d, 0x94, 0x3d, 0x55, 0x49, 0x37, 0x3e,
  0xd3, 0x15, 0x8e, 0x3e, 0x5d, 0xbb, 0xc1, 0x3d, 0xf8, 0x73, 0xbb, 0x3d,
  0xaf, 0xeb, 0x06, 0x3e, 0xab, 0x9b, 0x6a, 0x3e, 0x2f, 0xe4, 0x52, 0x3e,
  0xf0, 0x24, 0x8a, 0x3e, 0x2c, 0xb4, 0x77, 0x3e, 0xff, 0xbc, 0xe7, 0x3d,
  0x82, 0xb5, 0x04, 0x3d, 0x4e, 0xac, 0xd1, 0xbc, 0x0f, 0xf7, 0x28, 0x3e,
  0x68, 0xd1, 0x96, 0x3d, 0x6a, 0x67, 0xce, 0x3d, 0xa3, 0x43, 0x86, 0x3d,
  0x6d, 0x65, 0x4c, 0x3e, 0xdc, 0x82, 0x00, 0x3e, 0x76, 0xb5, 0x1a, 0x3c,
  0x12, 0x47, 0x0b, 0x3d, 0x0e, 0xe3, 0x8a, 0x3d, 0x2f, 0xc5, 0x68, 0x3e,
  0xbc, 0x0b, 0x9f, 0x3d, 0x51, 0x6d, 0x6f, 0x3b, 0xc7, 0x1d, 0xeb, 0x3d,
  0x78, 0xe3, 0x6a, 0x3e, 0x4d, 0xf3, 0x15, 0x3e, 0x7f, 0xca, 0x64, 0x3d,
  0x9e, 0x6b, 0xef, 0x3c, 0x75, 0xd3, 0x3a, 0xbb, 0x05, 0x3e, 0xaf, 0x3d,
  0x7d, 0xdb, 0x2f, 0x3e, 0x6c, 0x22, 0x1b, 0x3e, 0x16, 0xab, 0xa0, 0x3d,
  0x9a, 0xf7, 0xe0, 0x3d, 0xa0, 0x5e, 0xb8, 0x3b, 0x84, 0x51, 0x5a, 0xbd,
  0xdc, 0x04, 0xb1, 0x3d, 0x09, 0x70, 0xcc, 0xbd, 0x24, 0x40, 0x83, 0x3d,
  0xfc, 0xb8, 0xcd, 0x3d, 0xc0, 0x08, 0x62, 0xbc, 0xc8, 0x76, 0xe0, 0x3d,
  0x20, 0x43, 0x3f, 0x3b, 0x2a, 0x4c, 0xbd, 0x3d, 0x00, 0x98, 0x20, 0xbd,
  0x04, 0x54, 0x0c, 0x3d, 0x18, 0xbc, 0xa8, 0xbd, 0xdc, 0x61, 0x27, 0xbd,
  0x68, 0x1b, 0x9d, 0x3d, 0xd2, 0x43, 0xcf, 0xbd, 0x33, 0x0c, 0xc4, 0xbd,
  0x60, 0xc4, 0xbd, 0xbb, 0x52, 0xf0, 0xd8, 0xbd, 0x7c, 0x8e, 0xd1, 0xbd,
  0xcc, 0x8c, 0xa0, 0x3d, 0x88, 0x55, 0x7d, 0xbc, 0x18, 0xae, 0x89, 0xbd,
  0x11, 0xb1, 0x91, 0xbd, 0xf2, 0xea, 0x90, 0xbd, 0x98, 0x84, 0x9a, 0x3c,
  0x20, 0x4b, 0x89, 0x3d, 0x8c, 0x02, 0xbb, 0x3d, 0x48, 0x03, 0xca, 0x3d,
  0x10, 0x8c, 0x86, 0xbc, 0xe0, 0x2e, 0x7b, 0xbc, 0xe8, 0x18, 0xa9, 0xbc,
  0x10, 0x8b, 0xc3, 0xbd, 0x3a, 0xc9, 0x8a, 0xbd, 0xa0, 0xe8, 0x8d, 0x3c,
  0xe4, 0x01, 0x9b, 0x3d, 0x40, 0x85, 0x94, 0xbd, 0x90, 0x75, 0x93, 0x3d,
  0xb2, 0xbd, 0xc3, 0xbd, 0x98, 0xcd, 0x9a, 0x3d, 0x01, 0x62, 0xd7, 0xbd,
  0xbc, 0x25, 0x74, 0xbd, 0xa0, 0x3e, 0x1f, 0x3d, 0x62, 0xa2, 0x98, 0xbd,
  0xdb, 0x27, 0xf8, 0xbd, 0xb6, 0xe2, 0x95, 0xbd, 0x10, 0xaf, 0xea, 0x3d,
  0x30, 0xc5, 0x71, 0x3d, 0xf8, 0xc2, 0x1f, 0x3d, 0xc0, 0x2c, 0x53, 0x3b,
  0x00, 0x5a, 0x09, 0xba, 0x36, 0x6e, 0x4d, 0xbd, 0xe0, 0x5e, 0x86, 0x3d,
  0xe0, 0x03, 0x4f, 0x3d, 0x00, 0xc4, 0x51, 0x39, 0xac, 0x15, 0xc0, 0xbd,
  0x00, 0x33, 0xc0, 0x3b, 0x0e, 0xd6, 0xc7, 0x3d, 0x06, 0x08, 0xa4, 0xbd,
  0x5c, 0x57, 0xbb, 0xbd, 0x94, 0xc1, 0xe1, 0xbc, 0x04, 0x4c, 0x74, 0x3d,
  0x64, 0xba, 0x57, 0xbd, 0x04, 0x34, 0x09, 0x3d, 0x22, 0xe0, 0xd0, 0x3d,
  0x21, 0x6a, 0xe3, 0xbd, 0x00, 0xc1, 0x37, 0xbd, 0xfc, 0xbf, 0x32, 0xbd,
  0x45, 0x1c, 0xb3, 0xbd, 0x74, 0x9d, 0xe8, 0xbd, 0x66, 0xb0, 0x44, 0xbd,
  0x38, 0x27, 0xd9, 0xbc, 0x18, 0xa7, 0x34, 0x3d, 0x22, 0x9e, 0x80, 0xbd,
  0xaf, 0x36, 0xc1, 0xbd, 0x90, 0x95, 0x3d, 0xbd, 0x70, 0x28, 0x8f, 0x3d,
  0xd6, 0xd7, 0x82, 0x3d, 0xf8, 0x52, 0xf4, 0xbc, 0x68, 0xb7, 0x94, 0xbd,
  0xa0, 0x53, 0x0e, 0x3b, 0xa0, 0xac, 0x86, 0x3b, 0x2e, 0x61, 0xdc, 0xbd,
  0xa0, 0x5b, 0xdc, 0x3b, 0xa0, 0x57, 0xf0, 0xbb, 0x20, 0x7e, 0xb9, 0x3d,
  0x64, 0xfb, 0x94, 0x3d, 0xda, 0x8c, 0x89, 0x3d, 0x09, 0x0c, 0xdc, 0xbd,
  0xec, 0x78, 0x31, 0x3d, 0x6d, 0xdc, 0xf3, 0xbd, 0x28, 0x82, 0xad, 0xbd,
  0x70, 0xeb, 0x3c, 0x3c, 0x66, 0x5a, 0x82, 0xbd, 0xdc, 0xd0, 0xac, 0x3d,
  0x64, 0xb5, 0x57, 0xbd, 0xe4, 0x9c, 0xad, 0xbc, 0xe6, 0x35, 0xab, 0xbd,
  0x92, 0xe6, 0xb8, 0x3d, 0xbc, 0x2e, 0x4d, 0x3d, 0x30, 0x74, 0xb6, 0x3c,
  0x46, 0x1d, 0xbb, 0x3d, 0x98, 0x52, 0x56, 0xbd, 0xb3, 0xb9, 0x8f, 0xbd,
  0xa0, 0xf4, 0x9d, 0x3c, 0x74, 0xcb, 0xc2, 0xbc, 0xfa, 0x15, 0xdd, 0xbd,
  0x10, 0x96, 0x95, 0x3c, 0x80, 0xdc, 0xc9, 0xba, 0xc4, 0xd3, 0x88, 0x3d,
  0xb6, 0x4b, 0x9f, 0x3d, 0x5c, 0xcb, 0x83, 0x3d, 0xdc, 0xb6, 0x0f, 0x3d,
  0xf8, 0x96, 0x08, 0xbc, 0x41, 0x19, 0xa2, 0xbd, 0xbf, 0xa8, 0x80, 0xbd,
  0xb7, 0xf9, 0x97, 0xbd, 0x80, 0xd3, 0x36, 0x3a, 0x24, 0xf0, 0x50, 0x3d,
  0xa0, 0xdd, 0x7f, 0x3d, 0x16, 0x4c, 0xb5, 0x3d, 0xf8, 0x89, 0xab, 0x3d,
  0x22, 0x34, 0xe4, 0xbd, 0x22, 0xb8, 0xf4, 0xbd, 0x28, 0x9e, 0x27, 0x3d,
  0xfe, 0x2b, 0xd8, 0x3d, 0x82, 0x2a, 0x4e, 0xbd, 0xc4, 0xc1, 0x3b, 0x3d,
  0xfa, 0x0a, 0x58, 0xbd, 0x10, 0x2d, 0x75, 0xbc, 0x40, 0xbd, 0xfe, 0x3b,
  0xa0, 0x34, 0xc0, 0x3d, 0x3f, 0xe2, 0xeb, 0xbd, 0xc0, 0x80, 0xd6, 0xbd,
  0x4c, 0x22, 0xab, 0xbc, 0xf0, 0xf7, 0x8b, 0x3d, 0x54, 0x31, 0xd3, 0xbd,
  0xa8, 0x68, 0xcf, 0xbd, 0x60, 0x0d, 0x23, 0x3c, 0x00, 0x3f, 0x96, 0x3d,
  0x4e, 0x76, 0xf7, 0xbd, 0xdc, 0x2a, 0x09, 0x3d, 0x18, 0xb4, 0x77, 0x3d,
  0x36, 0x64, 0xd1, 0x3d, 0x04, 0x2a, 0x05, 0x3d, 0x14, 0x15, 0xa4, 0x3d,
  0xec, 0x2d, 0xf2, 0xbc, 0xa4, 0xfc, 0xe2, 0xbd, 0xda, 0xd3, 0xb3, 0x3d,
  0xc8, 0x85, 0xb1, 0xbc, 0x97, 0xd5, 0xd6, 0xbd, 0xe1, 0xee, 0xe9, 0xbd,
  0x24, 0x93, 0x2d, 0x3d, 0xec, 0xce, 0x02, 0xbd, 0x94, 0x19, 0xe2, 0x3d,
  0xb0, 0x5e, 0x35, 0xbd, 0xf4, 0x67, 0xd4, 0x3d, 0x92, 0xf2, 0xad, 0x3d,
  0x76, 0xc4, 0x2d, 0xbd, 0xcf, 0x78, 0x86, 0xbd, 0x74, 0x89, 0x86, 0xbd,
  0x56, 0xde, 0xef, 0xbd, 0xf2, 0xc5, 0xac, 0xbd, 0x5a, 0x70, 0x86, 0xbd,
  0xf0, 0x4c, 0xd8, 0xbc, 0x40, 0x10, 0x0e, 0x3b, 0x6a, 0x40, 0xbe, 0xbd,
  0x66, 0x5b, 0xb8, 0x3d, 0x66, 0x15, 0xd9, 0x3d, 0xb0, 0x51, 0xe3, 0xbc,
  0x20, 0x2b, 0xf9, 0x3b, 0x5c, 0x6e, 0x1b, 0x3d, 0x50, 0x7d, 0xe1, 0x3d,
  0x1a, 0x26, 0xe6, 0xbd, 0x48, 0x26, 0xe7, 0x3d, 0x46, 0xa6, 0x8d, 0x3d,
  0x14, 0xaa, 0x92, 0x3d, 0x88, 0x99, 0x8b, 0x3d, 0x58, 0x4f, 0xdd, 0xbc,
  0xcc, 0xb2, 0xfe, 0xbc, 0xcb, 0x53, 0x7a, 0xbd, 0xac, 0x86, 0x2f, 0x3d,
  0x0c, 0x67, 0x36, 0xbd, 0xa4, 0x2e, 0x6d, 0xbd, 0x6c, 0xb3, 0xde, 0x3d,
  0xc0, 0xc6, 0x20, 0xbb, 0x08, 0x03, 0xae, 0x3d, 0xa0, 0x1f, 0xc5, 0x3b,
  0xe4, 0x9a, 0xe0, 0xbd, 0x8f, 0xaa, 0x86, 0xbd, 0x50, 0x78, 0x22, 0xbc,
  0xd0, 0xf4, 0xff, 0xbc, 0x90, 0x50, 0x9c, 0x3c, 0xb6, 0x78, 0xc6, 0xbd,
  0x66, 0x3f, 0xef, 0x3d, 0x76, 0xeb, 0xf0, 0x3d, 0xe0, 0xf7, 0x03, 0xbd,
  0xdc, 0xa1, 0xc8, 0x3d, 0x04, 0x6f, 0x27, 0x3d, 0x20, 0x45, 0xe6, 0x3c,
  0x26, 0xbd, 0x95, 0xbd, 0x5f, 0xb8, 0x85, 0xbd, 0x72, 0x6f, 0xd3, 0x3d,
  0xd0, 0x11, 0x9a, 0xbd, 0x10, 0x7b, 0x8b, 0xbb, 0x70, 0x1c, 0x99, 0x3c,
  0x40, 0x38, 0xb6, 0xba, 0x2b, 0x53, 0xea, 0xbd, 0x20, 0x45, 0x67, 0x3c,
  0x40, 0x26, 0xcc, 0xbc, 0x80, 0x2a, 0x30, 0x3c, 0xc6, 0xc4, 0x9e, 0x3d,
  0xb4, 0x36, 0x11, 0x3d, 0x40, 0x48, 0xca, 0x3d, 0xae, 0xc6, 0x13, 0xbd,
  0x02, 0xa7, 0x1f, 0xbd, 0xe0, 0xf4, 0x67, 0x3d, 0xcc, 0xd1, 0x68, 0xbd,
  0xca, 0x61, 0xba, 0x3d, 0x40, 0x94, 0xec, 0x3d, 0xbf, 0x0d, 0xd0, 0xbd,
  0x46, 0xb9, 0x9d, 0x3d, 0x5e, 0x68, 0x80, 0xbd, 0x53, 0xab, 0xf0, 0xbd,
  0xe9, 0xdc, 0xb5, 0xbd, 0xf0, 0xf0, 0xaa, 0xbb, 0x14, 0x28, 0x72, 0x3d,
  0x8c, 0xdf, 0x07, 0xbd, 0x54, 0xc6, 0xd9, 0xbd, 0xae, 0xec, 0x1e, 0xbd,
  0x24, 0xeb, 0x2e, 0xbd, 0x80, 0xad, 0x71, 0xbc, 0xe4, 0x8e, 0x79, 0x3d,
  0xe8, 0x85, 0x31, 0x3d, 0xb4, 0x37, 0xb8, 0xbd, 0x6e, 0x40, 0x14, 0xbd,
  0x4a, 0xde, 0xbe, 0xbd, 0x4a, 0xaa, 0xcb, 0x3d, 0x72, 0x24, 0xb9, 0x3d,
  0x00, 0x7f, 0xdf, 0xba, 0x08, 0x5e, 0xbc, 0x3c, 0x04, 0x0a, 0xbb, 0x3d,
  0x9e, 0xda, 0x99, 0xbd, 0x58, 0x4f, 0x57, 0xbd, 0x9e, 0x29, 0xa3, 0x3d,
  0xb1, 0xbf, 0x92, 0xbd, 0x1c, 0x89, 0x33, 0xbd, 0x70, 0xb3, 0xc5, 0x3d,
  0x4c, 0x2d, 0xb1, 0x3d, 0xdc, 0xf4, 0xba, 0xbd, 0x40, 0x90, 0xc1, 0x3b,
  0x28, 0x67, 0xc3, 0xbc, 0x7a, 0xaf, 0x50, 0xbd, 0x04, 0x4e, 0x0b, 0x3d,
  0x81, 0x0f, 0x1e, 0x3d, 0x99, 0xa4, 0x95, 0x3b, 0xc3, 0x95, 0xc1, 0x3d,
  0x86, 0x93, 0x46, 0x3d, 0x4d, 0x7e, 0x82, 0xbd, 0x01, 0xe8, 0x9e, 0x3a,
  0x0e, 0xf6, 0xf9, 0xbd, 0xeb, 0x20, 0x39, 0x3c, 0xb3, 0xc8, 0xd6, 0x3c,
  0x01, 0xae, 0xcf, 0xbd, 0x88, 0x6e, 0xca, 0xbc, 0xc5, 0x71, 0x16, 0x3d,
  0x91, 0x4a, 0x38, 0xbd, 0xf6, 0xe4, 0x74, 0x3d, 0x89, 0x3e, 0x11, 0x3e,
  0x99, 0x13, 0xa8, 0x3d, 0xb8, 0x13, 0x63, 0xbd, 0x46, 0x4c, 0x19, 0x3e,
  0x06, 0x49, 0xaa, 0x3c, 0xdf, 0x15, 0x1a, 0x3e, 0x60, 0x10, 0x2e, 0xbc,
  0x64, 0x44, 0x84, 0x3d, 0x6d, 0xd9, 0x5a, 0x3d, 0xf6, 0x7d, 0x84, 0x3d,
  0x7f, 0xc5, 0x48, 0xbc, 0x3d, 0x94, 0x0c, 0x3e, 0xf9, 0x57, 0x8d, 0xbd,
  0x86, 0x13, 0xa6, 0x3c, 0x3f, 0xdd, 0x06, 0xbe, 0xc7, 0x9f, 0x1e, 0xbe,
  0xca, 0xe2, 0x6e, 0xbe, 0x8e, 0x53, 0x4c, 0xbe, 0x36, 0x34, 0x83, 0xbd,
  0x64, 0xc6, 0xc5, 0xbd, 0x59, 0x29, 0x2b, 0xbe, 0x70, 0xe4, 0x48, 0xbe,
  0x9d, 0x11, 0x09, 0xbe, 0x54, 0x06, 0x0f, 0xbd, 0xfb, 0x46, 0x19, 0xbe,
  0x4c, 0x53, 0x04, 0xbe, 0xbe, 0x84, 0x60, 0xbd, 0xd3, 0xc8, 0x8d, 0x3d,
  0x4c, 0x91, 0x9a, 0xbd, 0x1c, 0x31, 0x2b, 0x3d, 0x73, 0x7a, 0xdd, 0x3d,
  0x8e, 0x38, 0xc3, 0x3d, 0xa3, 0x3c, 0x4f, 0x3e, 0x3a, 0xe9, 0xf4, 0x3d,
  0xc1, 0xfb, 0x2f, 0x3e, 0xd5, 0x95, 0x66, 0x3e, 0xd9, 0xfe, 0x5d, 0x3e,
  0x96, 0x08, 0x7d, 0x3d, 0x9d, 0x19, 0xc8, 0x3c, 0xff, 0xde, 0x4c, 0x3c,
  0x2b, 0xd6, 0x47, 0x3e, 0x35, 0xfd, 0x3a, 0x3e, 0x79, 0x93, 0xd3, 0x3d,
  0x74, 0xc5, 0x0d, 0x3e, 0x6a, 0x92, 0x0d, 0x3e, 0x88, 0xb8, 0x9e, 0x3d,
  0x4b, 0x13, 0x2b, 0xbe, 0xd2, 0xea, 0xa8, 0xbd, 0xcd, 0x0c, 0xc0, 0xbd,
  0xa3, 0x99, 0x4c, 0xbe, 0xc9, 0x41, 0x85, 0xbe, 0xdf, 0xa3, 0x30, 0xbe,
  0x96, 0x6b, 0x3a, 0xbe, 0xd9, 0x5f, 0x50, 0xbe, 0xc4, 0xcb, 0x67, 0xbe,
  0x0e, 0x38, 0x20, 0xbe, 0x64, 0x26, 0x3f, 0xbe, 0x2d, 0x31, 0x5a, 0xbe,
  0xfc, 0x03, 0x9e, 0x3c, 0xac, 0x6d, 0x9d, 0xbd, 0x67, 0x1c, 0xd3, 0xbc,
  0x6c, 0xdd, 0xb6, 0x3d, 0xed, 0xcf, 0x49, 0xbd, 0xe1, 0xa2, 0x24, 0xbd,
  0x12, 0xe4, 0x9c, 0xbd, 0xb4, 0xbb, 0xdd, 0x3d, 0x31, 0x58, 0x10, 0x3e,
  0xd3, 0x5a, 0x07, 0xbd, 0x92, 0xab, 0x00, 0xbd, 0x35, 0x6c, 0xc0, 0xbc,
  0x98, 0xfb, 0x11, 0x3d, 0x45, 0xc7, 0x9c, 0xbd, 0xa4, 0x97, 0xfd, 0x3d,
  0x3b, 0x20, 0x90, 0xbd, 0xa2, 0xdd, 0xfd, 0x3d, 0xb6, 0xfe, 0x1f, 0x3e,
  0x67, 0x8a, 0x7a, 0x3d, 0x2d, 0xa0, 0x82, 0xbd, 0x52, 0xd5, 0xbd, 0xba,
